{
  "0": "\u0000",
  "1": "\u0001",
  "2": "\u0002",
  "3": "\u0003",
  "4": "\u0004",
  "5": "\u0005",
  "6": "\u0006",
  "7": "\u0007",
  "8": "\b",
  "9": "\t",
  "10": "\n",
  "11": "\u000b",
  "12": "\f",
  "13": "\r",
  "14": "\u000e",
  "15": "\u000f",
  "16": "\u0010",
  "17": "\u0011",
  "18": "\u0012",
  "19": "\u0013",
  "20": "\u0014",
  "21": "\u0015",
  "22": "\u0016",
  "23": "\u0017",
  "24": "\u0018",
  "25": "\u0019",
  "26": "\u001a",
  "27": "\u001b",
  "28": "\u001c",
  "29": "\u001d",
  "30": "\u001e",
  "31": "\u001f",
  "32": " ",
  "33": "!",
  "34": "\"",
  "35": "#",
  "36": "$",
  "37": "%",
  "38": "&",
  "39": "'",
  "40": "(",
  "41": ")",
  "42": "*",
  "43": "+",
  "44": ",",
  "45": "-",
  "46": ".",
  "47": "/",
  "48": "0",
  "49": "1",
  "50": "2",
  "51": "3",
  "52": "4",
  "53": "5",
  "54": "6",
  "55": "7",
  "56": "8",
  "57": "9",
  "58": ":",
  "59": ";",
  "60": "<",
  "61": "=",
  "62": ">",
  "63": "?",
  "64": "@",
  "65": "A",
  "66": "B",
  "67": "C",
  "68": "D",
  "69": "E",
  "70": "F",
  "71": "G",
  "72": "H",
  "73": "I",
  "74": "J",
  "75": "K",
  "76": "L",
  "77": "M",
  "78": "N",
  "79": "O",
  "80": "P",
  "81": "Q",
  "82": "R",
  "83": "S",
  "84": "T",
  "85": "U",
  "86": "V",
  "87": "W",
  "88": "X",
  "89": "Y",
  "90": "Z",
  "91": "[",
  "92": "\\",
  "93": "]",
  "94": "^",
  "95": "_",
  "96": "`",
  "97": "a",
  "98": "b",
  "99": "c",
  "100": "d",
  "101": "e",
  "102": "f",
  "103": "g",
  "104": "h",
  "105": "i",
  "106": "j",
  "107": "k",
  "108": "l",
  "109": "m",
  "110": "n",
  "111": "o",
  "112": "p",
  "113": "q",
  "114": "r",
  "115": "s",
  "116": "t",
  "117": "u",
  "118": "v",
  "119": "w",
  "120": "x",
  "121": "y",
  "122": "z",
  "123": "{",
  "124": "|",
  "125": "}",
  "126": "~",
  "127": "",
  "128": "b'\\x80'",
  "129": "b'\\x81'",
  "130": "b'\\x82'",
  "131": "b'\\x83'",
  "132": "b'\\x84'",
  "133": "b'\\x85'",
  "134": "b'\\x86'",
  "135": "b'\\x87'",
  "136": "b'\\x88'",
  "137": "b'\\x89'",
  "138": "b'\\x8a'",
  "139": "b'\\x8b'",
  "140": "b'\\x8c'",
  "141": "b'\\x8d'",
  "142": "b'\\x8e'",
  "143": "b'\\x8f'",
  "144": "b'\\x90'",
  "145": "b'\\x91'",
  "146": "b'\\x92'",
  "147": "b'\\x93'",
  "148": "b'\\x94'",
  "149": "b'\\x95'",
  "150": "b'\\x96'",
  "151": "b'\\x97'",
  "152": "b'\\x98'",
  "153": "b'\\x99'",
  "154": "b'\\x9a'",
  "155": "b'\\x9b'",
  "156": "b'\\x9c'",
  "157": "b'\\x9d'",
  "158": "b'\\x9e'",
  "159": "b'\\x9f'",
  "160": "b'\\xa0'",
  "161": "b'\\xa1'",
  "162": "b'\\xa2'",
  "163": "b'\\xa3'",
  "164": "b'\\xa4'",
  "165": "b'\\xa5'",
  "166": "b'\\xa6'",
  "167": "b'\\xa7'",
  "168": "b'\\xa8'",
  "169": "b'\\xa9'",
  "170": "b'\\xaa'",
  "171": "b'\\xab'",
  "172": "b'\\xac'",
  "173": "b'\\xad'",
  "174": "b'\\xae'",
  "175": "b'\\xaf'",
  "176": "b'\\xb0'",
  "177": "b'\\xb1'",
  "178": "b'\\xb2'",
  "179": "b'\\xb3'",
  "180": "b'\\xb4'",
  "181": "b'\\xb5'",
  "182": "b'\\xb6'",
  "183": "b'\\xb7'",
  "184": "b'\\xb8'",
  "185": "b'\\xb9'",
  "186": "b'\\xba'",
  "187": "b'\\xbb'",
  "188": "b'\\xbc'",
  "189": "b'\\xbd'",
  "190": "b'\\xbe'",
  "191": "b'\\xbf'",
  "192": "b'\\xc0'",
  "193": "b'\\xc1'",
  "194": "b'\\xc2'",
  "195": "b'\\xc3'",
  "196": "b'\\xc4'",
  "197": "b'\\xc5'",
  "198": "b'\\xc6'",
  "199": "b'\\xc7'",
  "200": "b'\\xc8'",
  "201": "b'\\xc9'",
  "202": "b'\\xca'",
  "203": "b'\\xcb'",
  "204": "b'\\xcc'",
  "205": "b'\\xcd'",
  "206": "b'\\xce'",
  "207": "b'\\xcf'",
  "208": "b'\\xd0'",
  "209": "b'\\xd1'",
  "210": "b'\\xd2'",
  "211": "b'\\xd3'",
  "212": "b'\\xd4'",
  "213": "b'\\xd5'",
  "214": "b'\\xd6'",
  "215": "b'\\xd7'",
  "216": "b'\\xd8'",
  "217": "b'\\xd9'",
  "218": "b'\\xda'",
  "219": "b'\\xdb'",
  "220": "b'\\xdc'",
  "221": "b'\\xdd'",
  "222": "b'\\xde'",
  "223": "b'\\xdf'",
  "224": "b'\\xe0'",
  "225": "b'\\xe1'",
  "226": "b'\\xe2'",
  "227": "b'\\xe3'",
  "228": "b'\\xe4'",
  "229": "b'\\xe5'",
  "230": "b'\\xe6'",
  "231": "b'\\xe7'",
  "232": "b'\\xe8'",
  "233": "b'\\xe9'",
  "234": "b'\\xea'",
  "235": "b'\\xeb'",
  "236": "b'\\xec'",
  "237": "b'\\xed'",
  "238": "b'\\xee'",
  "239": "b'\\xef'",
  "240": "b'\\xf0'",
  "241": "b'\\xf1'",
  "242": "b'\\xf2'",
  "243": "b'\\xf3'",
  "244": "b'\\xf4'",
  "245": "b'\\xf5'",
  "246": "b'\\xf6'",
  "247": "b'\\xf7'",
  "248": "b'\\xf8'",
  "249": "b'\\xf9'",
  "250": "b'\\xfa'",
  "251": "b'\\xfb'",
  "252": "b'\\xfc'",
  "253": "b'\\xfd'",
  "254": "b'\\xfe'",
  "255": "b'\\xff'",
  "256": "<|endoftext|>",
  "257": " t",
  "258": " a",
  "259": "he",
  "260": "in",
  "261": "re",
  "262": " the",
  "263": "on",
  "264": "er",
  "265": " s",
  "266": " w",
  "267": "at",
  "268": " o",
  "269": "en",
  "270": " c",
  "271": "it",
  "272": "is",
  "273": "an",
  "274": "or",
  "275": " b",
  "276": "es",
  "277": "ed",
  "278": " f",
  "279": "ing",
  "280": " p",
  "281": "ou",
  "282": " an",
  "283": "al",
  "284": " to",
  "285": "ar",
  "286": " m",
  "287": " in",
  "288": " of",
  "289": " h",
  "290": " d",
  "291": "b'\\xe2\\x80'",
  "292": "as",
  "293": "ic",
  "294": " and",
  "295": " th",
  "296": "le",
  "297": "om",
  "298": "ion",
  "299": "ll",
  "300": "ent",
  "301": " n",
  "302": " l",
  "303": " re",
  "304": "st",
  "305": "ve",
  "306": " e",
  "307": "ly",
  "308": "ro",
  "309": " be",
  "310": " g",
  "311": "id",
  "312": "ut",
  "313": "ac",
  "314": "ot",
  "315": " T",
  "316": " I",
  "317": " that",
  "318": " on",
  "319": "ay",
  "320": " S",
  "321": " is",
  "322": "et",
  "323": "im",
  "324": "am",
  "325": "ad",
  "326": "ow",
  "327": "se",
  "328": "ig",
  "329": " for",
  "330": "’",
  "331": " A",
  "332": "ver",
  "333": "ur",
  "334": "ct",
  "335": "ld",
  "336": " C",
  "337": " u",
  "338": " st",
  "339": " y",
  "340": " it",
  "341": " he",
  "342": "ir",
  "343": "ation",
  "344": "ith",
  "345": " wh",
  "346": " M",
  "347": "ce",
  "348": "ter",
  "349": "ol",
  "350": " we",
  "351": "il",
  "352": " with",
  "353": " as",
  "354": " B",
  "355": "ch",
  "356": "ill",
  "357": "nd",
  "358": " P",
  "359": " was",
  "360": "ers",
  "361": " you",
  "362": "ke",
  "363": "b' \\xe2\\x80'",
  "364": " con",
  "365": " de",
  "366": " r",
  "367": "her",
  "368": "if",
  "369": "ate",
  "370": "ag",
  "371": " at",
  "372": " ha",
  "373": " W",
  "374": " se",
  "375": " H",
  "376": "ore",
  "377": " pro",
  "378": "ul",
  "379": "pp",
  "380": "ment",
  "381": "ri",
  "382": " are",
  "383": " D",
  "384": " 1",
  "385": "us",
  "386": "est",
  "387": "ist",
  "388": " com",
  "389": "and",
  "390": " R",
  "391": "op",
  "392": "ain",
  "393": " The",
  "394": " 2",
  "395": "igh",
  "396": "rom",
  "397": " (",
  "398": "ort",
  "399": "od",
  "400": " ne",
  "401": " F",
  "402": "um",
  "403": "un",
  "404": " ex",
  "405": "res",
  "406": "ab",
  "407": "”",
  "408": " not",
  "409": " N",
  "410": " v",
  "411": "ess",
  "412": " have",
  "413": "ity",
  "414": "em",
  "415": "ould",
  "416": " or",
  "417": "th",
  "418": " by",
  "419": "os",
  "420": "ant",
  "421": " G",
  "422": "ive",
  "423": " from",
  "424": " al",
  "425": "el",
  "426": "'s",
  "427": "oc",
  "428": "art",
  "429": " su",
  "430": " L",
  "431": " sh",
  "432": " this",
  "433": "nt",
  "434": "qu",
  "435": "ight",
  "436": "pe",
  "437": "ust",
  "438": " le",
  "439": "ies",
  "440": " E",
  "441": "end",
  "442": " ch",
  "443": " sa",
  "444": "out",
  "445": " ab",
  "446": "The",
  "447": "all",
  "448": "ie",
  "449": "ack",
  "450": "red",
  "451": "00",
  "452": " “",
  "453": " has",
  "454": "ally",
  "455": " J",
  "456": " pl",
  "457": " go",
  "458": "ard",
  "459": "iv",
  "460": " his",
  "461": "ome",
  "462": "ap",
  "463": "ost",
  "464": "gh",
  "465": "ear",
  "466": " O",
  "467": " tr",
  "468": "our",
  "469": "ast",
  "470": " j",
  "471": "ak",
  "472": "ud",
  "473": " do",
  "474": " they",
  "475": " but",
  "476": " wor",
  "477": "rou",
  "478": " can",
  "479": "ge",
  "480": " will",
  "481": " said",
  "482": " whe",
  "483": " U",
  "484": " k",
  "485": "ich",
  "486": " all",
  "487": "ok",
  "488": " \"",
  "489": "ide",
  "490": " who",
  "491": " int",
  "492": "ame",
  "493": "ans",
  "494": "ther",
  "495": "ial",
  "496": " out",
  "497": "ff",
  "498": " their",
  "499": "ong",
  "500": "ect",
  "501": "pl",
  "502": "ice",
  "503": "ure",
  "504": "pt",
  "505": "one",
  "506": " more",
  "507": "age",
  "508": "ions",
  "509": "act",
  "510": "ike",
  "511": " me",
  "512": " up",
  "513": "ous",
  "514": "ine",
  "515": " ad",
  "516": " about",
  "517": "ated",
  "518": "ra",
  "519": "ber",
  "520": " one",
  "521": " were",
  "522": " so",
  "523": " us",
  "524": "ime",
  "525": "og",
  "526": " K",
  "527": "ep",
  "528": "ia",
  "529": " had",
  "530": "are",
  "531": "ub",
  "532": "cc",
  "533": " would",
  "534": " cl",
  "535": " 20",
  "536": " im",
  "537": " which",
  "538": "ind",
  "539": "ue",
  "540": "ake",
  "541": " cont",
  "542": "iz",
  "543": "very",
  "544": " ag",
  "545": " te",
  "546": " off",
  "547": " comp",
  "548": " un",
  "549": " been",
  "550": " St",
  "551": "so",
  "552": " en",
  "553": "per",
  "554": "ign",
  "555": "au",
  "556": " Th",
  "557": "ary",
  "558": "ace",
  "559": " year",
  "560": "ip",
  "561": "ew",
  "562": " like",
  "563": "ere",
  "564": "ven",
  "565": "ook",
  "566": " inc",
  "567": "ays",
  "568": " man",
  "569": " pe",
  "570": "ry",
  "571": "ose",
  "572": " res",
  "573": "able",
  "574": "ite",
  "575": " per",
  "576": "ass",
  "577": "ord",
  "578": " sp",
  "579": "ire",
  "580": " In",
  "581": " other",
  "582": "mer",
  "583": " some",
  "584": "ile",
  "585": "ib",
  "586": "ence",
  "587": "ople",
  "588": " 201",
  "589": "ks",
  "590": "ations",
  "591": " over",
  "592": "ical",
  "593": " there",
  "594": "ress",
  "595": " dis",
  "596": "ult",
  "597": "int",
  "598": " new",
  "599": "own",
  "600": " also",
  "601": " than",
  "602": " ar",
  "603": " bec",
  "604": "ru",
  "605": " them",
  "606": "ance",
  "607": "ount",
  "608": "ough",
  "609": " app",
  "610": "port",
  "611": "ail",
  "612": " part",
  "613": " your",
  "614": " when",
  "615": "ree",
  "616": " what",
  "617": "orm",
  "618": "ond",
  "619": " people",
  "620": "fter",
  "621": " sc",
  "622": " Ch",
  "623": "av",
  "624": "ase",
  "625": " qu",
  "626": " any",
  "627": " just",
  "628": " its",
  "629": " Y",
  "630": "ach",
  "631": " time",
  "632": " It",
  "633": " kn",
  "634": " her",
  "635": " 3",
  "636": "ens",
  "637": "lic",
  "638": " rec",
  "639": "reat",
  "640": " my",
  "641": " get",
  "642": " if",
  "643": " V",
  "644": "ian",
  "645": ".”",
  "646": " into",
  "647": "ound",
  "648": " work",
  "649": " tw",
  "650": "irst",
  "651": "vel",
  "652": "ction",
  "653": " no",
  "654": "du",
  "655": "ings",
  "656": "ory",
  "657": "ick",
  "658": "ors",
  "659": " our",
  "660": "ition",
  "661": "ident",
  "662": "ob",
  "663": " -",
  "664": " pre",
  "665": "ove",
  "666": " play",
  "667": "ang",
  "668": "ink",
  "669": "ause",
  "670": "wn",
  "671": "amp",
  "672": "te",
  "673": "ade",
  "674": "hing",
  "675": "ates",
  "676": "ark",
  "677": " ro",
  "678": " pol",
  "679": " she",
  "680": "vers",
  "681": " co",
  "682": ",”",
  "683": " after",
  "684": " first",
  "685": " could",
  "686": " how",
  "687": " He",
  "688": "ne",
  "689": " 19",
  "690": "ious",
  "691": "nder",
  "692": "ild",
  "693": " acc",
  "694": " him",
  "695": "aw",
  "696": "'t",
  "697": "ons",
  "698": " po",
  "699": " only",
  "700": " fe",
  "701": " att",
  "702": "ict",
  "703": "hed",
  "704": " pr",
  "705": " two",
  "706": "rit",
  "707": "ov",
  "708": "ish",
  "709": " comm",
  "710": "“",
  "711": "form",
  "712": " spe",
  "713": " act",
  "714": "we",
  "715": "erv",
  "716": " bl",
  "717": "ft",
  "718": " bet",
  "719": " dec",
  "720": ".\"",
  "721": "ning",
  "722": " back",
  "723": " most",
  "724": "ces",
  "725": "ood",
  "726": "ck",
  "727": " –",
  "728": " am",
  "729": "oy",
  "730": " did",
  "731": "rough",
  "732": "iff",
  "733": "ater",
  "734": "round",
  "735": " again",
  "736": " 4",
  "737": "ual",
  "738": "day",
  "739": "ise",
  "740": " under",
  "741": " des",
  "742": " want",
  "743": "ull",
  "744": "sel",
  "745": " cons",
  "746": " —",
  "747": "..",
  "748": " because",
  "749": " now",
  "750": "lud",
  "751": "ents",
  "752": " years",
  "753": "man",
  "754": "tern",
  "755": "ublic",
  "756": "ec",
  "757": " need",
  "758": " even",
  "759": " $",
  "760": "iss",
  "761": " inv",
  "762": " know",
  "763": " We",
  "764": " see",
  "765": "ments",
  "766": "ced",
  "767": " add",
  "768": ",\"",
  "769": "ting",
  "770": "old",
  "771": " ind",
  "772": " sec",
  "773": "fore",
  "774": "uch",
  "775": " every",
  "776": "urn",
  "777": " 5",
  "778": " supp",
  "779": " make",
  "780": "pect",
  "781": " Un",
  "782": " em",
  "783": " these",
  "784": "ock",
  "785": "oll",
  "786": " where",
  "787": "ject",
  "788": "In",
  "789": "ational",
  "790": "vern",
  "791": "xt",
  "792": " bu",
  "793": " look",
  "794": "Th",
  "795": " And",
  "796": "oss",
  "797": " don",
  "798": " ev",
  "799": "ump",
  "800": "ating",
  "801": " way",
  "802": " being",
  "803": " rem",
  "804": " right",
  "805": "ily",
  "806": " may",
  "807": "ng",
  "808": "row",
  "809": "lect",
  "810": "iew",
  "811": " then",
  "812": " many",
  "813": " [",
  "814": " diff",
  "815": " def",
  "816": "ason",
  "817": " rel",
  "818": " call",
  "819": " But",
  "820": " Tr",
  "821": "ont",
  "822": "ied",
  "823": "les",
  "824": "ased",
  "825": " includ",
  "826": " think",
  "827": "aking",
  "828": " reg",
  "829": ").",
  "830": "meric",
  "831": " imp",
  "832": " through",
  "833": "ath",
  "834": "ited",
  "835": "rib",
  "836": " sy",
  "837": " should",
  "838": " pres",
  "839": " say",
  "840": "ell",
  "841": " fl",
  "842": "uring",
  "843": " last",
  "844": " those",
  "845": "ower",
  "846": " very",
  "847": "ty",
  "848": "other",
  "849": " much",
  "850": "ities",
  "851": "ific",
  "852": " state",
  "853": " This",
  "854": "ative",
  "855": " show",
  "856": "tle",
  "857": "hen",
  "858": " br",
  "859": "ss",
  "860": "arg",
  "861": " well",
  "862": "oth",
  "863": " ph",
  "864": " Wh",
  "865": " count",
  "866": "als",
  "867": "und",
  "868": " 200",
  "869": " does",
  "870": " down",
  "871": " own",
  "872": "arly",
  "873": " end",
  "874": " ass",
  "875": " bel",
  "876": " use",
  "877": "ics",
  "878": "ange",
  "879": "--",
  "880": "ts",
  "881": " long",
  "882": " Americ",
  "883": "ters",
  "884": "ince",
  "885": " before",
  "886": "omet",
  "887": "gr",
  "888": " mon",
  "889": "ward",
  "890": " govern",
  "891": " start",
  "892": " report",
  "893": "ible",
  "894": " ke",
  "895": "up",
  "896": "ues",
  "897": " New",
  "898": " fin",
  "899": " team",
  "900": "ble",
  "901": " made",
  "902": "ife",
  "903": "olog",
  "904": "ener",
  "905": "),",
  "906": " such",
  "907": "ren",
  "908": "com",
  "909": "oun",
  "910": "erson",
  "911": "ek",
  "912": "ix",
  "913": " sm",
  "914": "—",
  "915": "lp",
  "916": "ility",
  "917": " going",
  "918": "ism",
  "919": "ful",
  "920": " world",
  "921": "ually",
  "922": " stud",
  "923": "ists",
  "924": " good",
  "925": " ac",
  "926": "tain",
  "927": "It",
  "928": " sub",
  "929": " eff",
  "930": " sur",
  "931": " against",
  "932": "its",
  "933": " game",
  "934": " set",
  "935": "ork",
  "936": " 6",
  "937": " gu",
  "938": " point",
  "939": " ent",
  "940": "ys",
  "941": "000",
  "942": "gan",
  "943": "ars",
  "944": "li",
  "945": "stem",
  "946": " prov",
  "947": " still",
  "948": "roup",
  "949": " while",
  "950": "illion",
  "951": " help",
  "952": " lead",
  "953": " min",
  "954": "ween",
  "955": "ef",
  "956": "ax",
  "957": "ank",
  "958": "alk",
  "959": "imes",
  "960": " says",
  "961": " ob",
  "962": "ms",
  "963": "cy",
  "964": " produ",
  "965": " gr",
  "966": " inter",
  "967": " inst",
  "968": " str",
  "969": "cess",
  "970": " sim",
  "971": "io",
  "972": "self",
  "973": " conf",
  "974": " col",
  "975": " take",
  "976": "ures",
  "977": "arch",
  "978": " same",
  "979": " though",
  "980": " between",
  "981": "ollow",
  "982": " offic",
  "983": "ever",
  "984": " cr",
  "985": " differe",
  "986": "ool",
  "987": "uss",
  "988": "ution",
  "989": "land",
  "990": " disc",
  "991": "air",
  "992": " op",
  "993": "ah",
  "994": " ed",
  "995": " high",
  "996": "read",
  "997": " num",
  "998": " law",
  "999": " sign",
  "1000": "way",
  "1001": " government",
  "1002": "gg",
  "1003": " Re",
  "1004": "led",
  "1005": "ner",
  "1006": "hip",
  "1007": "----",
  "1008": "atch",
  "1009": "hes",
  "1010": "ames",
  "1011": "any",
  "1012": " ter",
  "1013": " somet",
  "1014": "cent",
  "1015": "velop",
  "1016": "ted",
  "1017": "We",
  "1018": " ref",
  "1019": " trans",
  "1020": "ten",
  "1021": " ins",
  "1022": " run",
  "1023": " ser",
  "1024": " found",
  "1025": " three",
  "1026": "ives",
  "1027": "ave",
  "1028": " mem",
  "1029": " around",
  "1030": " here",
  "1031": "ather",
  "1032": " med",
  "1033": " real",
  "1034": " used",
  "1035": "ouse",
  "1036": " 10",
  "1037": "ved",
  "1038": " exp",
  "1039": "az",
  "1040": " Ar",
  "1041": "cept",
  "1042": "oot",
  "1043": " system",
  "1044": " You",
  "1045": "ci",
  "1046": " really",
  "1047": " mod",
  "1048": "ving",
  "1049": "con",
  "1050": "cer",
  "1051": " group",
  "1052": " support",
  "1053": " 7",
  "1054": " cour",
  "1055": "ets",
  "1056": "ale",
  "1057": "ins",
  "1058": " ret",
  "1059": " hand",
  "1060": "inin",
  "1061": " public",
  "1062": " spec",
  "1063": "pr",
  "1064": " Le",
  "1065": "ying",
  "1066": " great",
  "1067": " car",
  "1068": "ense",
  "1069": " ext",
  "1070": ".[",
  "1071": "ton",
  "1072": "irect",
  "1073": " cur",
  "1074": " fam",
  "1075": " Com",
  "1076": "alth",
  "1077": " happ",
  "1078": " fact",
  "1079": "ph",
  "1080": " exper",
  "1081": " They",
  "1082": " Trump",
  "1083": " fr",
  "1084": " wom",
  "1085": " Is",
  "1086": " cap",
  "1087": " both",
  "1088": " day",
  "1089": " find",
  "1090": " Al",
  "1091": "ular",
  "1092": " read",
  "1093": "ines",
  "1094": "oh",
  "1095": "ices",
  "1096": " det",
  "1097": " lit",
  "1098": " sl",
  "1099": " rep",
  "1100": "uth",
  "1101": "ered",
  "1102": " during",
  "1103": " Sh",
  "1104": " As",
  "1105": " 0",
  "1106": " serv",
  "1107": " month",
  "1108": "min",
  "1109": "the",
  "1110": "ision",
  "1111": " cre",
  "1112": " develop",
  "1113": " big",
  "1114": " 8",
  "1115": " person",
  "1116": "akes",
  "1117": " follow",
  "1118": " Cl",
  "1119": " iss",
  "1120": "ex",
  "1121": " told",
  "1122": " since",
  "1123": "ared",
  "1124": "med",
  "1125": "ically",
  "1126": " week",
  "1127": "ages",
  "1128": "ivers",
  "1129": " war",
  "1130": " few",
  "1131": "orth",
  "1132": "ording",
  "1133": " cent",
  "1134": " leg",
  "1135": "aj",
  "1136": "get",
  "1137": " polit",
  "1138": "ves",
  "1139": "ash",
  "1140": " expl",
  "1141": " lot",
  "1142": "ric",
  "1143": " Se",
  "1144": " belie",
  "1145": " gener",
  "1146": " too",
  "1147": " 9",
  "1148": "der",
  "1149": "ata",
  "1150": "rent",
  "1151": " opp",
  "1152": "Wh",
  "1153": " requ",
  "1154": " contin",
  "1155": " prot",
  "1156": "iet",
  "1157": "bers",
  "1158": "anc",
  "1159": " fil",
  "1160": "ention",
  "1161": "ness",
  "1162": " cle",
  "1163": " resp",
  "1164": " put",
  "1165": "ized",
  "1166": " If",
  "1167": " another",
  "1168": "20",
  "1169": "chool",
  "1170": " inf",
  "1171": " something",
  "1172": " De",
  "1173": " different",
  "1174": " cor",
  "1175": " loc",
  "1176": "ute",
  "1177": " invest",
  "1178": " soc",
  "1179": " power",
  "1180": " che",
  "1181": "uc",
  "1182": " '",
  "1183": " pass",
  "1184": " commun",
  "1185": " life",
  "1186": " Fr",
  "1187": " plan",
  "1188": "ody",
  "1189": " rele",
  "1190": "ience",
  "1191": " head",
  "1192": " things",
  "1193": "ned",
  "1194": " far",
  "1195": " art",
  "1196": " poss",
  "1197": " met",
  "1198": "thing",
  "1199": "ox",
  "1200": "erest",
  "1201": " camp",
  "1202": "ross",
  "1203": "arge",
  "1204": " vot",
  "1205": "ier",
  "1206": "This",
  "1207": "view",
  "1208": " child",
  "1209": "ants",
  "1210": " ask",
  "1211": " .",
  "1212": " might",
  "1213": " each",
  "1214": "ize",
  "1215": "iness",
  "1216": " dep",
  "1217": " never",
  "1218": " next",
  "1219": "ik",
  "1220": "ield",
  "1221": " second",
  "1222": " mark",
  "1223": "tt",
  "1224": " quest",
  "1225": " bus",
  "1226": " adv",
  "1227": " An",
  "1228": " dem",
  "1229": " For",
  "1230": " come",
  "1231": " got",
  "1232": " ‘",
  "1233": " open",
  "1234": " best",
  "1235": "ient",
  "1236": "ital",
  "1237": " allow",
  "1238": " That",
  "1239": "rat",
  "1240": " seem",
  "1241": " post",
  "1242": "ple",
  "1243": "nce",
  "1244": " feel",
  "1245": " Pro",
  "1246": " US",
  "1247": "ug",
  "1248": " pri",
  "1249": "gram",
  "1250": " percent",
  "1251": "cl",
  "1252": " home",
  "1253": " dist",
  "1254": " direct",
  "1255": "ired",
  "1256": " incre",
  "1257": " contro",
  "1258": " Rep",
  "1259": "son",
  "1260": "orn",
  "1261": "less",
  "1262": "osed",
  "1263": " result",
  "1264": " hard",
  "1265": " care",
  "1266": "ately",
  "1267": " million",
  "1268": "chn",
  "1269": " comple",
  "1270": " place",
  "1271": " without",
  "1272": " inform",
  "1273": " including",
  "1274": " import",
  "1275": " av",
  "1276": "conom",
  "1277": " hum",
  "1278": " ide",
  "1279": " proble",
  "1280": " build",
  "1281": " top",
  "1282": "ama",
  "1283": " number",
  "1284": " country",
  "1285": "gy",
  "1286": "oney",
  "1287": "aim",
  "1288": " Bl",
  "1289": "ret",
  "1290": "ral",
  "1291": "ably",
  "1292": "uro",
  "1293": " stand",
  "1294": " gl",
  "1295": " el",
  "1296": "riend",
  "1297": " four",
  "1298": "ished",
  "1299": "ways",
  "1300": " partic",
  "1301": " better",
  "1302": " tri",
  "1303": "But",
  "1304": " recent",
  "1305": " interest",
  "1306": " mov",
  "1307": " let",
  "1308": "co",
  "1309": "ration",
  "1310": " season",
  "1311": " less",
  "1312": "ead",
  "1313": " turn",
  "1314": " little",
  "1315": " beh",
  "1316": " mil",
  "1317": " appro",
  "1318": "ract",
  "1319": "line",
  "1320": " bro",
  "1321": "ling",
  "1322": "ised",
  "1323": " called",
  "1324": "app",
  "1325": "10",
  "1326": " case",
  "1327": " dr",
  "1328": " Ind",
  "1329": " rest",
  "1330": " left",
  "1331": " pop",
  "1332": " ann",
  "1333": " Z",
  "1334": "ency",
  "1335": "ode",
  "1336": " move",
  "1337": " attack",
  "1338": "ina",
  "1339": " There",
  "1340": " keep",
  "1341": " full",
  "1342": "ering",
  "1343": " didn",
  "1344": "be",
  "1345": " fun",
  "1346": " main",
  "1347": "ajor",
  "1348": "__",
  "1349": " effect",
  "1350": "inal",
  "1351": "leg",
  "1352": " prev",
  "1353": " program",
  "1354": " using",
  "1355": " test",
  "1356": "rem",
  "1357": " pay",
  "1358": "ature",
  "1359": " ear",
  "1360": "to",
  "1361": " val",
  "1362": " police",
  "1363": " writ",
  "1364": " form",
  "1365": " econom",
  "1366": " data",
  "1367": " news",
  "1368": " pos",
  "1369": " win",
  "1370": " American",
  "1371": " level",
  "1372": " sit",
  "1373": " char",
  "1374": "ains",
  "1375": "iving",
  "1376": "uck",
  "1377": " small",
  "1378": "ined",
  "1379": "ready",
  "1380": "He",
  "1381": " school",
  "1382": " list",
  "1383": "ology",
  "1384": "rap",
  "1385": "ided",
  "1386": "mit",
  "1387": "ploy",
  "1388": "'re",
  "1389": "ger",
  "1390": " eas",
  "1391": " process",
  "1392": "ird",
  "1393": " change",
  "1394": " women",
  "1395": " current",
  "1396": " rece",
  "1397": " prom",
  "1398": " hist",
  "1399": " dri",
  "1400": " =",
  "1401": "ians",
  "1402": "reen",
  "1403": " president",
  "1404": " company",
  "1405": " So",
  "1406": "used",
  "1407": " mat",
  "1408": "ruct",
  "1409": " already",
  "1410": "ohn",
  "1411": " United",
  "1412": "wit",
  "1413": " ty",
  "1414": " why",
  "1415": " bre",
  "1416": " unt",
  "1417": " money",
  "1418": " sol",
  "1419": " always",
  "1420": " later",
  "1421": " expect",
  "1422": " techn",
  "1423": " business",
  "1424": " How",
  "1425": " official",
  "1426": "ron",
  "1427": " Q",
  "1428": " Ob",
  "1429": "stand",
  "1430": "iversity",
  "1431": " bo",
  "1432": " book",
  "1433": " Ph",
  "1434": "aign",
  "1435": " thing",
  "1436": " class",
  "1437": " project",
  "1438": "ases",
  "1439": " claim",
  "1440": " job",
  "1441": " information",
  "1442": " organ",
  "1443": "aff",
  "1444": " She",
  "1445": "ards",
  "1446": " talk",
  "1447": " Be",
  "1448": " design",
  "1449": " story",
  "1450": " chang",
  "1451": " major",
  "1452": " able",
  "1453": " prof",
  "1454": " --",
  "1455": "...",
  "1456": "lection",
  "1457": "iven",
  "1458": "ertain",
  "1459": " rese",
  "1460": " health",
  "1461": " vis",
  "1462": " past",
  "1463": "urs",
  "1464": " free",
  "1465": "outh",
  "1466": "here",
  "1467": " Ad",
  "1468": " oper",
  "1469": "ption",
  "1470": " away",
  "1471": "ior",
  "1472": " Can",
  "1473": " must",
  "1474": " city",
  "1475": "____",
  "1476": "ample",
  "1477": "rist",
  "1478": "sc",
  "1479": "ural",
  "1480": " happen",
  "1481": "uthor",
  "1482": " 18",
  "1483": " important",
  "1484": "acy",
  "1485": "urity",
  "1486": " kill",
  "1487": " sk",
  "1488": " est",
  "1489": "ured",
  "1490": " old",
  "1491": " pat",
  "1492": "ury",
  "1493": "ending",
  "1494": " doesn",
  "1495": "ission",
  "1496": " least",
  "1497": " grow",
  "1498": " edit",
  "1499": " var",
  "1500": "ained",
  "1501": "St",
  "1502": " cost",
  "1503": " Go",
  "1504": "ney",
  "1505": "ider",
  "1506": "ides",
  "1507": "els",
  "1508": " days",
  "1509": " tell",
  "1510": " hop",
  "1511": " stre",
  "1512": " campaign",
  "1513": "side",
  "1514": " 12",
  "1515": " men",
  "1516": " came",
  "1517": " aff",
  "1518": " const",
  "1519": "resident",
  "1520": " enough",
  "1521": " view",
  "1522": "ccess",
  "1523": " kind",
  "1524": " Mar",
  "1525": "oad",
  "1526": " Sp",
  "1527": "ern",
  "1528": " making",
  "1529": " large",
  "1530": " record",
  "1531": "50",
  "1532": "ush",
  "1533": " friend",
  "1534": " mar",
  "1535": " family",
  "1536": "…",
  "1537": "ley",
  "1538": " elect",
  "1539": "eral",
  "1540": " polic",
  "1541": " tax",
  "1542": "ising",
  "1543": "by",
  "1544": "pped",
  "1545": "ality",
  "1546": "ator",
  "1547": "ified",
  "1548": "As",
  "1549": "ived",
  "1550": "arent",
  "1551": "ror",
  "1552": " until",
  "1553": "ee",
  "1554": "ional",
  "1555": " political",
  "1556": " vide",
  "1557": " deal",
  "1558": "ries",
  "1559": "alf",
  "1560": "augh",
  "1561": " ve",
  "1562": " working",
  "1563": "ued",
  "1564": " Republic",
  "1565": " took",
  "1566": " deb",
  "1567": "bs",
  "1568": "If",
  "1569": "ister",
  "1570": " line",
  "1571": " John",
  "1572": "aining",
  "1573": " air",
  "1574": " es",
  "1575": " intern",
  "1576": " fore",
  "1577": "iol",
  "1578": "ane",
  "1579": "ocrat",
  "1580": " become",
  "1581": " actually",
  "1582": "aps",
  "1583": "ony",
  "1584": " mean",
  "1585": "work",
  "1586": " fund",
  "1587": " Sc",
  "1588": "ware",
  "1589": "19",
  "1590": "ember",
  "1591": " Pl",
  "1592": " former",
  "1593": " often",
  "1594": " Euro",
  "1595": "ott",
  "1596": "ann",
  "1597": " won",
  "1598": " give",
  "1599": "oint",
  "1600": " according",
  "1601": " ever",
  "1602": "most",
  "1603": "eng",
  "1604": "year",
  "1605": "wh",
  "1606": "aring",
  "1607": " games",
  "1608": "ison",
  "1609": " human",
  "1610": " bas",
  "1611": " word",
  "1612": "ization",
  "1613": " return",
  "1614": " times",
  "1615": " order",
  "1616": " Russ",
  "1617": " bit",
  "1618": " Dem",
  "1619": " name",
  "1620": "11",
  "1621": " sever",
  "1622": " All",
  "1623": " dev",
  "1624": "icle",
  "1625": "uture",
  "1626": "for",
  "1627": "ither",
  "1628": "iqu",
  "1629": " par",
  "1630": " 199",
  "1631": " Mc",
  "1632": " wr",
  "1633": " Con",
  "1634": "raft",
  "1635": " sing",
  "1636": " perform",
  "1637": " Sy",
  "1638": "idd",
  "1639": " market",
  "1640": " fac",
  "1641": " charac",
  "1642": "There",
  "1643": " Or",
  "1644": " At",
  "1645": " May",
  "1646": " ra",
  "1647": " doing",
  "1648": " appear",
  "1649": "ER",
  "1650": "ched",
  "1651": " players",
  "1652": " la",
  "1653": "eded",
  "1654": " night",
  "1655": " lear",
  "1656": "aken",
  "1657": "rop",
  "1658": "ats",
  "1659": "mber",
  "1660": " today",
  "1661": " early",
  "1662": " 15",
  "1663": " seen",
  "1664": "//",
  "1665": " having",
  "1666": " ,",
  "1667": " pot",
  "1668": " children",
  "1669": " event",
  "1670": " media",
  "1671": " social",
  "1672": " crit",
  "1673": " President",
  "1674": " whether",
  "1675": " several",
  "1676": " control",
  "1677": "idence",
  "1678": " meet",
  "1679": "sh",
  "1680": " milit",
  "1681": " press",
  "1682": " went",
  "1683": "artment",
  "1684": "ene",
  "1685": " five",
  "1686": " young",
  "1687": "ories",
  "1688": " sure",
  "1689": " prop",
  "1690": "iously",
  "1691": " equ",
  "1692": " beg",
  "1693": " question",
  "1694": " occ",
  "1695": " likely",
  "1696": "vert",
  "1697": "une",
  "1698": " members",
  "1699": "br",
  "1700": "ands",
  "1701": " certain",
  "1702": "ium",
  "1703": " eng",
  "1704": " water",
  "1705": " York",
  "1706": " example",
  "1707": "ots",
  "1708": " Col",
  "1709": " arg",
  "1710": " side",
  "1711": " ant",
  "1712": " done",
  "1713": "enn",
  "1714": " vers",
  "1715": " invol",
  "1716": " Mr",
  "1717": " States",
  "1718": " Europe",
  "1719": "ended",
  "1720": "let",
  "1721": " along",
  "1722": " short",
  "1723": " success",
  "1724": "ential",
  "1725": " months",
  "1726": "ball",
  "1727": " hour",
  "1728": " 11",
  "1729": " sex",
  "1730": "iver",
  "1731": "ially",
  "1732": "And",
  "1733": "lf",
  "1734": "empt",
  "1735": " within",
  "1736": " desc",
  "1737": "--------",
  "1738": "imate",
  "1739": " course",
  "1740": " fight",
  "1741": "ster",
  "1742": "urch",
  "1743": "ubl",
  "1744": " among",
  "1745": " activ",
  "1746": "uff",
  "1747": "–",
  "1748": "ague",
  "1749": " once",
  "1750": " future",
  "1751": " investig",
  "1752": "ulation",
  "1753": "rew",
  "1754": " possible",
  "1755": " Obama",
  "1756": " cho",
  "1757": "nect",
  "1758": " understand",
  "1759": "iting",
  "1760": " concer",
  "1761": " On",
  "1762": " ]",
  "1763": "ones",
  "1764": "ortun",
  "1765": " problem",
  "1766": " Br",
  "1767": " priv",
  "1768": " means",
  "1769": " viol",
  "1770": " Car",
  "1771": " author",
  "1772": "itive",
  "1773": " No",
  "1774": "ggest",
  "1775": " avail",
  "1776": "oci",
  "1777": "ourn",
  "1778": "my",
  "1779": " known",
  "1780": " product",
  "1781": " non",
  "1782": "ivid",
  "1783": " thought",
  "1784": " yet",
  "1785": "gress",
  "1786": " across",
  "1787": " protect",
  "1788": " local",
  "1789": "ald",
  "1790": "ler",
  "1791": " hold",
  "1792": " Te",
  "1793": " fail",
  "1794": "inc",
  "1795": " When",
  "1796": " State",
  "1797": " community",
  "1798": " reason",
  "1799": " orig",
  "1800": " suggest",
  "1801": " &",
  "1802": "12",
  "1803": " makes",
  "1804": "verage",
  "1805": "not",
  "1806": "por",
  "1807": "back",
  "1808": " 2016",
  "1809": " i",
  "1810": "book",
  "1811": " asked",
  "1812": "ederal",
  "1813": "orld",
  "1814": " reported",
  "1815": "You",
  "1816": "aged",
  "1817": "ensive",
  "1818": " given",
  "1819": " strong",
  "1820": " prob",
  "1821": " mus",
  "1822": " others",
  "1823": " believe",
  "1824": " video",
  "1825": "iber",
  "1826": " ben",
  "1827": " getting",
  "1828": " House",
  "1829": "ances",
  "1830": " announ",
  "1831": " light",
  "1832": "ored",
  "1833": "ober",
  "1834": " University",
  "1835": " 30",
  "1836": " Co",
  "1837": "itions",
  "1838": " ident",
  "1839": "iron",
  "1840": " sent",
  "1841": " cut",
  "1842": " lim",
  "1843": " ca",
  "1844": " Christ",
  "1845": "iety",
  "1846": "30",
  "1847": "urther",
  "1848": " sour",
  "1849": " creat",
  "1850": " cond",
  "1851": " X",
  "1852": "rest",
  "1853": "ams",
  "1854": "'ve",
  "1855": " net",
  "1856": "ashing",
  "1857": " bat",
  "1858": "ament",
  "1859": " national",
  "1860": ".,",
  "1861": " close",
  "1862": "arm",
  "1863": " started",
  "1864": " saf",
  "1865": " death",
  "1866": "aster",
  "1867": " available",
  "1868": " hig",
  "1869": "For",
  "1870": " based",
  "1871": " issue",
  "1872": "of",
  "1873": " indust",
  "1874": " Democrat",
  "1875": " Min",
  "1876": " low",
  "1877": " following",
  "1878": "resent",
  "1879": " account",
  "1880": " land",
  "1881": "use",
  "1882": " Cent",
  "1883": " employ",
  "1884": " love",
  "1885": " 2015",
  "1886": " #",
  "1887": " history",
  "1888": " ago",
  "1889": "orts",
  "1890": "selves",
  "1891": " mom",
  "1892": " party",
  "1893": " Am",
  "1894": "ability",
  "1895": "eb",
  "1896": " series",
  "1897": " comes",
  "1898": " trying",
  "1899": "uly",
  "1900": "utes",
  "1901": " almost",
  "1902": "gether",
  "1903": "ument",
  "1904": " together",
  "1905": "ination",
  "1906": "AT",
  "1907": " America",
  "1908": " idea",
  "1909": "pro",
  "1910": "ief",
  "1911": " access",
  "1912": " foc",
  "1913": "hers",
  "1914": "ilar",
  "1915": " Fl",
  "1916": "reed",
  "1917": "ails",
  "1918": " commit",
  "1919": "itional",
  "1920": " isn",
  "1921": " Sen",
  "1922": " clear",
  "1923": " 16",
  "1924": " One",
  "1925": " trad",
  "1926": "though",
  "1927": "ring",
  "1928": " What",
  "1929": " pract",
  "1930": " added",
  "1931": " impro",
  "1932": " experience",
  "1933": "erence",
  "1934": " film",
  "1935": "15",
  "1936": " half",
  "1937": "ustom",
  "1938": "ged",
  "1939": " hit",
  "1940": "af",
  "1941": " Bro",
  "1942": "witter",
  "1943": "rict",
  "1944": " anal",
  "1945": "inton",
  "1946": "ograp",
  "1947": "unch",
  "1948": " 2014",
  "1949": " rul",
  "1950": "ividual",
  "1951": " looking",
  "1952": " six",
  "1953": " live",
  "1954": " anything",
  "1955": " area",
  "1956": " complete",
  "1957": "erman",
  "1958": "minist",
  "1959": " miss",
  "1960": "rael",
  "1961": " Comm",
  "1962": " Ex",
  "1963": " fav",
  "1964": " ris",
  "1965": "nes",
  "1966": "ai",
  "1967": " present",
  "1968": "ote",
  "1969": "rug",
  "1970": " saying",
  "1971": "raw",
  "1972": "aid",
  "1973": " Canad",
  "1974": " vict",
  "1975": "IN",
  "1976": "cially",
  "1977": " bad",
  "1978": "ows",
  "1979": "uge",
  "1980": " taken",
  "1981": " entire",
  "1982": "oto",
  "1983": " Pr",
  "1984": "ators",
  "1985": "ev",
  "1986": " bill",
  "1987": " compet",
  "1988": " Eng",
  "1989": " mor",
  "1990": " behind",
  "1991": "ien",
  "1992": " aut",
  "1993": " To",
  "1994": "'m",
  "1995": " court",
  "1996": "play",
  "1997": " try",
  "1998": " military",
  "1999": " z",
  "2000": " near",
  "2001": "osp",
  "2002": " mult",
  "2003": "....",
  "2004": "What",
  "2005": " face",
  "2006": "wards",
  "2007": " er",
  "2008": " 14",
  "2009": " security",
  "2010": " Pol",
  "2011": "sy",
  "2012": " proper",
  "2013": " discuss",
  "2014": " threat",
  "2015": " tot",
  "2016": " study",
  "2017": "ert",
  "2018": " single",
  "2019": " rather",
  "2020": " individual",
  "2021": " Af",
  "2022": " Brit",
  "2023": " War",
  "2024": "b' \\xc2'",
  "2025": "ttp",
  "2026": " quick",
  "2027": " Don",
  "2028": " mind",
  "2029": " Sec",
  "2030": "lement",
  "2031": "ales",
  "2032": "amed",
  "2033": "atic",
  "2034": "An",
  "2035": " North",
  "2036": "aper",
  "2037": " publ",
  "2038": " policy",
  "2039": " mess",
  "2040": "ris",
  "2041": "par",
  "2042": " black",
  "2043": " wanted",
  "2044": " fall",
  "2045": "irc",
  "2046": "**",
  "2047": "off",
  "2048": " food",
  "2049": " sum",
  "2050": " someone",
  "2051": "lling",
  "2052": "ids",
  "2053": "On",
  "2054": " |",
  "2055": " /",
  "2056": " cult",
  "2057": " special",
  "2058": " comb",
  "2059": " key",
  "2060": " Man",
  "2061": " player",
  "2062": " redu",
  "2063": " Gr",
  "2064": " bring",
  "2065": " 13",
  "2066": " compan",
  "2067": " 17",
  "2068": "ply",
  "2069": " Dep",
  "2070": " attempt",
  "2071": " National",
  "2072": " taking",
  "2073": " Bar",
  "2074": "When",
  "2075": "ON",
  "2076": "ify",
  "2077": "olution",
  "2078": " :",
  "2079": "viron",
  "2080": " foot",
  "2081": " Cal",
  "2082": "://",
  "2083": " else",
  "2084": " pret",
  "2085": " body",
  "2086": " space",
  "2087": "elt",
  "2088": "rote",
  "2089": "over",
  "2090": "dd",
  "2091": " probably",
  "2092": "16",
  "2093": "icult",
  "2094": ".)",
  "2095": " front",
  "2096": " cou",
  "2097": " nothing",
  "2098": " Im",
  "2099": " sw",
  "2100": "ashington",
  "2101": " connect",
  "2102": "ches",
  "2103": " World",
  "2104": " research",
  "2105": "14",
  "2106": " Clinton",
  "2107": " City",
  "2108": "ming",
  "2109": " coming",
  "2110": " points",
  "2111": " Israel",
  "2112": " however",
  "2113": "RE",
  "2114": " describ",
  "2115": " jo",
  "2116": "go",
  "2117": " signific",
  "2118": " similar",
  "2119": "yn",
  "2120": "reme",
  "2121": "cing",
  "2122": " benef",
  "2123": "lier",
  "2124": " Aust",
  "2125": " imm",
  "2126": " decision",
  "2127": " either",
  "2128": "aces",
  "2129": " coun",
  "2130": "ault",
  "2131": "So",
  "2132": " mass",
  "2133": " Har",
  "2134": " sus",
  "2135": " targ",
  "2136": "ully",
  "2137": "ana",
  "2138": " feat",
  "2139": "That",
  "2140": " conv",
  "2141": " exist",
  "2142": "irl",
  "2143": " enc",
  "2144": " 2013",
  "2145": " rights",
  "2146": " service",
  "2147": "ung",
  "2148": " Su",
  "2149": "asing",
  "2150": "sw",
  "2151": "IS",
  "2152": " fire",
  "2153": " doc",
  "2154": " wrote",
  "2155": " further",
  "2156": " house",
  "2157": "rodu",
  "2158": " fig",
  "2159": " chall",
  "2160": "ww",
  "2161": " ban",
  "2162": " third",
  "2163": "mb",
  "2164": " wa",
  "2165": " create",
  "2166": " stop",
  "2167": " field",
  "2168": "now",
  "2169": " pick",
  "2170": "AN",
  "2171": "ape",
  "2172": "ively",
  "2173": " meas",
  "2174": " repl",
  "2175": " compl",
  "2176": " With",
  "2177": " issues",
  "2178": "pping",
  "2179": " begin",
  "2180": " super",
  "2181": "amer",
  "2182": " step",
  "2183": "ried",
  "2184": "eal",
  "2185": "ently",
  "2186": " whole",
  "2187": " relations",
  "2188": " seems",
  "2189": " )",
  "2190": " companies",
  "2191": "pecially",
  "2192": " due",
  "2193": " exec",
  "2194": " cand",
  "2195": " everything",
  "2196": " federal",
  "2197": " Gu",
  "2198": " states",
  "2199": " ey",
  "2200": " room",
  "2201": "aul",
  "2202": " tra",
  "2203": " watch",
  "2204": "oon",
  "2205": " Ge",
  "2206": " custom",
  "2207": " leaders",
  "2208": "13",
  "2209": "uation",
  "2210": " However",
  "2211": "pite",
  "2212": " Jan",
  "2213": " Washington",
  "2214": "Ch",
  "2215": "lam",
  "2216": " self",
  "2217": " role",
  "2218": "ran",
  "2219": "ilt",
  "2220": " sound",
  "2221": " lab",
  "2222": "att",
  "2223": "head",
  "2224": " dam",
  "2225": "ivil",
  "2226": " officials",
  "2227": "isis",
  "2228": " stri",
  "2229": " 2012",
  "2230": " tre",
  "2231": "iday",
  "2232": "ibility",
  "2233": " released",
  "2234": "lu",
  "2235": " Inst",
  "2236": " began",
  "2237": " Dav",
  "2238": " App",
  "2239": " South",
  "2240": " opt",
  "2241": "obal",
  "2242": " students",
  "2243": " treat",
  "2244": " final",
  "2245": " character",
  "2246": " position",
  "2247": " matter",
  "2248": "é",
  "2249": "ender",
  "2250": " ener",
  "2251": "lim",
  "2252": " outside",
  "2253": "ery",
  "2254": "sec",
  "2255": "ades",
  "2256": " dou",
  "2257": "vironment",
  "2258": " development",
  "2259": " statement",
  "2260": " himself",
  "2261": " 2017",
  "2262": " above",
  "2263": "like",
  "2264": " stat",
  "2265": " init",
  "2266": " break",
  "2267": " 100",
  "2268": " amount",
  "2269": " provide",
  "2270": " hours",
  "2271": " itself",
  "2272": " themselves",
  "2273": " office",
  "2274": " represent",
  "2275": " action",
  "2276": " Part",
  "2277": " di",
  "2278": " became",
  "2279": " 198",
  "2280": " general",
  "2281": " continue",
  "2282": " countries",
  "2283": " Intern",
  "2284": " neg",
  "2285": "iod",
  "2286": " address",
  "2287": " 25",
  "2288": " gun",
  "2289": "aced",
  "2290": "ask",
  "2291": " true",
  "2292": " specific",
  "2293": "ograph",
  "2294": "umb",
  "2295": "arter",
  "2296": "reg",
  "2297": " larg",
  "2298": " significant",
  "2299": "lish",
  "2300": " simply",
  "2301": " Ass",
  "2302": " Res",
  "2303": " wasn",
  "2304": "'ll",
  "2305": " interview",
  "2306": "acebook",
  "2307": "ili",
  "2308": " ground",
  "2309": " rad",
  "2310": "oid",
  "2311": "ogn",
  "2312": " difficult",
  "2313": " running",
  "2314": " Just",
  "2315": " evidence",
  "2316": " administ",
  "2317": "BC",
  "2318": " cop",
  "2319": "17",
  "2320": "ream",
  "2321": " drug",
  "2322": " version",
  "2323": "ogle",
  "2324": " bar",
  "2325": " Ed",
  "2326": " agree",
  "2327": "eks",
  "2328": "iddle",
  "2329": " building",
  "2330": " China",
  "2331": " needs",
  "2332": " profess",
  "2333": "angu",
  "2334": " groups",
  "2335": "right",
  "2336": " typ",
  "2337": " respons",
  "2338": " common",
  "2339": " shows",
  "2340": " everyone",
  "2341": " dom",
  "2342": " dest",
  "2343": " needed",
  "2344": " ball",
  "2345": " woman",
  "2346": " German",
  "2347": " lat",
  "2348": " below",
  "2349": " tem",
  "2350": "light",
  "2351": "ournal",
  "2352": " music",
  "2353": " exc",
  "2354": " release",
  "2355": "ift",
  "2356": " inj",
  "2357": " pretty",
  "2358": " Med",
  "2359": " Ab",
  "2360": "AR",
  "2361": "ribut",
  "2362": " include",
  "2363": " saw",
  "2364": " deep",
  "2365": " ap",
  "2366": "body",
  "2367": "18",
  "2368": " played",
  "2369": " quite",
  "2370": " industry",
  "2371": " charg",
  "2372": " mag",
  "2373": " energy",
  "2374": " playing",
  "2375": " mot",
  "2376": " 50",
  "2377": " candid",
  "2378": "eg",
  "2379": " sense",
  "2380": " phys",
  "2381": " late",
  "2382": " alleg",
  "2383": " white",
  "2384": " His",
  "2385": "ival",
  "2386": " friends",
  "2387": " gen",
  "2388": " legal",
  "2389": "atur",
  "2390": "bo",
  "2391": " anim",
  "2392": "isc",
  "2393": "yle",
  "2394": " After",
  "2395": "omm",
  "2396": "How",
  "2397": "AS",
  "2398": "where",
  "2399": " abs",
  "2400": "lev",
  "2401": " instead",
  "2402": " red",
  "2403": " billion",
  "2404": " lost",
  "2405": " especially",
  "2406": " value",
  "2407": " Mus",
  "2408": " West",
  "2409": " host",
  "2410": "osing",
  "2411": "oring",
  "2412": " hom",
  "2413": " News",
  "2414": "time",
  "2415": "ager",
  "2416": " ple",
  "2417": "istic",
  "2418": " weeks",
  "2419": "epend",
  "2420": " Not",
  "2421": "ccording",
  "2422": " forward",
  "2423": "ique",
  "2424": " deter",
  "2425": " election",
  "2426": " recently",
  "2427": " jud",
  "2428": " track",
  "2429": " suff",
  "2430": " vote",
  "2431": " Twitter",
  "2432": " object",
  "2433": "irt",
  "2434": "lt",
  "2435": "medi",
  "2436": " period",
  "2437": " changes",
  "2438": " opportun",
  "2439": " White",
  "2440": " Oct",
  "2441": " lo",
  "2442": " longer",
  "2443": "arc",
  "2444": "oke",
  "2445": " ep",
  "2446": " pain",
  "2447": " soon",
  "2448": " site",
  "2449": " {",
  "2450": "hod",
  "2451": "ript",
  "2452": "ached",
  "2453": " accept",
  "2454": " Cong",
  "2455": "irm",
  "2456": "eed",
  "2457": " shoot",
  "2458": " economic",
  "2459": " hope",
  "2460": " moment",
  "2461": " decl",
  "2462": "lege",
  "2463": " consum",
  "2464": " Will",
  "2465": " pie",
  "2466": " tit",
  "2467": " check",
  "2468": "oph",
  "2469": "oe",
  "2470": " potential",
  "2471": "ij",
  "2472": " block",
  "2473": " March",
  "2474": "ole",
  "2475": " wrong",
  "2476": "duct",
  "2477": "ners",
  "2478": " Sept",
  "2479": " Department",
  "2480": " higher",
  "2481": "onse",
  "2482": " cred",
  "2483": " online",
  "2484": " focus",
  "2485": " 24",
  "2486": " consider",
  "2487": "key",
  "2488": " educ",
  "2489": "ancial",
  "2490": " My",
  "2491": "ns",
  "2492": "iding",
  "2493": " circ",
  "2494": " works",
  "2495": " relig",
  "2496": " share",
  "2497": " parent",
  "2498": "cial",
  "2499": " held",
  "2500": "25",
  "2501": " pred",
  "2502": " Dr",
  "2503": " walk",
  "2504": " webs",
  "2505": " led",
  "2506": "ularly",
  "2507": "==",
  "2508": " reve",
  "2509": "lear",
  "2510": " stay",
  "2511": " These",
  "2512": "overed",
  "2513": " stru",
  "2514": "alt",
  "2515": " Republican",
  "2516": " risk",
  "2517": " words",
  "2518": " Aug",
  "2519": " rev",
  "2520": " sold",
  "2521": " review",
  "2522": "icro",
  "2523": " contract",
  "2524": " results",
  "2525": " services",
  "2526": " laws",
  "2527": "They",
  "2528": " code",
  "2529": "cil",
  "2530": " Mich",
  "2531": " wind",
  "2532": " function",
  "2533": " aud",
  "2534": " ce",
  "2535": " Syri",
  "2536": "put",
  "2537": "aut",
  "2538": " total",
  "2539": "fect",
  "2540": " article",
  "2541": " age",
  "2542": " applic",
  "2543": " minutes",
  "2544": "urd",
  "2545": " personal",
  "2546": "ilities",
  "2547": " anyone",
  "2548": "uary",
  "2549": "ients",
  "2550": "itution",
  "2551": "asons",
  "2552": " June",
  "2553": "Ad",
  "2554": "ateg",
  "2555": " prim",
  "2556": "anger",
  "2557": " target",
  "2558": "fer",
  "2559": " den",
  "2560": " earlier",
  "2561": "ule",
  "2562": " favor",
  "2563": " express",
  "2564": "haps",
  "2565": " dead",
  "2566": " answ",
  "2567": " upd",
  "2568": "ech",
  "2569": " popular",
  "2570": "che",
  "2571": " comput",
  "2572": " Ste",
  "2573": " vol",
  "2574": "pril",
  "2575": " necess",
  "2576": "ham",
  "2577": " hy",
  "2578": " rate",
  "2579": "ES",
  "2580": "aging",
  "2581": " technology",
  "2582": "apan",
  "2583": " respect",
  "2584": "val",
  "2585": " environment",
  "2586": " 2011",
  "2587": "Ph",
  "2588": " received",
  "2589": " expected",
  "2590": " Sm",
  "2591": "ends",
  "2592": "ude",
  "2593": " goal",
  "2594": " created",
  "2595": " base",
  "2596": " surpr",
  "2597": " anti",
  "2598": " Par",
  "2599": " July",
  "2600": "eter",
  "2601": "tee",
  "2602": " problems",
  "2603": "uel",
  "2604": " ways",
  "2605": " port",
  "2606": "iple",
  "2607": "action",
  "2608": " private",
  "2609": " Do",
  "2610": " scient",
  "2611": " increase",
  "2612": "ray",
  "2613": "reet",
  "2614": " announced",
  "2615": " comment",
  "2616": "isl",
  "2617": " cannot",
  "2618": " easy",
  "2619": "Al",
  "2620": " shot",
  "2621": " Congress",
  "2622": " questions",
  "2623": "bit",
  "2624": " force",
  "2625": " Pe",
  "2626": "aterial",
  "2627": "hern",
  "2628": " impact",
  "2629": " et",
  "2630": " Mond",
  "2631": "ples",
  "2632": " pack",
  "2633": " +",
  "2634": " Facebook",
  "2635": " pur",
  "2636": " langu",
  "2637": "atives",
  "2638": " God",
  "2639": " En",
  "2640": " involved",
  "2641": "omb",
  "2642": "aving",
  "2643": "ills",
  "2644": "60",
  "2645": "lex",
  "2646": "hood",
  "2647": "onst",
  "2648": " Austral",
  "2649": " div",
  "2650": "uesday",
  "2651": " execut",
  "2652": "ctor",
  "2653": " model",
  "2654": "itiz",
  "2655": " sen",
  "2656": " speak",
  "2657": " staff",
  "2658": " exact",
  "2659": " civil",
  "2660": "ees",
  "2661": "ires",
  "2662": " nearly",
  "2663": " type",
  "2664": "ourt",
  "2665": "okes",
  "2666": " original",
  "2667": " cases",
  "2668": " content",
  "2669": " 197",
  "2670": " relationship",
  "2671": " terror",
  "2672": " Google",
  "2673": "To",
  "2674": " leave",
  "2675": " Friday",
  "2676": " response",
  "2677": " capt",
  "2678": " inside",
  "2679": " <",
  "2680": " phot",
  "2681": "lled",
  "2682": " fans",
  "2683": " April",
  "2684": " Red",
  "2685": " international",
  "2686": " coll",
  "2687": "________",
  "2688": "cast",
  "2689": " heart",
  "2690": " average",
  "2691": " broad",
  "2692": " arrest",
  "2693": " users",
  "2694": " Count",
  "2695": "====",
  "2696": " cal",
  "2697": "At",
  "2698": "rel",
  "2699": " cell",
  "2700": " worth",
  "2701": " Em",
  "2702": " soft",
  "2703": " ur",
  "2704": " living",
  "2705": "bor",
  "2706": " nation",
  "2707": "ips",
  "2708": "ky",
  "2709": " killed",
  "2710": " reports",
  "2711": " 2010",
  "2712": "b'\\xe3\\x81'",
  "2713": " becom",
  "2714": "ging",
  "2715": " source",
  "2716": " Monday",
  "2717": " Tuesday",
  "2718": " subject",
  "2719": " worked",
  "2720": "atural",
  "2721": "ests",
  "2722": " estab",
  "2723": " immedi",
  "2724": "EN",
  "2725": " respond",
  "2726": " global",
  "2727": " associ",
  "2728": "joy",
  "2729": "ellig",
  "2730": " club",
  "2731": "ops",
  "2732": " Americans",
  "2733": "ael",
  "2734": " obs",
  "2735": "ites",
  "2736": " Per",
  "2737": " Pal",
  "2738": " chance",
  "2739": " oil",
  "2740": " Act",
  "2741": " ability",
  "2742": " takes",
  "2743": "rought",
  "2744": " weap",
  "2745": "hel",
  "2746": " price",
  "2747": " Japan",
  "2748": "ological",
  "2749": " director",
  "2750": "izing",
  "2751": " workers",
  "2752": " terms",
  "2753": " road",
  "2754": "mon",
  "2755": " published",
  "2756": " del",
  "2757": "ext",
  "2758": " While",
  "2759": " tou",
  "2760": " phone",
  "2761": "rain",
  "2762": " collect",
  "2763": " financial",
  "2764": " mid",
  "2765": "osition",
  "2766": " decided",
  "2767": "ises",
  "2768": "OR",
  "2769": " Russia",
  "2770": " Some",
  "2771": " Wed",
  "2772": " mother",
  "2773": " squ",
  "2774": " lack",
  "2775": " defin",
  "2776": "ovember",
  "2777": " 40",
  "2778": " girl",
  "2779": " store",
  "2780": " gave",
  "2781": " buy",
  "2782": " influ",
  "2783": " Calif",
  "2784": " log",
  "2785": " happened",
  "2786": "ino",
  "2787": " require",
  "2788": " Now",
  "2789": " emer",
  "2790": " fem",
  "2791": "\".",
  "2792": " capital",
  "2793": "clus",
  "2794": " foreign",
  "2795": " currently",
  "2796": " Off",
  "2797": "based",
  "2798": " San",
  "2799": " goes",
  "2800": " By",
  "2801": "oved",
  "2802": " Geor",
  "2803": "vertise",
  "2804": " situation",
  "2805": " indic",
  "2806": " offer",
  "2807": " whose",
  "2808": " @",
  "2809": " tal",
  "2810": " material",
  "2811": " lives",
  "2812": "unt",
  "2813": " affect",
  "2814": "rown",
  "2815": "ought",
  "2816": "hem",
  "2817": " plans",
  "2818": "nesday",
  "2819": " arri",
  "2820": " member",
  "2821": " pict",
  "2822": "ursday",
  "2823": " Feb",
  "2824": " particip",
  "2825": "ruction",
  "2826": " recogn",
  "2827": " turned",
  "2828": " method",
  "2829": " events",
  "2830": " January",
  "2831": " Hill",
  "2832": " network",
  "2833": "One",
  "2834": " teams",
  "2835": " Sund",
  "2836": " bank",
  "2837": " meeting",
  "2838": "40",
  "2839": "rect",
  "2840": " norm",
  "2841": " introdu",
  "2842": " simple",
  "2843": "fully",
  "2844": " Ag",
  "2845": " Islam",
  "2846": " ill",
  "2847": " huge",
  "2848": " September",
  "2849": "oud",
  "2850": " regard",
  "2851": " areas",
  "2852": " cy",
  "2853": "order",
  "2854": " Cor",
  "2855": " TV",
  "2856": " Me",
  "2857": "bl",
  "2858": "ese",
  "2859": " couple",
  "2860": " approach",
  "2861": " career",
  "2862": "aur",
  "2863": " Afric",
  "2864": " Gl",
  "2865": "load",
  "2866": "\",",
  "2867": " deli",
  "2868": " race",
  "2869": " performance",
  "2870": " page",
  "2871": "ety",
  "2872": "apt",
  "2873": " November",
  "2874": " tool",
  "2875": " David",
  "2876": " felt",
  "2877": " quickly",
  "2878": " numbers",
  "2879": " mis",
  "2880": "oor",
  "2881": " email",
  "2882": " El",
  "2883": " 21",
  "2884": "aily",
  "2885": " ord",
  "2886": "istan",
  "2887": " administration",
  "2888": " hon",
  "2889": " Wednesday",
  "2890": " victim",
  "2891": " Paul",
  "2892": " via",
  "2893": " improve",
  "2894": " engine",
  "2895": "chie",
  "2896": " fre",
  "2897": " pull",
  "2898": " Ang",
  "2899": " round",
  "2900": " built",
  "2901": " 22",
  "2902": " pers",
  "2903": " European",
  "2904": "lin",
  "2905": " dig",
  "2906": " Thursday",
  "2907": "ened",
  "2908": " father",
  "2909": "ornia",
  "2910": " loss",
  "2911": "avy",
  "2912": " thous",
  "2913": "­",
  "2914": " http",
  "2915": "ructure",
  "2916": " production",
  "2917": " boy",
  "2918": "ume",
  "2919": " heard",
  "2920": "down",
  "2921": "Sh",
  "2922": " economy",
  "2923": "”.",
  "2924": " enjoy",
  "2925": " August",
  "2926": " trade",
  "2927": " Sch",
  "2928": "face",
  "2929": " website",
  "2930": "iment",
  "2931": " secret",
  "2932": " cover",
  "2933": " reveal",
  "2934": " wide",
  "2935": " board",
  "2936": " match",
  "2937": " Court",
  "2938": "AL",
  "2939": " allowed",
  "2940": " hands",
  "2941": " spent",
  "2942": " travel",
  "2943": "****",
  "2944": " lower",
  "2945": " repe",
  "2946": "atory",
  "2947": " poll",
  "2948": " included",
  "2949": "cember",
  "2950": " ste",
  "2951": " October",
  "2952": " neigh",
  "2953": " legisl",
  "2954": "orters",
  "2955": "uses",
  "2956": " behav",
  "2957": "iction",
  "2958": " knew",
  "2959": " text",
  "2960": " wants",
  "2961": " town",
  "2962": "ights",
  "2963": " British",
  "2964": " separ",
  "2965": "ences",
  "2966": "estern",
  "2967": " visit",
  "2968": " Canada",
  "2969": "anks",
  "2970": "ctions",
  "2971": "With",
  "2972": " perfect",
  "2973": " gets",
  "2974": "ession",
  "2975": " movement",
  "2976": " aren",
  "2977": "ishing",
  "2978": "raz",
  "2979": "ground",
  "2980": "agement",
  "2981": " tried",
  "2982": " cause",
  "2983": "?”",
  "2984": "gest",
  "2985": "——",
  "2986": " }",
  "2987": " forces",
  "2988": " Sunday",
  "2989": " ens",
  "2990": "After",
  "2991": "force",
  "2992": " attention",
  "2993": " particular",
  "2994": " bi",
  "2995": "][",
  "2996": "ening",
  "2997": " veh",
  "2998": " bud",
  "2999": " fear",
  "3000": " population",
  "3001": " various",
  "3002": " UK",
  "3003": " reach",
  "3004": " looks",
  "3005": " 23",
  "3006": " California",
  "3007": " brought",
  "3008": " vo",
  "3009": " Kore",
  "3010": " link",
  "3011": "ibly",
  "3012": ");",
  "3013": "urning",
  "3014": "arily",
  "3015": " IS",
  "3016": "200",
  "3017": " previous",
  "3018": "ED",
  "3019": " mention",
  "3020": " Russian",
  "3021": " morning",
  "3022": " Qu",
  "3023": "cle",
  "3024": "idered",
  "3025": "'d",
  "3026": " fair",
  "3027": " growth",
  "3028": "aker",
  "3029": " Sw",
  "3030": "undred",
  "3031": "99",
  "3032": "sequ",
  "3033": "yond",
  "3034": " progress",
  "3035": " fell",
  "3036": "alled",
  "3037": " song",
  "3038": "iam",
  "3039": " Cont",
  "3040": "AC",
  "3041": " training",
  "3042": "field",
  "3043": "hold",
  "3044": "uk",
  "3045": " size",
  "3046": "inging",
  "3047": " Black",
  "3048": "cies",
  "3049": " December",
  "3050": "idents",
  "3051": " contact",
  "3052": "ledge",
  "3053": " Her",
  "3054": " demand",
  "3055": "While",
  "3056": " image",
  "3057": " hor",
  "3058": " rac",
  "3059": " hot",
  "3060": "ification",
  "3061": "OS",
  "3062": " leader",
  "3063": "set",
  "3064": "ecause",
  "3065": " rules",
  "3066": " prep",
  "3067": " liber",
  "3068": "ze",
  "3069": " search",
  "3070": " ess",
  "3071": " Post",
  "3072": " citiz",
  "3073": " upon",
  "3074": " strugg",
  "3075": " Street",
  "3076": " latest",
  "3077": "come",
  "3078": " independ",
  "3079": "US",
  "3080": "uments",
  "3081": "inks",
  "3082": "arth",
  "3083": " features",
  "3084": " coach",
  "3085": "ondon",
  "3086": " Park",
  "3087": "iant",
  "3088": " fast",
  "3089": "Tr",
  "3090": "oo",
  "3091": "sych",
  "3092": " talking",
  "3093": " Jew",
  "3094": "omp",
  "3095": " addition",
  "3096": "ges",
  "3097": " star",
  "3098": " wond",
  "3099": " Senate",
  "3100": "IT",
  "3101": " Pat",
  "3102": " exam",
  "3103": " considered",
  "3104": "raq",
  "3105": "icles",
  "3106": "aries",
  "3107": " reb",
  "3108": " speed",
  "3109": "bed",
  "3110": " levels",
  "3111": "eth",
  "3112": " Times",
  "3113": " County",
  "3114": "elligence",
  "3115": " slow",
  "3116": " investigation",
  "3117": "ps",
  "3118": "ille",
  "3119": " conduct",
  "3120": "aph",
  "3121": " Party",
  "3122": "22",
  "3123": " King",
  "3124": " medical",
  "3125": " mach",
  "3126": " sn",
  "3127": "imately",
  "3128": "vent",
  "3129": " achie",
  "3130": " language",
  "3131": "aturday",
  "3132": " card",
  "3133": "unk",
  "3134": " sort",
  "3135": " critic",
  "3136": "ope",
  "3137": " Tex",
  "3138": " Center",
  "3139": " pen",
  "3140": " und",
  "3141": " India",
  "3142": " paper",
  "3143": "wo",
  "3144": "ysis",
  "3145": "IC",
  "3146": " 2008",
  "3147": "pir",
  "3148": " conserv",
  "3149": " parents",
  "3150": "imin",
  "3151": " sexual",
  "3152": "ma",
  "3153": " systems",
  "3154": " prior",
  "3155": "uit",
  "3156": "asc",
  "3157": " doll",
  "3158": " written",
  "3159": "uf",
  "3160": " box",
  "3161": " spokes",
  "3162": "igr",
  "3163": " seek",
  "3164": " sens",
  "3165": "eared",
  "3166": "het",
  "3167": " document",
  "3168": "idge",
  "3169": " increasing",
  "3170": " hear",
  "3171": "ani",
  "3172": "atform",
  "3173": " draw",
  "3174": " seven",
  "3175": " son",
  "3176": " Muslim",
  "3177": " effort",
  "3178": "ruary",
  "3179": " jobs",
  "3180": " Iran",
  "3181": " extreme",
  "3182": " prevent",
  "3183": " learn",
  "3184": "ining",
  "3185": " serious",
  "3186": " regul",
  "3187": "rast",
  "3188": " inn",
  "3189": " range",
  "3190": " ...",
  "3191": "room",
  "3192": " violence",
  "3193": " eight",
  "3194": " Mark",
  "3195": "80",
  "3196": "ources",
  "3197": " Iraq",
  "3198": "itch",
  "3199": "OP",
  "3200": " surve",
  "3201": " completely",
  "3202": " conc",
  "3203": " 2009",
  "3204": "eff",
  "3205": " message",
  "3206": "ico",
  "3207": "tr",
  "3208": "ha",
  "3209": "b' \\xe2'",
  "3210": " obv",
  "3211": " interesting",
  "3212": "reedom",
  "3213": "She",
  "3214": " screen",
  "3215": "abor",
  "3216": " opportunity",
  "3217": " climate",
  "3218": "24",
  "3219": " majority",
  "3220": " Ke",
  "3221": "anced",
  "3222": " particularly",
  "3223": " doub",
  "3224": " journal",
  "3225": " despite",
  "3226": " Rom",
  "3227": " claims",
  "3228": " answer",
  "3229": " Char",
  "3230": " society",
  "3231": " London",
  "3232": " defense",
  "3233": " carry",
  "3234": "entially",
  "3235": "aming",
  "3236": " guy",
  "3237": " extra",
  "3238": "0000",
  "3239": "ension",
  "3240": " Donald",
  "3241": "isions",
  "3242": " attacks",
  "3243": " required",
  "3244": "erve",
  "3245": "rench",
  "3246": "illed",
  "3247": " biggest",
  "3248": "vertisement",
  "3249": " East",
  "3250": " exactly",
  "3251": "iers",
  "3252": " paid",
  "3253": "mp",
  "3254": " More",
  "3255": "ibr",
  "3256": " experien",
  "3257": "lying",
  "3258": "uclear",
  "3259": "inese",
  "3260": " modern",
  "3261": " remain",
  "3262": " quarter",
  "3263": " officers",
  "3264": "ett",
  "3265": " hundred",
  "3266": " cross",
  "3267": " except",
  "3268": "utions",
  "3269": "ari",
  "3270": " table",
  "3271": " practice",
  "3272": "inally",
  "3273": " natural",
  "3274": " middle",
  "3275": "erc",
  "3276": " 27",
  "3277": " certainly",
  "3278": "na",
  "3279": " dro",
  "3280": "add",
  "3281": "oses",
  "3282": " Saturday",
  "3283": " stories",
  "3284": " Net",
  "3285": " histor",
  "3286": " gas",
  "3287": " products",
  "3288": " surv",
  "3289": " looked",
  "3290": " sometimes",
  "3291": "nces",
  "3292": " stuff",
  "3293": " rout",
  "3294": " science",
  "3295": " finally",
  "3296": " user",
  "3297": "AM",
  "3298": " summer",
  "3299": " movie",
  "3300": " blood",
  "3301": "ospital",
  "3302": "aves",
  "3303": " communic",
  "3304": " aw",
  "3305": "ously",
  "3306": " lay",
  "3307": " changed",
  "3308": " ones",
  "3309": " leading",
  "3310": " described",
  "3311": " term",
  "3312": " Sand",
  "3313": " imag",
  "3314": " February",
  "3315": "fl",
  "3316": " prison",
  "3317": " convers",
  "3318": "ny",
  "3319": " details",
  "3320": "icks",
  "3321": " starting",
  "3322": " Spe",
  "3323": " quality",
  "3324": " occur",
  "3325": " pan",
  "3326": "hib",
  "3327": " showed",
  "3328": " named",
  "3329": " giving",
  "3330": " ult",
  "3331": " remains",
  "3332": " McC",
  "3333": "uing",
  "3334": " region",
  "3335": "pper",
  "3336": " provided",
  "3337": " costs",
  "3338": "akers",
  "3339": " Soc",
  "3340": "arr",
  "3341": " damage",
  "3342": " mob",
  "3343": " danger",
  "3344": " fit",
  "3345": "aught",
  "3346": " TH",
  "3347": " Tur",
  "3348": " chief",
  "3349": " poor",
  "3350": " path",
  "3351": " Mor",
  "3352": "ida",
  "3353": " education",
  "3354": " multiple",
  "3355": " continued",
  "3356": "enge",
  "3357": " Int",
  "3358": " growing",
  "3359": "No",
  "3360": " demonst",
  "3361": " *",
  "3362": " parts",
  "3363": " 26",
  "3364": " writing",
  "3365": " comments",
  "3366": " 28",
  "3367": " ment",
  "3368": "yl",
  "3369": " maintain",
  "3370": " safe",
  "3371": " assist",
  "3372": " thinking",
  "3373": " Des",
  "3374": "inary",
  "3375": " Republicans",
  "3376": " Even",
  "3377": " purp",
  "3378": " request",
  "3379": " write",
  "3380": " fix",
  "3381": " item",
  "3382": " purch",
  "3383": "ables",
  "3384": " died",
  "3385": " Democratic",
  "3386": " Coun",
  "3387": "FL",
  "3388": "----------------",
  "3389": "ago",
  "3390": " ready",
  "3391": "coin",
  "3392": " wouldn",
  "3393": " implement",
  "3394": "23",
  "3395": " increased",
  "3396": " culture",
  "3397": "fort",
  "3398": " efforts",
  "3399": " voters",
  "3400": "ux",
  "3401": "pre",
  "3402": " camer",
  "3403": " mill",
  "3404": "aly",
  "3405": "oper",
  "3406": " reading",
  "3407": "mitted",
  "3408": "iminal",
  "3409": " file",
  "3410": " usually",
  "3411": " calls",
  "3412": " spot",
  "3413": "Im",
  "3414": " effects",
  "3415": " Gener",
  "3416": "zz",
  "3417": " perhaps",
  "3418": "ban",
  "3419": " alone",
  "3420": "arian",
  "3421": "iles",
  "3422": " First",
  "3423": " although",
  "3424": " towards",
  "3425": "hest",
  "3426": " League",
  "3427": " consist",
  "3428": " Bill",
  "3429": " Texas",
  "3430": " select",
  "3431": " guys",
  "3432": " standard",
  "3433": " Ne",
  "3434": " Michael",
  "3435": " subst",
  "3436": " cele",
  "3437": " beyond",
  "3438": " directly",
  "3439": " platform",
  "3440": " Chinese",
  "3441": " (@",
  "3442": " hous",
  "3443": "using",
  "3444": "itute",
  "3445": " speech",
  "3446": " reality",
  "3447": "icated",
  "3448": " kids",
  "3449": " James",
  "3450": " avoid",
  "3451": " throughout",
  "3452": " football",
  "3453": " student",
  "3454": "ara",
  "3455": "egr",
  "3456": " couldn",
  "3457": "rowd",
  "3458": "BI",
  "3459": " unf",
  "3460": "ford",
  "3461": " immediately",
  "3462": "oul",
  "3463": " rob",
  "3464": " includes",
  "3465": " cat",
  "3466": " concept",
  "3467": " center",
  "3468": " choice",
  "3469": " scene",
  "3470": " complex",
  "3471": "anch",
  "3472": " additional",
  "3473": "sp",
  "3474": " Mon",
  "3475": " challeng",
  "3476": " Cons",
  "3477": " wife",
  "3478": " clos",
  "3479": "urt",
  "3480": " tro",
  "3481": " recomm",
  "3482": " researc",
  "3483": "Re",
  "3484": " epis",
  "3485": "itor",
  "3486": "All",
  "3487": " ver",
  "3488": " Minister",
  "3489": "urg",
  "3490": " sle",
  "3491": " corpor",
  "3492": " …",
  "3493": " designed",
  "3494": " Ser",
  "3495": "agon",
  "3496": " remember",
  "3497": " software",
  "3498": " safety",
  "3499": " Indian",
  "3500": "wise",
  "3501": " gone",
  "3502": " il",
  "3503": "astic",
  "3504": "ports",
  "3505": " cast",
  "3506": " sell",
  "3507": " toward",
  "3508": " agency",
  "3509": " ten",
  "3510": " officer",
  "3511": "aches",
  "3512": " figure",
  "3513": " piece",
  "3514": " brain",
  "3515": "omen",
  "3516": " battle",
  "3517": " Jack",
  "3518": " counter",
  "3519": "men",
  "3520": " debate",
  "3521": "airs",
  "3522": "ression",
  "3523": "ston",
  "3524": " thousands",
  "3525": "adem",
  "3526": " swe",
  "3527": "rupt",
  "3528": " opin",
  "3529": " ahead",
  "3530": "icient",
  "3531": "Now",
  "3532": "imum",
  "3533": " relative",
  "3534": "irth",
  "3535": " letter",
  "3536": " receive",
  "3537": " pressure",
  "3538": " Bo",
  "3539": "b' \\xd0'",
  "3540": " blog",
  "3541": "ilies",
  "3542": "ampions",
  "3543": " >",
  "3544": " sil",
  "3545": " moved",
  "3546": " launch",
  "3547": " appears",
  "3548": " option",
  "3549": " Play",
  "3550": " passed",
  "3551": " ut",
  "3552": " prec",
  "3553": " stage",
  "3554": "roy",
  "3555": "oes",
  "3556": " 60",
  "3557": " clean",
  "3558": " Serv",
  "3559": "olute",
  "3560": " II",
  "3561": "atever",
  "3562": "berg",
  "3563": "OT",
  "3564": " property",
  "3565": "27",
  "3566": " helped",
  "3567": " drive",
  "3568": " Apple",
  "3569": "just",
  "3570": " alleged",
  "3571": " Green",
  "3572": " twe",
  "3573": "new",
  "3574": " disapp",
  "3575": " tour",
  "3576": " meaning",
  "3577": " rock",
  "3578": " dog",
  "3579": "amb",
  "3580": " x",
  "3581": "itation",
  "3582": " Associ",
  "3583": " suspect",
  "3584": " date",
  "3585": " Rich",
  "3586": "aughter",
  "3587": " moving",
  "3588": " score",
  "3589": " Democrats",
  "3590": " organization",
  "3591": " sat",
  "3592": " conditions",
  "3593": " touch",
  "3594": " dark",
  "3595": "ceed",
  "3596": " command",
  "3597": " Then",
  "3598": " ign",
  "3599": "?\"",
  "3600": " reasons",
  "3601": " budget",
  "3602": " park",
  "3603": "more",
  "3604": " nuclear",
  "3605": " myself",
  "3606": " nom",
  "3607": " deg",
  "3608": " happy",
  "3609": " device",
  "3610": " difference",
  "3611": "rief",
  "3612": " Sim",
  "3613": " maybe",
  "3614": " beginning",
  "3615": "AD",
  "3616": " copy",
  "3617": " nature",
  "3618": " failed",
  "3619": "wood",
  "3620": " fan",
  "3621": " characters",
  "3622": "yan",
  "3623": " computer",
  "3624": " encour",
  "3625": " aim",
  "3626": " Mart",
  "3627": " title",
  "3628": " wall",
  "3629": " compared",
  "3630": " league",
  "3631": "ocked",
  "3632": "ean",
  "3633": " Super",
  "3634": "ivity",
  "3635": " estim",
  "3636": " Val",
  "3637": " Star",
  "3638": " college",
  "3639": " eyes",
  "3640": " shown",
  "3641": " English",
  "3642": " century",
  "3643": " powerful",
  "3644": " Day",
  "3645": "lease",
  "3646": "ource",
  "3647": " bal",
  "3648": "aint",
  "3649": " limited",
  "3650": " yes",
  "3651": " band",
  "3652": " contribut",
  "3653": " positive",
  "3654": " forced",
  "3655": " necessary",
  "3656": " Che",
  "3657": " refer",
  "3658": " candidate",
  "3659": " stra",
  "3660": " disp",
  "3661": "35",
  "3662": "cient",
  "3663": " books",
  "3664": " trust",
  "3665": "AP",
  "3666": " French",
  "3667": " largest",
  "3668": "26",
  "3669": " arch",
  "3670": "enty",
  "3671": " sal",
  "3672": " Here",
  "3673": "aud",
  "3674": " conference",
  "3675": " Rober",
  "3676": " note",
  "3677": " analysis",
  "3678": "ufact",
  "3679": " spending",
  "3680": " presidential",
  "3681": "45",
  "3682": " Of",
  "3683": " citizens",
  "3684": "orks",
  "3685": " schools",
  "3686": "igration",
  "3687": " Syria",
  "3688": " throw",
  "3689": "venue",
  "3690": " Ben",
  "3691": " aware",
  "3692": " meant",
  "3693": " executive",
  "3694": " eventually",
  "3695": "My",
  "3696": " physical",
  "3697": " followed",
  "3698": " feature",
  "3699": "ares",
  "3700": " firm",
  "3701": " treatment",
  "3702": " crowd",
  "3703": " Tor",
  "3704": " Wind",
  "3705": " streng",
  "3706": " mix",
  "3707": " confir",
  "3708": " bott",
  "3709": "ero",
  "3710": " correct",
  "3711": "orney",
  "3712": " 29",
  "3713": " grad",
  "3714": " Dis",
  "3715": " religious",
  "3716": " easily",
  "3717": " autom",
  "3718": " esc",
  "3719": " pus",
  "3720": "band",
  "3721": "board",
  "3722": "Is",
  "3723": " cool",
  "3724": "etro",
  "3725": " 196",
  "3726": " families",
  "3727": " illeg",
  "3728": "ressed",
  "3729": "craft",
  "3730": "cul",
  "3731": "rated",
  "3732": " actions",
  "3733": " overall",
  "3734": " Air",
  "3735": " Mex",
  "3736": " allows",
  "3737": " gives",
  "3738": " feed",
  "3739": " £",
  "3740": "):",
  "3741": " susp",
  "3742": "ube",
  "3743": " yourself",
  "3744": "By",
  "3745": " draft",
  "3746": "bum",
  "3747": "ken",
  "3748": " smart",
  "3749": " appeared",
  "3750": " detail",
  "3751": " income",
  "3752": "iring",
  "3753": " analy",
  "3754": " Bel",
  "3755": " signed",
  "3756": "New",
  "3757": "encies",
  "3758": " central",
  "3759": " ideas",
  "3760": " ang",
  "3761": " Govern",
  "3762": " senior",
  "3763": "Advertisement",
  "3764": " frequ",
  "3765": " weapons",
  "3766": "ID",
  "3767": " display",
  "3768": " har",
  "3769": "inn",
  "3770": " promot",
  "3771": " nice",
  "3772": " credit",
  "3773": " decades",
  "3774": " psych",
  "3775": " politics",
  "3776": "Don",
  "3777": " Bre",
  "3778": " crime",
  "3779": "OM",
  "3780": "EC",
  "3781": "chan",
  "3782": " uses",
  "3783": " door",
  "3784": " dise",
  "3785": "uty",
  "3786": " International",
  "3787": " unique",
  "3788": "28",
  "3789": " altern",
  "3790": " lif",
  "3791": "According",
  "3792": " drop",
  "3793": " sales",
  "3794": "mar",
  "3795": " developed",
  "3796": "Ar",
  "3797": "resh",
  "3798": " customers",
  "3799": "ET",
  "3800": " benefits",
  "3801": " conflic",
  "3802": "urance",
  "3803": " related",
  "3804": " crisis",
  "3805": " School",
  "3806": " mist",
  "3807": "erry",
  "3808": "iable",
  "3809": " predict",
  "3810": " noted",
  "3811": " Cap",
  "3812": "29",
  "3813": " Australia",
  "3814": " EU",
  "3815": " truth",
  "3816": "box",
  "3817": "part",
  "3818": " goals",
  "3819": "iny",
  "3820": " individuals",
  "3821": " charge",
  "3822": " Earth",
  "3823": " beaut",
  "3824": " continues",
  "3825": "onents",
  "3826": " Union",
  "3827": " Arab",
  "3828": " observ",
  "3829": " rap",
  "3830": " challenge",
  "3831": " sto",
  "3832": "nown",
  "3833": " apparent",
  "3834": " Angel",
  "3835": "itely",
  "3836": " Smith",
  "3837": "Be",
  "3838": " lic",
  "3839": " projects",
  "3840": " peace",
  "3841": " measure",
  "3842": " Police",
  "3843": "oti",
  "3844": " intelligence",
  "3845": " Christian",
  "3846": " previously",
  "3847": " Germany",
  "3848": " fully",
  "3849": " rule",
  "3850": " manager",
  "3851": " brother",
  "3852": " rates",
  "3853": " advant",
  "3854": "Un",
  "3855": "change",
  "3856": " expand",
  "3857": " clearly",
  "3858": " reform",
  "3859": " lines",
  "3860": "net",
  "3861": " successful",
  "3862": "riage",
  "3863": " highly",
  "3864": " larger",
  "3865": "ounds",
  "3866": " traff",
  "3867": " spread",
  "3868": "iance",
  "3869": " seemed",
  "3870": " Council",
  "3871": " straight",
  "3872": "Some",
  "3873": " criminal",
  "3874": " emb",
  "3875": " Comp",
  "3876": " minor",
  "3877": " George",
  "3878": " programs",
  "3879": "iced",
  "3880": "attle",
  "3881": "owers",
  "3882": " Franc",
  "3883": " incident",
  "3884": " resources",
  "3885": "21",
  "3886": " Tom",
  "3887": " greater",
  "3888": " primary",
  "3889": "IA",
  "3890": "inated",
  "3891": "antly",
  "3892": " knowledge",
  "3893": "Pro",
  "3894": " studies",
  "3895": "while",
  "3896": "dom",
  "3897": " save",
  "3898": "orter",
  "3899": " web",
  "3900": "ategy",
  "3901": " kept",
  "3902": " attract",
  "3903": " Flor",
  "3904": "ki",
  "3905": "olic",
  "3906": " spir",
  "3907": " emot",
  "3908": "que",
  "3909": " color",
  "3910": " feet",
  "3911": " Cr",
  "3912": "sey",
  "3913": " rare",
  "3914": " reached",
  "3915": " arm",
  "3916": " Ant",
  "3917": "secut",
  "3918": " High",
  "3919": "levision",
  "3920": " Internet",
  "3921": " Brown",
  "3922": "oday",
  "3923": "iders",
  "3924": "osh",
  "3925": " favorite",
  "3926": " places",
  "3927": "rs",
  "3928": " Rec",
  "3929": " regular",
  "3930": "wide",
  "3931": "ota",
  "3932": "vere",
  "3933": " Ham",
  "3934": " manufact",
  "3935": " laun",
  "3936": " Def",
  "3937": " send",
  "3938": " prem",
  "3939": "term",
  "3940": "roll",
  "3941": "lick",
  "3942": "icit",
  "3943": " knows",
  "3944": " shooting",
  "3945": " activity",
  "3946": " pun",
  "3947": " sources",
  "3948": " normal",
  "3949": "icago",
  "3950": "bon",
  "3951": "onent",
  "3952": "ingly",
  "3953": "ser",
  "3954": " status",
  "3955": " fighting",
  "3956": "ville",
  "3957": " voice",
  "3958": " rise",
  "3959": "ocks",
  "3960": " fine",
  "3961": " owners",
  "3962": " caused",
  "3963": " claimed",
  "3964": " Mac",
  "3965": " enem",
  "3966": " liter",
  "3967": " Rob",
  "3968": " Up",
  "3969": " General",
  "3970": "aith",
  "3971": "EO",
  "3972": " options",
  "3973": " 2007",
  "3974": " integr",
  "3975": "ength",
  "3976": "usion",
  "3977": " spend",
  "3978": " Gold",
  "3979": "ado",
  "3980": " cities",
  "3981": "miss",
  "3982": " organiz",
  "3983": "ING",
  "3984": " ended",
  "3985": "iled",
  "3986": " researchers",
  "3987": " calling",
  "3988": " shut",
  "3989": " reflect",
  "3990": " La",
  "3991": "org",
  "3992": "mission",
  "3993": "mark",
  "3994": "”,",
  "3995": "oles",
  "3996": "70",
  "3997": "roid",
  "3998": " prices",
  "3999": " Every",
  "4000": " album",
  "4001": "100",
  "4002": " From",
  "4003": "ifying",
  "4004": " employees",
  "4005": " female",
  "4006": " England",
  "4007": "www",
  "4008": "ya",
  "4009": " virt",
  "4010": " haven",
  "4011": " raised",
  "4012": "mittee",
  "4013": " ele",
  "4014": " jump",
  "4015": "uana",
  "4016": "33",
  "4017": " supposed",
  "4018": "itness",
  "4019": " happens",
  "4020": " adding",
  "4021": " policies",
  "4022": " names",
  "4023": " charges",
  "4024": " pros",
  "4025": " trou",
  "4026": "ica",
  "4027": "ribution",
  "4028": " basic",
  "4029": "inger",
  "4030": "iverse",
  "4031": "uman",
  "4032": "Not",
  "4033": " Mag",
  "4034": " concerns",
  "4035": " traditional",
  "4036": " wait",
  "4037": " plant",
  "4038": " absolute",
  "4039": " acqu",
  "4040": " hospital",
  "4041": " funding",
  "4042": "ram",
  "4043": " Bay",
  "4044": " print",
  "4045": " slight",
  "4046": " commer",
  "4047": "rol",
  "4048": " patients",
  "4049": " authorities",
  "4050": " minister",
  "4051": "Sc",
  "4052": " creating",
  "4053": " freedom",
  "4054": " AP",
  "4055": " mechan",
  "4056": " scen",
  "4057": " Mo",
  "4058": " style",
  "4059": " seeing",
  "4060": " grand",
  "4061": ".’",
  "4062": " beat",
  "4063": " lik",
  "4064": "ona",
  "4065": "rian",
  "4066": " station",
  "4067": " Scott",
  "4068": "see",
  "4069": " push",
  "4070": "ijuana",
  "4071": " behavior",
  "4072": " leaving",
  "4073": " cry",
  "4074": " impl",
  "4075": " birth",
  "4076": " ir",
  "4077": " actual",
  "4078": "EL",
  "4079": " ensure",
  "4080": " offered",
  "4081": "pen",
  "4082": " agreement",
  "4083": " Florida",
  "4084": " eth",
  "4085": "soft",
  "4086": " Hillary",
  "4087": " posted",
  "4088": " Reg",
  "4089": " gold",
  "4090": " Sun",
  "4091": " weekend",
  "4092": " green",
  "4093": " Most",
  "4094": " Ber",
  "4095": " adult",
  "4096": "alse",
  "4097": " weight",
  "4098": "OU",
  "4099": ".'",
  "4100": "acing",
  "4101": " determin",
  "4102": " vac",
  "4103": "Here",
  "4104": " revealed",
  "4105": " Well",
  "4106": " application",
  "4107": " mostly",
  "4108": " values",
  "4109": " propos",
  "4110": "itude",
  "4111": " Alex",
  "4112": "aby",
  "4113": " willing",
  "4114": "earch",
  "4115": " rank",
  "4116": " adop",
  "4117": " According",
  "4118": " establ",
  "4119": " eye",
  "4120": " records",
  "4121": "ection",
  "4122": "•",
  "4123": " enforce",
  "4124": "http",
  "4125": " picture",
  "4126": " believed",
  "4127": "pri",
  "4128": " mer",
  "4129": "uild",
  "4130": " brief",
  "4131": " Let",
  "4132": " learned",
  "4133": " Law",
  "4134": " install",
  "4135": " strategy",
  "4136": " appl",
  "4137": "igned",
  "4138": " choose",
  "4139": "istry",
  "4140": "SA",
  "4141": " dire",
  "4142": " wonder",
  "4143": " qual",
  "4144": " massive",
  "4145": "500",
  "4146": " devices",
  "4147": " benefit",
  "4148": " wild",
  "4149": " parties",
  "4150": " Chicago",
  "4151": " lawy",
  "4152": " People",
  "4153": " uns",
  "4154": "cher",
  "4155": " cars",
  "4156": " Trans",
  "4157": " Port",
  "4158": "cont",
  "4159": " Phil",
  "4160": " arrested",
  "4161": " mount",
  "4162": " whatever",
  "4163": " wat",
  "4164": " Oh",
  "4165": " France",
  "4166": " street",
  "4167": " ;",
  "4168": " provides",
  "4169": " whom",
  "4170": " assault",
  "4171": "90",
  "4172": "liament",
  "4173": " asking",
  "4174": " influence",
  "4175": "ties",
  "4176": " judge",
  "4177": " lose",
  "4178": " fat",
  "4179": " feeling",
  "4180": " operations",
  "4181": " produced",
  "4182": " temper",
  "4183": "ste",
  "4184": " critical",
  "4185": " Secret",
  "4186": " Lou",
  "4187": " negoti",
  "4188": "point",
  "4189": " mission",
  "4190": " enter",
  "4191": " Bush",
  "4192": "Ex",
  "4193": " images",
  "4194": "о",
  "4195": " Stud",
  "4196": " confirmed",
  "4197": " showing",
  "4198": "IL",
  "4199": " district",
  "4200": "ription",
  "4201": " runs",
  "4202": " pattern",
  "4203": " tend",
  "4204": " Mat",
  "4205": " border",
  "4206": " residents",
  "4207": "orial",
  "4208": "udd",
  "4209": "rav",
  "4210": " debt",
  "4211": "However",
  "4212": "b' \\xc3'",
  "4213": "aked",
  "4214": "gen",
  "4215": " cru",
  "4216": " teac",
  "4217": " Committee",
  "4218": "mine",
  "4219": " opposition",
  "4220": "Cl",
  "4221": " celebr",
  "4222": " Wall",
  "4223": " Health",
  "4224": " section",
  "4225": " defend",
  "4226": " etc",
  "4227": "estic",
  "4228": " produce",
  "4229": "icial",
  "4230": " Commission",
  "4231": " drink",
  "4232": " independent",
  "4233": " Mod",
  "4234": "ront",
  "4235": "cell",
  "4236": " Why",
  "4237": " brand",
  "4238": "ented",
  "4239": "ags",
  "4240": "ugg",
  "4241": " core",
  "4242": " Press",
  "4243": " tick",
  "4244": " digital",
  "4245": " Bit",
  "4246": " hero",
  "4247": " advoc",
  "4248": "ae",
  "4249": " dollars",
  "4250": "ocr",
  "4251": "rial",
  "4252": " effective",
  "4253": " solution",
  "4254": " Mal",
  "4255": " vill",
  "4256": " interested",
  "4257": " Sam",
  "4258": " Korea",
  "4259": "BA",
  "4260": " highest",
  "4261": "irg",
  "4262": "ords",
  "4263": " memory",
  "4264": " opening",
  "4265": " worse",
  "4266": " learning",
  "4267": " responsible",
  "4268": " trial",
  "4269": " daily",
  "4270": " kick",
  "4271": " theory",
  "4272": " Other",
  "4273": " offers",
  "4274": " Palest",
  "4275": "me",
  "4276": " replace",
  "4277": " restrict",
  "4278": " Get",
  "4279": " mur",
  "4280": " Office",
  "4281": " agreed",
  "4282": " television",
  "4283": " Francis",
  "4284": "cience",
  "4285": " Micro",
  "4286": " Because",
  "4287": " occas",
  "4288": "ST",
  "4289": "illing",
  "4290": "CC",
  "4291": " train",
  "4292": " investment",
  "4293": " vs",
  "4294": " types",
  "4295": "iation",
  "4296": " Western",
  "4297": "aks",
  "4298": "icians",
  "4299": " chair",
  "4300": " miles",
  "4301": " millions",
  "4302": "no",
  "4303": "uries",
  "4304": " chem",
  "4305": " Justice",
  "4306": " Del",
  "4307": " generally",
  "4308": " basis",
  "4309": " proposed",
  "4310": " 80",
  "4311": " Mike",
  "4312": " Mil",
  "4313": " Cup",
  "4314": "These",
  "4315": "ipe",
  "4316": " heavy",
  "4317": " explained",
  "4318": " map",
  "4319": " Our",
  "4320": "AA",
  "4321": "rad",
  "4322": " der",
  "4323": " bur",
  "4324": "oly",
  "4325": " Add",
  "4326": " partners",
  "4327": "ander",
  "4328": " opinion",
  "4329": "win",
  "4330": " defe",
  "4331": " onto",
  "4332": " protest",
  "4333": "Con",
  "4334": "Get",
  "4335": " associated",
  "4336": " load",
  "4337": "rig",
  "4338": "azing",
  "4339": " NFL",
  "4340": "rate",
  "4341": "oom",
  "4342": "44",
  "4343": " Found",
  "4344": " male",
  "4345": " becomes",
  "4346": " reject",
  "4347": "outhern",
  "4348": " Security",
  "4349": "vest",
  "4350": " coal",
  "4351": " obtain",
  "4352": " destroy",
  "4353": " advantage",
  "4354": " assum",
  "4355": " Liber",
  "4356": " condition",
  "4357": " announce",
  "4358": " hundreds",
  "4359": " achieve",
  "4360": " opened",
  "4361": "eline",
  "4362": " understanding",
  "4363": "odes",
  "4364": " Johnson",
  "4365": "coming",
  "4366": "icip",
  "4367": " surround",
  "4368": "ading",
  "4369": "bert",
  "4370": "orthern",
  "4371": "well",
  "4372": "upp",
  "4373": " initial",
  "4374": " Att",
  "4375": " Big",
  "4376": " sleep",
  "4377": "36",
  "4378": " ship",
  "4379": " marriage",
  "4380": " management",
  "4381": " Windows",
  "4382": " thus",
  "4383": " limit",
  "4384": " born",
  "4385": " becoming",
  "4386": "known",
  "4387": " photo",
  "4388": " easier",
  "4389": "FC",
  "4390": " Great",
  "4391": " rat",
  "4392": " legislation",
  "4393": " controvers",
  "4394": " unlike",
  "4395": " electric",
  "4396": " Many",
  "4397": "32",
  "4398": " camera",
  "4399": "witch",
  "4400": " accused",
  "4401": " spl",
  "4402": " neighbor",
  "4403": " double",
  "4404": " ice",
  "4405": " species",
  "4406": " shared",
  "4407": "lant",
  "4408": " join",
  "4409": " 31",
  "4410": " illegal",
  "4411": " Lab",
  "4412": " 2006",
  "4413": "Mr",
  "4414": " harm",
  "4415": " machine",
  "4416": " served",
  "4417": " Jer",
  "4418": "GB",
  "4419": " extremely",
  "4420": "olf",
  "4421": " active",
  "4422": " 35",
  "4423": " serve",
  "4424": " documents",
  "4425": " Islamic",
  "4426": " frame",
  "4427": " strik",
  "4428": "level",
  "4429": "za",
  "4430": " Dist",
  "4431": " audience",
  "4432": "BS",
  "4433": " location",
  "4434": " AM",
  "4435": " scientists",
  "4436": " bottom",
  "4437": " victims",
  "4438": " Art",
  "4439": "orrow",
  "4440": " wealth",
  "4441": " professional",
  "4442": " resist",
  "4443": "ih",
  "4444": " reduce",
  "4445": " belief",
  "4446": " nine",
  "4447": " solid",
  "4448": " winning",
  "4449": "75",
  "4450": " marijuana",
  "4451": "ears",
  "4452": " Uk",
  "4453": " negative",
  "4454": "iful",
  "4455": " communities",
  "4456": " returned",
  "4457": "ortunately",
  "4458": " bed",
  "4459": " incred",
  "4460": " PM",
  "4461": " Institute",
  "4462": "met",
  "4463": "tered",
  "4464": " church",
  "4465": "PS",
  "4466": " department",
  "4467": " Sanders",
  "4468": " ran",
  "4469": "irgin",
  "4470": " victory",
  "4471": "rey",
  "4472": " purpose",
  "4473": " 90",
  "4474": " Commun",
  "4475": " amb",
  "4476": "lands",
  "4477": " vehicle",
  "4478": " internet",
  "4479": " leadership",
  "4480": "ios",
  "4481": " Hall",
  "4482": "istics",
  "4483": " bomb",
  "4484": " mobile",
  "4485": "ghan",
  "4486": " instance",
  "4487": "ipped",
  "4488": "38",
  "4489": " separate",
  "4490": " existing",
  "4491": " notice",
  "4492": " hearing",
  "4493": " die",
  "4494": " explain",
  "4495": " doubt",
  "4496": " faith",
  "4497": " teach",
  "4498": "house",
  "4499": " Your",
  "4500": "atically",
  "4501": " episode",
  "4502": " watching",
  "4503": " comfort",
  "4504": " Canadian",
  "4505": " Bank",
  "4506": " notes",
  "4507": " radio",
  "4508": " Ev",
  "4509": " fresh",
  "4510": " unc",
  "4511": " Fin",
  "4512": " views",
  "4513": " Inc",
  "4514": " putting",
  "4515": "asy",
  "4516": " Sl",
  "4517": " supporters",
  "4518": " conservative",
  "4519": " purs",
  "4520": " argument",
  "4521": "omas",
  "4522": " micro",
  "4523": "ario",
  "4524": "acity",
  "4525": " launched",
  "4526": "scrib",
  "4527": "works",
  "4528": "OL",
  "4529": " appeal",
  "4530": "iliar",
  "4531": " items",
  "4532": " committee",
  "4533": "resp",
  "4534": " Mad",
  "4535": "which",
  "4536": " definitely",
  "4537": " dangerous",
  "4538": "iller",
  "4539": "zen",
  "4540": "PA",
  "4541": " coverage",
  "4542": " direction",
  "4543": " Over",
  "4544": " charged",
  "4545": " floor",
  "4546": " sun",
  "4547": " max",
  "4548": "ography",
  "4549": "34",
  "4550": "EM",
  "4551": " Carol",
  "4552": " Church",
  "4553": " Fox",
  "4554": " issued",
  "4555": " drugs",
  "4556": "Image",
  "4557": "ipp",
  "4558": " task",
  "4559": " background",
  "4560": " competition",
  "4561": " trend",
  "4562": " stated",
  "4563": "vention",
  "4564": "andom",
  "4565": "ada",
  "4566": " traffic",
  "4567": " FBI",
  "4568": " commercial",
  "4569": " Direct",
  "4570": "itt",
  "4571": "urb",
  "4572": " spoke",
  "4573": " sett",
  "4574": "inct",
  "4575": " transfer",
  "4576": " suggested",
  "4577": " structure",
  "4578": " sites",
  "4579": " hus",
  "4580": " north",
  "4581": " Since",
  "4582": " Like",
  "4583": " restaur",
  "4584": "ampionship",
  "4585": " labor",
  "4586": " decade",
  "4587": " repeated",
  "4588": " Game",
  "4589": " react",
  "4590": "oman",
  "4591": " cards",
  "4592": " animals",
  "4593": "going",
  "4594": " novel",
  "4595": "ctors",
  "4596": "but",
  "4597": "NA",
  "4598": "ribute",
  "4599": " daughter",
  "4600": "anted",
  "4601": " driving",
  "4602": " closed",
  "4603": " worst",
  "4604": " contain",
  "4605": " entirely",
  "4606": " ded",
  "4607": " Britain",
  "4608": "Bl",
  "4609": "ady",
  "4610": "gency",
  "4611": " driver",
  "4612": " Wil",
  "4613": " disease",
  "4614": " telling",
  "4615": "iling",
  "4616": " smaller",
  "4617": " discovered",
  "4618": " nor",
  "4619": "akistan",
  "4620": " refere",
  "4621": " Pri",
  "4622": "Americ",
  "4623": " Los",
  "4624": "ius",
  "4625": " hack",
  "4626": "equ",
  "4627": "!”",
  "4628": "ference",
  "4629": " Que",
  "4630": "spe",
  "4631": " false",
  "4632": " cash",
  "4633": " concerned",
  "4634": "ulf",
  "4635": " plays",
  "4636": " surface",
  "4637": "semb",
  "4638": " supported",
  "4639": "annel",
  "4640": "ulated",
  "4641": " tools",
  "4642": "oyal",
  "4643": " compar",
  "4644": " transport",
  "4645": " Chris",
  "4646": " experiment",
  "4647": " finding",
  "4648": "night",
  "4649": " categ",
  "4650": "b'\\xe3\\x82'",
  "4651": "ait",
  "4652": " aspect",
  "4653": "##",
  "4654": " businesses",
  "4655": "........",
  "4656": " 70",
  "4657": " UN",
  "4658": " farm",
  "4659": " please",
  "4660": " older",
  "4661": "azon",
  "4662": "how",
  "4663": " activities",
  "4664": " requires",
  "4665": "phone",
  "4666": "CH",
  "4667": " gay",
  "4668": " Jones",
  "4669": "ibrary",
  "4670": " strength",
  "4671": "48",
  "4672": " wel",
  "4673": "andon",
  "4674": " insurance",
  "4675": " consequ",
  "4676": "37",
  "4677": " largely",
  "4678": " murder",
  "4679": "NN",
  "4680": "55",
  "4681": "ici",
  "4682": "do",
  "4683": " exerc",
  "4684": " caught",
  "4685": "========",
  "4686": " candidates",
  "4687": "kins",
  "4688": " Israeli",
  "4689": " allowing",
  "4690": "icy",
  "4691": " blue",
  "4692": " Are",
  "4693": " annual",
  "4694": " Ken",
  "4695": " testing",
  "4696": "ossible",
  "4697": " strateg",
  "4698": " Sup",
  "4699": " raise",
  "4700": " stock",
  "4701": "arant",
  "4702": "overy",
  "4703": " Robert",
  "4704": "izes",
  "4705": " decisions",
  "4706": " accur",
  "4707": "rick",
  "4708": " context",
  "4709": " fuel",
  "4710": " Ac",
  "4711": "SP",
  "4712": "osure",
  "4713": "lor",
  "4714": " Ukrain",
  "4715": " concern",
  "4716": " afford",
  "4717": " believes",
  "4718": " construction",
  "4719": " truly",
  "4720": " Ty",
  "4721": " Miss",
  "4722": " ge",
  "4723": " justice",
  "4724": "igrants",
  "4725": " generation",
  "4726": " highlight",
  "4727": " Tre",
  "4728": " unit",
  "4729": "rim",
  "4730": "ey",
  "4731": " presence",
  "4732": " Jewish",
  "4733": "anging",
  "4734": "!!",
  "4735": " Sil",
  "4736": "а",
  "4737": "tery",
  "4738": "е",
  "4739": "ception",
  "4740": " Africa",
  "4741": " guess",
  "4742": "ancy",
  "4743": " witness",
  "4744": "itable",
  "4745": " holding",
  "4746": " Gree",
  "4747": " establish",
  "4748": " length",
  "4749": " planning",
  "4750": "bre",
  "4751": "ava",
  "4752": " African",
  "4753": " sequ",
  "4754": "cknow",
  "4755": " refuge",
  "4756": " placed",
  "4757": " catch",
  "4758": " Afghan",
  "4759": " san",
  "4760": "inter",
  "4761": " Association",
  "4762": " tells",
  "4763": "‘",
  "4764": " scale",
  "4765": " spokesman",
  "4766": " tim",
  "4767": "nel",
  "4768": " rough",
  "4769": " attend",
  "4770": "olly",
  "4771": " Ver",
  "4772": " cells",
  "4773": " joined",
  "4774": " mentioned",
  "4775": " interests",
  "4776": " abuse",
  "4777": "pective",
  "4778": " Jim",
  "4779": " Pre",
  "4780": "More",
  "4781": " hasn",
  "4782": " PC",
  "4783": "Le",
  "4784": " initi",
  "4785": " enforcement",
  "4786": " kid",
  "4787": " GOP",
  "4788": " introduced",
  "4789": " deliver",
  "4790": " conflict",
  "4791": " Mer",
  "4792": " Microsoft",
  "4793": " phil",
  "4794": " update",
  "4795": " missing",
  "4796": "ros",
  "4797": " providing",
  "4798": " waiting",
  "4799": " cancer",
  "4800": "la",
  "4801": "39",
  "4802": " recommend",
  "4803": "ocracy",
  "4804": " established",
  "4805": "isation",
  "4806": " eat",
  "4807": "bour",
  "4808": " Yes",
  "4809": " occup",
  "4810": " Frank",
  "4811": " Jeff",
  "4812": " Angeles",
  "4813": " removed",
  "4814": " 2005",
  "4815": "ula",
  "4816": " offensive",
  "4817": " Fore",
  "4818": " Instead",
  "4819": "icon",
  "4820": " injury",
  "4821": " sports",
  "4822": "47",
  "4823": " fant",
  "4824": " discussion",
  "4825": "vant",
  "4826": " operation",
  "4827": " download",
  "4828": " useful",
  "4829": " newsp",
  "4830": " conversation",
  "4831": " homes",
  "4832": "ronic",
  "4833": " south",
  "4834": " cook",
  "4835": " CEO",
  "4836": " assess",
  "4837": "itz",
  "4838": " Group",
  "4839": "formation",
  "4840": "lig",
  "4841": " banks",
  "4842": "onto",
  "4843": " stopped",
  "4844": " Step",
  "4845": " Const",
  "4846": " obvious",
  "4847": "ications",
  "4848": " measures",
  "4849": " models",
  "4850": " Kh",
  "4851": " fourth",
  "4852": " MP",
  "4853": "Our",
  "4854": "season",
  "4855": "what",
  "4856": " bul",
  "4857": "DA",
  "4858": "anda",
  "4859": " 2018",
  "4860": " files",
  "4861": " girls",
  "4862": " Louis",
  "4863": " stick",
  "4864": "cks",
  "4865": "azine",
  "4866": "mail",
  "4867": "umn",
  "4868": " managed",
  "4869": "iter",
  "4870": "apped",
  "4871": "rd",
  "4872": " Palestin",
  "4873": "oted",
  "4874": " figures",
  "4875": "oms",
  "4876": " Tim",
  "4877": " Leg",
  "4878": " identified",
  "4879": " graph",
  "4880": " Jud",
  "4881": " Sal",
  "4882": " finished",
  "4883": " funds",
  "4884": "Pl",
  "4885": " Pakistan",
  "4886": "real",
  "4887": " setting",
  "4888": " conclud",
  "4889": " prefer",
  "4890": " hair",
  "4891": " committed",
  "4892": " Mexico",
  "4893": "49",
  "4894": " skills",
  "4895": " appropri",
  "4896": " spirit",
  "4897": " Rock",
  "4898": " veter",
  "4899": " focused",
  "4900": " arrived",
  "4901": "kin",
  "4902": " THE",
  "4903": " housing",
  "4904": " keeping",
  "4905": " Virgin",
  "4906": " therefore",
  "4907": " acknow",
  "4908": " detect",
  "4909": "ulate",
  "4910": "Des",
  "4911": " partner",
  "4912": " exclus",
  "4913": "igan",
  "4914": " Android",
  "4915": "enses",
  "4916": "ups",
  "4917": " earth",
  "4918": " transl",
  "4919": "outs",
  "4920": "place",
  "4921": " tough",
  "4922": " Japanese",
  "4923": " 2000",
  "4924": " relatively",
  "4925": "á",
  "4926": " Supreme",
  "4927": "owl",
  "4928": " identity",
  "4929": " feels",
  "4930": " Met",
  "4931": " otherwise",
  "4932": " survey",
  "4933": "wing",
  "4934": " Ryan",
  "4935": "ocal",
  "4936": "RA",
  "4937": "ication",
  "4938": "itutional",
  "4939": " protection",
  "4940": "agn",
  "4941": " exchange",
  "4942": " owner",
  "4943": "isf",
  "4944": "Trump",
  "4945": " steps",
  "4946": " trip",
  "4947": "imb",
  "4948": " husband",
  "4949": " Inter",
  "4950": " Mont",
  "4951": " tweet",
  "4952": " connection",
  "4953": " Army",
  "4954": " slightly",
  "4955": " Prof",
  "4956": "eah",
  "4957": " weak",
  "4958": " Government",
  "4959": "verse",
  "4960": "\":",
  "4961": " circum",
  "4962": " elements",
  "4963": " click",
  "4964": " Richard",
  "4965": " strike",
  "4966": " photos",
  "4967": " mere",
  "4968": " defensive",
  "4969": "dden",
  "4970": " gain",
  "4971": " fle",
  "4972": " depend",
  "4973": "ucky",
  "4974": " collection",
  "4975": "onym",
  "4976": "hens",
  "4977": "gar",
  "4978": " killing",
  "4979": " roll",
  "4980": "ighter",
  "4981": "________________",
  "4982": "Go",
  "4983": " corner",
  "4984": " Martin",
  "4985": "ancing",
  "4986": "odies",
  "4987": " suggests",
  "4988": "uct",
  "4989": " aggress",
  "4990": "with",
  "4991": "prof",
  "4992": "ka",
  "4993": " guard",
  "4994": "Photo",
  "4995": " gender",
  "4996": "makers",
  "4997": " College",
  "4998": " commission",
  "4999": " Although",
  "5000": "range",
  "5001": " dat",
  "5002": " Sur",
  "5003": "46",
  "5004": " Ir",
  "5005": " Dec",
  "5006": " mental",
  "5007": "icide",
  "5008": "rees",
  "5009": " amazing",
  "5010": " Sub",
  "5011": " planet",
  "5012": "hi",
  "5013": " Team",
  "5014": "rency",
  "5015": " Out",
  "5016": " bigger",
  "5017": "ym",
  "5018": " failure",
  "5019": " Jose",
  "5020": " supply",
  "5021": "Why",
  "5022": "ania",
  "5023": " Nor",
  "5024": " starts",
  "5025": " sides",
  "5026": "gers",
  "5027": "hedul",
  "5028": "iser",
  "5029": " familiar",
  "5030": " remind",
  "5031": " sust",
  "5032": " spect",
  "5033": "ils",
  "5034": "uate",
  "5035": " speaking",
  "5036": "ano",
  "5037": " talks",
  "5038": " happening",
  "5039": "gypt",
  "5040": " organizations",
  "5041": " hate",
  "5042": " window",
  "5043": " army",
  "5044": " Good",
  "5045": " Joe",
  "5046": " none",
  "5047": "uke",
  "5048": " taxes",
  "5049": " planned",
  "5050": " Pet",
  "5051": " thanks",
  "5052": " Mary",
  "5053": " struct",
  "5054": " pit",
  "5055": " decide",
  "5056": " sudden",
  "5057": " wish",
  "5058": " crew",
  "5059": " carried",
  "5060": " appoint",
  "5061": "oston",
  "5062": " pet",
  "5063": "mas",
  "5064": "awn",
  "5065": "eless",
  "5066": "agues",
  "5067": "ynam",
  "5068": " regist",
  "5069": "TC",
  "5070": " multi",
  "5071": "idering",
  "5072": " helping",
  "5073": "Last",
  "5074": " award",
  "5075": " standards",
  "5076": " 32",
  "5077": " Fire",
  "5078": " revolution",
  "5079": " environmental",
  "5080": "].",
  "5081": " Web",
  "5082": "arsh",
  "5083": " Thomas",
  "5084": "olit",
  "5085": " script",
  "5086": "pm",
  "5087": "ola",
  "5088": " seconds",
  "5089": "run",
  "5090": " Research",
  "5091": "gn",
  "5092": " scientific",
  "5093": " Bern",
  "5094": " immigration",
  "5095": " standing",
  "5096": " Their",
  "5097": " 45",
  "5098": "stream",
  "5099": "ocol",
  "5100": " que",
  "5101": " beer",
  "5102": " domestic",
  "5103": "imal",
  "5104": "adium",
  "5105": " pair",
  "5106": "uters",
  "5107": " Also",
  "5108": " Secretary",
  "5109": " Us",
  "5110": " academ",
  "5111": " cold",
  "5112": " variety",
  "5113": " markets",
  "5114": "aven",
  "5115": " sch",
  "5116": "HL",
  "5117": "lo",
  "5118": " territ",
  "5119": " dropped",
  "5120": "fe",
  "5121": " accounts",
  "5122": "!\"",
  "5123": " Atlant",
  "5124": " filed",
  "5125": "erous",
  "5126": "acks",
  "5127": "illa",
  "5128": " balance",
  "5129": " impossible",
  "5130": " Ter",
  "5131": " interact",
  "5132": " neighborhood",
  "5133": " degree",
  "5134": "Read",
  "5135": " turns",
  "5136": "ores",
  "5137": "itect",
  "5138": " possibly",
  "5139": " appre",
  "5140": " operating",
  "5141": " princ",
  "5142": " alternative",
  "5143": " union",
  "5144": " votes",
  "5145": " vul",
  "5146": "ader",
  "5147": " professor",
  "5148": " tack",
  "5149": " Service",
  "5150": " increasingly",
  "5151": "ayer",
  "5152": "ruit",
  "5153": " apply",
  "5154": " fellow",
  "5155": " cuts",
  "5156": "stein",
  "5157": " honest",
  "5158": " Prime",
  "5159": " univers",
  "5160": " server",
  "5161": "vis",
  "5162": " developers",
  "5163": "arks",
  "5164": " Syrian",
  "5165": " apparently",
  "5166": "abb",
  "5167": "aren",
  "5168": " lived",
  "5169": " changing",
  "5170": " worry",
  "5171": "rastructure",
  "5172": " Carolina",
  "5173": " tests",
  "5174": " units",
  "5175": " rich",
  "5176": " Two",
  "5177": "cious",
  "5178": "icted",
  "5179": "From",
  "5180": "aded",
  "5181": " humans",
  "5182": "IM",
  "5183": " Foundation",
  "5184": " Mos",
  "5185": " agencies",
  "5186": " sounds",
  "5187": "ashed",
  "5188": " twice",
  "5189": " ultimately",
  "5190": "obby",
  "5191": " losing",
  "5192": " philos",
  "5193": " authority",
  "5194": " soldiers",
  "5195": "b'\\xe3\\x83'",
  "5196": " animal",
  "5197": " Images",
  "5198": " settle",
  "5199": " ath",
  "5200": " schedul",
  "5201": " mut",
  "5202": " colle",
  "5203": " corporate",
  "5204": " absolutely",
  "5205": " healthy",
  "5206": " paying",
  "5207": "och",
  "5208": " equip",
  "5209": "iams",
  "5210": " developing",
  "5211": " sea",
  "5212": " Time",
  "5213": " closer",
  "5214": " Den",
  "5215": " innov",
  "5216": "roud",
  "5217": "related",
  "5218": " seeking",
  "5219": " regarding",
  "5220": "coh",
  "5221": " skin",
  "5222": " expensive",
  "5223": "ansion",
  "5224": " possibility",
  "5225": " beautiful",
  "5226": " religion",
  "5227": " apart",
  "5228": " Central",
  "5229": "65",
  "5230": "gu",
  "5231": " fundament",
  "5232": " experts",
  "5233": " solar",
  "5234": " yards",
  "5235": " vast",
  "5236": " writer",
  "5237": " flight",
  "5238": " District",
  "5239": " Last",
  "5240": " deploy",
  "5241": " adjust",
  "5242": "Of",
  "5243": " internal",
  "5244": " tast",
  "5245": " Under",
  "5246": " Lat",
  "5247": " Peter",
  "5248": "apers",
  "5249": " imagine",
  "5250": " Jon",
  "5251": "IV",
  "5252": " applications",
  "5253": "iot",
  "5254": "31",
  "5255": "ologies",
  "5256": " vision",
  "5257": "look",
  "5258": "state",
  "5259": "osen",
  "5260": " Francisco",
  "5261": " Toronto",
  "5262": " sitting",
  "5263": " Plan",
  "5264": " trail",
  "5265": " unless",
  "5266": "den",
  "5267": " USA",
  "5268": " Jes",
  "5269": "isted",
  "5270": " heat",
  "5271": " 2004",
  "5272": "Even",
  "5273": " responsibility",
  "5274": " capacity",
  "5275": "IP",
  "5276": "atures",
  "5277": " Middle",
  "5278": " error",
  "5279": "aine",
  "5280": "ias",
  "5281": " symb",
  "5282": " fol",
  "5283": "pire",
  "5284": " arms",
  "5285": " pil",
  "5286": " gar",
  "5287": " covered",
  "5288": "idden",
  "5289": " famous",
  "5290": " Camp",
  "5291": " forms",
  "5292": " Bur",
  "5293": "uzz",
  "5294": "ND",
  "5295": " university",
  "5296": " guarant",
  "5297": " tight",
  "5298": " presented",
  "5299": "ortion",
  "5300": "oving",
  "5301": "enced",
  "5302": " ST",
  "5303": " Egypt",
  "5304": " earn",
  "5305": " Put",
  "5306": " convention",
  "5307": "under",
  "5308": "Just",
  "5309": " Public",
  "5310": " surprise",
  "5311": " attorney",
  "5312": " elections",
  "5313": " estimated",
  "5314": " fif",
  "5315": "————",
  "5316": " Ari",
  "5317": " teen",
  "5318": " instit",
  "5319": " vehicles",
  "5320": "rible",
  "5321": " Amazon",
  "5322": "road",
  "5323": " intended",
  "5324": " rid",
  "5325": " odd",
  "5326": " helps",
  "5327": " occurred",
  "5328": "person",
  "5329": " streets",
  "5330": "ini",
  "5331": "uster",
  "5332": "hand",
  "5333": " Boston",
  "5334": " Sol",
  "5335": " =>",
  "5336": "=\"",
  "5337": " Mur",
  "5338": " sport",
  "5339": "sen",
  "5340": " determine",
  "5341": "ressive",
  "5342": " Bitcoin",
  "5343": " expert",
  "5344": "####",
  "5345": " schem",
  "5346": "alls",
  "5347": " consult",
  "5348": "uration",
  "5349": " broken",
  "5350": "Let",
  "5351": "lets",
  "5352": " fired",
  "5353": " ton",
  "5354": " flow",
  "5355": " domin",
  "5356": " Gal",
  "5357": "porary",
  "5358": "eder",
  "5359": "LE",
  "5360": " shall",
  "5361": " reserv",
  "5362": "Up",
  "5363": " troops",
  "5364": "ION",
  "5365": " Those",
  "5366": " hyp",
  "5367": " nar",
  "5368": "terday",
  "5369": " pieces",
  "5370": " Chief",
  "5371": " prepared",
  "5372": " Mass",
  "5373": " Cath",
  "5374": " rapid",
  "5375": "orage",
  "5376": " Jo",
  "5377": " located",
  "5378": " Social",
  "5379": " baby",
  "5380": "gl",
  "5381": " conclus",
  "5382": " bringing",
  "5383": "anche",
  "5384": " Prot",
  "5385": " prove",
  "5386": " specifically",
  "5387": " Any",
  "5388": " potentially",
  "5389": " sector",
  "5390": " random",
  "5391": " jail",
  "5392": "OW",
  "5393": " selling",
  "5394": " governments",
  "5395": " Once",
  "5396": " scr",
  "5397": "Ab",
  "5398": " equal",
  "5399": "class",
  "5400": "war",
  "5401": " faster",
  "5402": " heav",
  "5403": " Spr",
  "5404": " boost",
  "5405": "useum",
  "5406": "vey",
  "5407": " clin",
  "5408": " proposal",
  "5409": "oty",
  "5410": " factors",
  "5411": " plenty",
  "5412": "TH",
  "5413": " equipment",
  "5414": " council",
  "5415": " era",
  "5416": " infrastructure",
  "5417": "Do",
  "5418": " stress",
  "5419": "phas",
  "5420": " stars",
  "5421": " Journal",
  "5422": " Rub",
  "5423": "endment",
  "5424": " Virginia",
  "5425": " breat",
  "5426": " prosecut",
  "5427": " voted",
  "5428": " offering",
  "5429": " carbon",
  "5430": "inent",
  "5431": " expressed",
  "5432": " vulner",
  "5433": " combat",
  "5434": " Paris",
  "5435": " broke",
  "5436": "()",
  "5437": "ureau",
  "5438": " clot",
  "5439": "ours",
  "5440": " ruling",
  "5441": " Federal",
  "5442": " retail",
  "5443": " Guard",
  "5444": " refused",
  "5445": " dram",
  "5446": " Dan",
  "5447": " elected",
  "5448": " Open",
  "5449": " River",
  "5450": "Every",
  "5451": " secure",
  "5452": "cean",
  "5453": " seasons",
  "5454": " conducted",
  "5455": ",'",
  "5456": "ht",
  "5457": " challenges",
  "5458": " remove",
  "5459": "isher",
  "5460": "rog",
  "5461": " Sant",
  "5462": " methods",
  "5463": " weapon",
  "5464": "noon",
  "5465": " pointed",
  "5466": " Island",
  "5467": " master",
  "5468": " remained",
  "5469": " Australian",
  "5470": " prime",
  "5471": "ENT",
  "5472": " trig",
  "5473": " positions",
  "5474": " Cru",
  "5475": " din",
  "5476": " Mel",
  "5477": " criticism",
  "5478": "ipping",
  "5479": "First",
  "5480": "ocking",
  "5481": " Medic",
  "5482": " Please",
  "5483": "onom",
  "5484": "IG",
  "5485": " sale",
  "5486": "olved",
  "5487": " Fe",
  "5488": " cultural",
  "5489": "that",
  "5490": " weren",
  "5491": " significantly",
  "5492": " brow",
  "5493": "etic",
  "5494": " originally",
  "5495": "rie",
  "5496": " During",
  "5497": " affected",
  "5498": " appearance",
  "5499": " cas",
  "5500": " tourn",
  "5501": " facing",
  "5502": " greatest",
  "5503": " finish",
  "5504": " Lee",
  "5505": " stret",
  "5506": "yr",
  "5507": " youth",
  "5508": " tele",
  "5509": " Who",
  "5510": " Cur",
  "5511": " percentage",
  "5512": " Photo",
  "5513": "col",
  "5514": "95",
  "5515": " determined",
  "5516": " signs",
  "5517": " involve",
  "5518": "cel",
  "5519": "и",
  "5520": "********",
  "5521": " thank",
  "5522": " bought",
  "5523": "lyn",
  "5524": "standing",
  "5525": " chemical",
  "5526": "ashion",
  "5527": "64",
  "5528": " shape",
  "5529": " regime",
  "5530": " grew",
  "5531": "pired",
  "5532": " remaining",
  "5533": " Steve",
  "5534": "lymp",
  "5535": " minimum",
  "5536": " Saud",
  "5537": "reens",
  "5538": " indeed",
  "5539": " dream",
  "5540": "rier",
  "5541": " 500",
  "5542": "Since",
  "5543": " marg",
  "5544": "Sp",
  "5545": " Both",
  "5546": ">>",
  "5547": " mode",
  "5548": " herself",
  "5549": " voting",
  "5550": " Color",
  "5551": " obviously",
  "5552": " Force",
  "5553": " Ro",
  "5554": " reduced",
  "5555": " Nov",
  "5556": "ordin",
  "5557": " wood",
  "5558": " Sing",
  "5559": " Rem",
  "5560": " recorded",
  "5561": " argued",
  "5562": " 1990",
  "5563": " revenue",
  "5564": " tact",
  "5565": " wearing",
  "5566": "aling",
  "5567": "ighters",
  "5568": " leads",
  "5569": " hun",
  "5570": " politicians",
  "5571": " plus",
  "5572": " contrast",
  "5573": " switch",
  "5574": " handle",
  "5575": " purchase",
  "5576": "edia",
  "5577": " thr",
  "5578": " subs",
  "5579": " concent",
  "5580": " proced",
  "5581": "т",
  "5582": " agent",
  "5583": "arp",
  "5584": "mm",
  "5585": " Williams",
  "5586": " appreci",
  "5587": " experienced",
  "5588": " hurt",
  "5589": "top",
  "5590": " excited",
  "5591": " videos",
  "5592": "odd",
  "5593": " https",
  "5594": "cohol",
  "5595": " supporting",
  "5596": "DP",
  "5597": " Haw",
  "5598": "ownt",
  "5599": " vir",
  "5600": " Free",
  "5601": " surprising",
  "5602": " minute",
  "5603": " explos",
  "5604": " belong",
  "5605": " consumers",
  "5606": " identify",
  "5607": " considering",
  "5608": " Pac",
  "5609": " Conserv",
  "5610": "ller",
  "5611": "apter",
  "5612": " aircraft",
  "5613": " rent",
  "5614": " aid",
  "5615": "CL",
  "5616": " pulled",
  "5617": "gment",
  "5618": " basically",
  "5619": " differences",
  "5620": "ogue",
  "5621": " Book",
  "5622": " glass",
  "5623": " afternoon",
  "5624": " shift",
  "5625": " diss",
  "5626": " Rad",
  "5627": " depart",
  "5628": " ends",
  "5629": "essions",
  "5630": " turning",
  "5631": " bound",
  "5632": " films",
  "5633": " spring",
  "5634": " prospect",
  "5635": "ruption",
  "5636": "ket",
  "5637": " Charl",
  "5638": "hab",
  "5639": " mort",
  "5640": "life",
  "5641": " treated",
  "5642": " accident",
  "5643": ",[",
  "5644": " motiv",
  "5645": " listen",
  "5646": " seat",
  "5647": " Power",
  "5648": "uts",
  "5649": " combined",
  "5650": " construct",
  "5651": "Ind",
  "5652": " seriously",
  "5653": " privacy",
  "5654": "apping",
  "5655": " evening",
  "5656": "hered",
  "5657": "hy",
  "5658": " opportunities",
  "5659": "asp",
  "5660": " struggle",
  "5661": " 195",
  "5662": " panel",
  "5663": " enemy",
  "5664": " lots",
  "5665": " completed",
  "5666": " Daily",
  "5667": " visual",
  "5668": "His",
  "5669": "Phone",
  "5670": "pet",
  "5671": " talked",
  "5672": " cart",
  "5673": " hopes",
  "5674": "oral",
  "5675": " passing",
  "5676": " id",
  "5677": " apps",
  "5678": "05",
  "5679": "osite",
  "5680": "PD",
  "5681": " calcul",
  "5682": "Another",
  "5683": " widely",
  "5684": "ensions",
  "5685": " emergency",
  "5686": " Hol",
  "5687": "amm",
  "5688": " Show",
  "5689": " suit",
  "5690": " element",
  "5691": " ast",
  "5692": "anged",
  "5693": "SS",
  "5694": "ucks",
  "5695": "aled",
  "5696": " powers",
  "5697": "ato",
  "5698": " Rel",
  "5699": " BBC",
  "5700": " Olymp",
  "5701": " burn",
  "5702": "TV",
  "5703": " discl",
  "5704": "Pe",
  "5705": " plants",
  "5706": " flat",
  "5707": " Space",
  "5708": " liberal",
  "5709": "raud",
  "5710": "obe",
  "5711": " opposed",
  "5712": "Well",
  "5713": "ompl",
  "5714": " copyright",
  "5715": "oking",
  "5716": " Project",
  "5717": " advance",
  "5718": " factor",
  "5719": " distance",
  "5720": " 2003",
  "5721": "ivered",
  "5722": " dismiss",
  "5723": "plom",
  "5724": " attempts",
  "5725": " tun",
  "5726": " Matt",
  "5727": " Road",
  "5728": "Am",
  "5729": "abilities",
  "5730": " IN",
  "5731": "ributed",
  "5732": " trouble",
  "5733": "unction",
  "5734": " hol",
  "5735": " collabor",
  "5736": " default",
  "5737": "idel",
  "5738": " Bet",
  "5739": " zone",
  "5740": " Jackson",
  "5741": " upgr",
  "5742": "ita",
  "5743": "rawn",
  "5744": "Cont",
  "5745": " reaction",
  "5746": " storm",
  "5747": " reporters",
  "5748": " Mem",
  "5749": " frust",
  "5750": "PR",
  "5751": "nell",
  "5752": "adow",
  "5753": " writes",
  "5754": "mosp",
  "5755": "mond",
  "5756": "aints",
  "5757": " typically",
  "5758": " Today",
  "5759": "lines",
  "5760": "respond",
  "5761": "UT",
  "5762": " pages",
  "5763": " instruct",
  "5764": "sts",
  "5765": "edd",
  "5766": "ternal",
  "5767": "eds",
  "5768": " reference",
  "5769": " package",
  "5770": " bodies",
  "5771": "01",
  "5772": "zer",
  "5773": " matters",
  "5774": "free",
  "5775": " denied",
  "5776": "care",
  "5777": "App",
  "5778": " quant",
  "5779": " disappoint",
  "5780": " sem",
  "5781": " explo",
  "5782": " NAS",
  "5783": " optim",
  "5784": "ache",
  "5785": " quiet",
  "5786": " entertain",
  "5787": " mal",
  "5788": " responded",
  "5789": " approved",
  "5790": " Turkey",
  "5791": " satisf",
  "5792": "aped",
  "5793": " broadcast",
  "5794": "esters",
  "5795": " institutions",
  "5796": " advert",
  "5797": "42",
  "5798": " stands",
  "5799": " Director",
  "5800": " sets",
  "5801": "estival",
  "5802": " elimin",
  "5803": "isters",
  "5804": "razy",
  "5805": "ä",
  "5806": "Rep",
  "5807": " Penn",
  "5808": " valid",
  "5809": "host",
  "5810": " renew",
  "5811": " Ohio",
  "5812": "elly",
  "5813": " split",
  "5814": " severe",
  "5815": " William",
  "5816": " sac",
  "5817": " capable",
  "5818": " 2001",
  "5819": " //",
  "5820": " pitch",
  "5821": "aniel",
  "5822": " caption",
  "5823": "abin",
  "5824": " cloud",
  "5825": " loved",
  "5826": " technical",
  "5827": " giant",
  "5828": "pass",
  "5829": " cann",
  "5830": " tradition",
  "5831": "rant",
  "5832": " prompt",
  "5833": " bull",
  "5834": " confident",
  "5835": "uous",
  "5836": " confidence",
  "5837": " numerous",
  "5838": " reportedly",
  "5839": " Ma",
  "5840": " faces",
  "5841": "],",
  "5842": "writ",
  "5843": " weather",
  "5844": " fly",
  "5845": " transition",
  "5846": "rid",
  "5847": " 36",
  "5848": " System",
  "5849": " Afghanistan",
  "5850": " Squ",
  "5851": " creation",
  "5852": "De",
  "5853": " perspective",
  "5854": " unable",
  "5855": " forget",
  "5856": " Labour",
  "5857": " Yet",
  "5858": "astern",
  "5859": "employ",
  "5860": "oken",
  "5861": " Media",
  "5862": "angers",
  "5863": "II",
  "5864": "unte",
  "5865": " craft",
  "5866": " substant",
  "5867": " cooper",
  "5868": " violent",
  "5869": " suffered",
  "5870": "ilit",
  "5871": " coast",
  "5872": " mand",
  "5873": "ampion",
  "5874": "43",
  "5875": " pictures",
  "5876": " experiences",
  "5877": " approx",
  "5878": "abled",
  "5879": " route",
  "5880": "88",
  "5881": "sex",
  "5882": " flag",
  "5883": " advice",
  "5884": " Andrew",
  "5885": "Se",
  "5886": "usiness",
  "5887": " declared",
  "5888": " Wal",
  "5889": " ordered",
  "5890": " Human",
  "5891": "razil",
  "5892": " crimes",
  "5893": " coff",
  "5894": " proud",
  "5895": "ishes",
  "5896": " reporting",
  "5897": " messages",
  "5898": " circumst",
  "5899": " findings",
  "5900": "Res",
  "5901": " eval",
  "5902": "ulations",
  "5903": " Lin",
  "5904": " excell",
  "5905": "Over",
  "5906": " declined",
  "5907": " explains",
  "5908": " delay",
  "5909": " \\",
  "5910": " Follow",
  "5911": " newspaper",
  "5912": "ounded",
  "5913": " connected",
  "5914": "ilty",
  "5915": " shouldn",
  "5916": "evin",
  "5917": "oves",
  "5918": " ongoing",
  "5919": "can",
  "5920": " van",
  "5921": "dule",
  "5922": " movies",
  "5923": " picked",
  "5924": "ionally",
  "5925": "resents",
  "5926": " admitted",
  "5927": "77",
  "5928": " gra",
  "5929": " delivered",
  "5930": "During",
  "5931": " guns",
  "5932": " ML",
  "5933": "ga",
  "5934": " Scot",
  "5935": " walking",
  "5936": " agents",
  "5937": "called",
  "5938": " prin",
  "5939": "tion",
  "5940": " editor",
  "5941": " thoughts",
  "5942": " married",
  "5943": " Tra",
  "5944": " auth",
  "5945": " emails",
  "5946": " appropriate",
  "5947": " emphas",
  "5948": "uations",
  "5949": " edge",
  "5950": " architect",
  "5951": " Grand",
  "5952": " leaves",
  "5953": " updates",
  "5954": " accompl",
  "5955": "OD",
  "5956": " gather",
  "5957": " forg",
  "5958": " Muslims",
  "5959": "ansas",
  "5960": " Wood",
  "5961": " quarterback",
  "5962": " session",
  "5963": "ooth",
  "5964": " Techn",
  "5965": " pool",
  "5966": " Science",
  "5967": "cos",
  "5968": " injured",
  "5969": "arn",
  "5970": " publicly",
  "5971": "ellow",
  "5972": " Sov",
  "5973": " statements",
  "5974": " perman",
  "5975": " legit",
  "5976": " confirm",
  "5977": "arl",
  "5978": "nergy",
  "5979": " Lake",
  "5980": " ourselves",
  "5981": "Other",
  "5982": " realize",
  "5983": " rot",
  "5984": " drivers",
  "5985": "MA",
  "5986": " Av",
  "5987": " Dou",
  "5988": "mates",
  "5989": ",’",
  "5990": " armed",
  "5991": "essor",
  "5992": " dial",
  "5993": "cons",
  "5994": "TA",
  "5995": " lawyer",
  "5996": "ourney",
  "5997": " rail",
  "5998": " readers",
  "5999": "reland",
  "6000": " sad",
  "6001": " contains",
  "6002": " argue",
  "6003": " Rev",
  "6004": " talent",
  "6005": " filled",
  "6006": " Sum",
  "6007": " allegations",
  "6008": " activists",
  "6009": " Christmas",
  "6010": " dynam",
  "6011": " 1980",
  "6012": " Michigan",
  "6013": "date",
  "6014": " Back",
  "6015": " Ron",
  "6016": " crack",
  "6017": " transform",
  "6018": "Tube",
  "6019": " Ill",
  "6020": " buildings",
  "6021": " Read",
  "6022": "long",
  "6023": " wear",
  "6024": "Many",
  "6025": " terrorist",
  "6026": " sam",
  "6027": " tree",
  "6028": " exercise",
  "6029": "enda",
  "6030": " label",
  "6031": " effectively",
  "6032": "Oh",
  "6033": " practices",
  "6034": "ala",
  "6035": " subsequ",
  "6036": " Jul",
  "6037": " Sher",
  "6038": "41",
  "6039": "uls",
  "6040": " flo",
  "6041": " fish",
  "6042": "TS",
  "6043": "ette",
  "6044": "enture",
  "6045": " shop",
  "6046": " examples",
  "6047": " Hy",
  "6048": " patient",
  "6049": " Gen",
  "6050": " Seattle",
  "6051": " objects",
  "6052": " tech",
  "6053": " See",
  "6054": " secretary",
  "6055": "asure",
  "6056": " rain",
  "6057": " missed",
  "6058": " causes",
  "6059": "illy",
  "6060": "rum",
  "6061": " debut",
  "6062": " Rod",
  "6063": "gia",
  "6064": " essentially",
  "6065": "66",
  "6066": " moral",
  "6067": "orders",
  "6068": "ador",
  "6069": "word",
  "6070": "acter",
  "6071": " Work",
  "6072": "def",
  "6073": "arters",
  "6074": " Ukraine",
  "6075": " centre",
  "6076": "hedule",
  "6077": "Follow",
  "6078": " Vict",
  "6079": "amin",
  "6080": "bur",
  "6081": " Stan",
  "6082": " ID",
  "6083": "icing",
  "6084": " injuries",
  "6085": " Phot",
  "6086": " motor",
  "6087": " iPhone",
  "6088": " artist",
  "6089": " client",
  "6090": " bond",
  "6091": " thinks",
  "6092": "iat",
  "6093": "orse",
  "6094": "ouston",
  "6095": " pure",
  "6096": " hell",
  "6097": "Although",
  "6098": " Saudi",
  "6099": " facts",
  "6100": "b'\\x82\\xac'",
  "6101": " desire",
  "6102": "agers",
  "6103": "aza",
  "6104": " ske",
  "6105": "orry",
  "6106": " linked",
  "6107": "í",
  "6108": " governor",
  "6109": " materials",
  "6110": " performed",
  "6111": "Spe",
  "6112": " franch",
  "6113": "esome",
  "6114": " suc",
  "6115": " philosoph",
  "6116": " initially",
  "6117": "iest",
  "6118": " Sign",
  "6119": " necessarily",
  "6120": " Bat",
  "6121": " Fer",
  "6122": " expansion",
  "6123": " scheduled",
  "6124": "water",
  "6125": "ERS",
  "6126": " warned",
  "6127": " diplom",
  "6128": " advanced",
  "6129": " ing",
  "6130": " explan",
  "6131": " vari",
  "6132": " everybody",
  "6133": " joint",
  "6134": " decre",
  "6135": " resolution",
  "6136": " increases",
  "6137": "enger",
  "6138": "Yes",
  "6139": " accepted",
  "6140": " incor",
  "6141": " myster",
  "6142": " faced",
  "6143": " bare",
  "6144": "illance",
  "6145": " Mount",
  "6146": " announcement",
  "6147": " follows",
  "6148": " nations",
  "6149": " playoff",
  "6150": " Life",
  "6151": " abandon",
  "6152": " Second",
  "6153": " Id",
  "6154": " radical",
  "6155": " athlet",
  "6156": " neither",
  "6157": " yesterday",
  "6158": " datab",
  "6159": " nearby",
  "6160": "gent",
  "6161": " distribution",
  "6162": "otic",
  "6163": " applied",
  "6164": "irty",
  "6165": " magazine",
  "6166": "Most",
  "6167": "athan",
  "6168": "rich",
  "6169": " mir",
  "6170": " consequences",
  "6171": "uy",
  "6172": " doctor",
  "6173": " listed",
  "6174": " fort",
  "6175": " Columb",
  "6176": " atmosp",
  "6177": "American",
  "6178": " surprised",
  "6179": " offense",
  "6180": "Qu",
  "6181": "itors",
  "6182": " CNN",
  "6183": " RE",
  "6184": " spons",
  "6185": " begins",
  "6186": " Week",
  "6187": " threats",
  "6188": "sembly",
  "6189": " represents",
  "6190": " Jews",
  "6191": " GM",
  "6192": " Aff",
  "6193": " enh",
  "6194": " moves",
  "6195": " remark",
  "6196": " TO",
  "6197": " songs",
  "6198": " pra",
  "6199": "kay",
  "6200": " chart",
  "6201": " behavi",
  "6202": " ride",
  "6203": " adds",
  "6204": " withd",
  "6205": "omin",
  "6206": "Can",
  "6207": "Â",
  "6208": " improved",
  "6209": " phen",
  "6210": " Blue",
  "6211": " bot",
  "6212": " warm",
  "6213": " af",
  "6214": " alcohol",
  "6215": "rip",
  "6216": " AT",
  "6217": " output",
  "6218": "law",
  "6219": " flood",
  "6220": " Develop",
  "6221": " Hen",
  "6222": "whel",
  "6223": "edy",
  "6224": " shots",
  "6225": " fill",
  "6226": " Vol",
  "6227": " alt",
  "6228": " stood",
  "6229": " brings",
  "6230": " pushed",
  "6231": "85",
  "6232": " guilty",
  "6233": " Romney",
  "6234": " Kim",
  "6235": " subscrib",
  "6236": " entry",
  "6237": "ocratic",
  "6238": " Brazil",
  "6239": " democracy",
  "6240": " boys",
  "6241": " 33",
  "6242": " row",
  "6243": " Swed",
  "6244": " config",
  "6245": " restaurant",
  "6246": " NBA",
  "6247": " Dev",
  "6248": " lawsuit",
  "6249": " Ireland",
  "6250": "acle",
  "6251": " manufacture",
  "6252": " receiving",
  "6253": " rein",
  "6254": " Barack",
  "6255": "Then",
  "6256": " trib",
  "6257": " totally",
  "6258": " Only",
  "6259": " discussed",
  "6260": " sought",
  "6261": " rising",
  "6262": " entered",
  "6263": " ISIS",
  "6264": " Board",
  "6265": " consistent",
  "6266": " historical",
  "6267": "twitter",
  "6268": "ideo",
  "6269": " storage",
  "6270": " correspond",
  "6271": " plane",
  "6272": " combination",
  "6273": " scored",
  "6274": " input",
  "6275": " 300",
  "6276": " symbol",
  "6277": " bright",
  "6278": " button",
  "6279": "irds",
  "6280": "stood",
  "6281": " creative",
  "6282": " investors",
  "6283": " square",
  "6284": " articles",
  "6285": " 2002",
  "6286": " island",
  "6287": " deaths",
  "6288": " functions",
  "6289": " networks",
  "6290": " classes",
  "6291": " unlikely",
  "6292": "alty",
  "6293": " Prem",
  "6294": " heads",
  "6295": " boss",
  "6296": "ician",
  "6297": " native",
  "6298": "icious",
  "6299": " lie",
  "6300": " sav",
  "6301": " Lib",
  "6302": " roughly",
  "6303": " consumer",
  "6304": " Str",
  "6305": " Whe",
  "6306": " Walk",
  "6307": "fortunately",
  "6308": " Ms",
  "6309": " Maybe",
  "6310": " heavily",
  "6311": " Another",
  "6312": " fairly",
  "6313": " temperature",
  "6314": "arden",
  "6315": " kit",
  "6316": " existence",
  "6317": " Its",
  "6318": " Asia",
  "6319": " contest",
  "6320": "Add",
  "6321": " plot",
  "6322": "issions",
  "6323": " Cub",
  "6324": " resident",
  "6325": "dis",
  "6326": "usal",
  "6327": " targets",
  "6328": " Bob",
  "6329": " resc",
  "6330": " Korean",
  "6331": "ican",
  "6332": "duc",
  "6333": " lock",
  "6334": " younger",
  "6335": "Man",
  "6336": " colleagues",
  "6337": "',",
  "6338": "PU",
  "6339": " library",
  "6340": "ö",
  "6341": " rally",
  "6342": " parliament",
  "6343": " protests",
  "6344": " anywhere",
  "6345": "oked",
  "6346": " Sports",
  "6347": " Sky",
  "6348": " bike",
  "6349": "zona",
  "6350": " breaking",
  "6351": "ii",
  "6352": " sym",
  "6353": " grab",
  "6354": " stores",
  "6355": " expression",
  "6356": " waste",
  "6357": " chain",
  "6358": " string",
  "6359": " blow",
  "6360": " warning",
  "6361": " importance",
  "6362": " defined",
  "6363": " buying",
  "6364": " manage",
  "6365": " prohib",
  "6366": " classic",
  "6367": " cere",
  "6368": " snow",
  "6369": " adults",
  "6370": " illust",
  "6371": " Each",
  "6372": "See",
  "6373": " marketing",
  "6374": "Ob",
  "6375": " links",
  "6376": "ó",
  "6377": "iques",
  "6378": " shif",
  "6379": "born",
  "6380": "andal",
  "6381": " Club",
  "6382": " tow",
  "6383": " Hist",
  "6384": " fraud",
  "6385": "OC",
  "6386": " facility",
  "6387": "ollywood",
  "6388": "erences",
  "6389": " hardware",
  "6390": " schol",
  "6391": " allegedly",
  "6392": " 37",
  "6393": " regulations",
  "6394": "pret",
  "6395": " doctors",
  "6396": " bon",
  "6397": " Colorado",
  "6398": " currency",
  "6399": " household",
  "6400": " replaced",
  "6401": "agan",
  "6402": " essential",
  "6403": " Ram",
  "6404": " empt",
  "6405": "opy",
  "6406": "onna",
  "6407": " somewhat",
  "6408": " Div",
  "6409": "press",
  "6410": "86",
  "6411": " nav",
  "6412": "power",
  "6413": " favour",
  "6414": " promise",
  "6415": " DC",
  "6416": " Boy",
  "6417": " laugh",
  "6418": "ena",
  "6419": "Pol",
  "6420": " Rights",
  "6421": " holds",
  "6422": " opposite",
  "6423": "ocket",
  "6424": " tom",
  "6425": "с",
  "6426": " moments",
  "6427": "west",
  "6428": " hat",
  "6429": "tering",
  "6430": " opponent",
  "6431": " bug",
  "6432": " Far",
  "6433": "cho",
  "6434": " campus",
  "6435": " acts",
  "6436": " rum",
  "6437": "etroit",
  "6438": " versions",
  "6439": " motion",
  "6440": " metal",
  "6441": "hips",
  "6442": " evolution",
  "6443": "ometimes",
  "6444": " vice",
  "6445": "anish",
  "6446": " relevant",
  "6447": " sees",
  "6448": " Image",
  "6449": " bag",
  "6450": " industrial",
  "6451": " zero",
  "6452": "IR",
  "6453": " sick",
  "6454": " downt",
  "6455": "oma",
  "6456": " closely",
  "6457": " Ann",
  "6458": "hetic",
  "6459": " emotional",
  "6460": "chen",
  "6461": "IF",
  "6462": "game",
  "6463": " YouTube",
  "6464": " Year",
  "6465": " fewer",
  "6466": " division",
  "6467": " adm",
  "6468": "olve",
  "6469": "va",
  "6470": " harder",
  "6471": " customer",
  "6472": " hoping",
  "6473": "ologist",
  "6474": " Brook",
  "6475": "Donald",
  "6476": "En",
  "6477": " Valley",
  "6478": " hur",
  "6479": " mechanism",
  "6480": "ittle",
  "6481": " proceed",
  "6482": " Gra",
  "6483": " Houston",
  "6484": "ml",
  "6485": " Elect",
  "6486": "inem",
  "6487": " returns",
  "6488": "NC",
  "6489": "atell",
  "6490": " volunte",
  "6491": " participants",
  "6492": " extent",
  "6493": " intention",
  "6494": "esc",
  "6495": "alian",
  "6496": "ellect",
  "6497": " excellent",
  "6498": " Soviet",
  "6499": " acknowled",
  "6500": " syn",
  "6501": "ulous",
  "6502": "oming",
  "6503": " Mot",
  "6504": " batt",
  "6505": " Games",
  "6506": " squad",
  "6507": " circumstances",
  "6508": "pan",
  "6509": " fashion",
  "6510": " isol",
  "6511": "ü",
  "6512": "otal",
  "6513": "greg",
  "6514": " immediate",
  "6515": " Eric",
  "6516": " suffering",
  "6517": " Watch",
  "6518": "str",
  "6519": " lies",
  "6520": " tiny",
  "6521": " authors",
  "6522": " 38",
  "6523": " grown",
  "6524": "iger",
  "6525": " Gar",
  "6526": "po",
  "6527": "efully",
  "6528": " immigrants",
  "6529": "Ã",
  "6530": "print",
  "6531": "ora",
  "6532": " kinds",
  "6533": "utch",
  "6534": " 49",
  "6535": " Die",
  "6536": " cheap",
  "6537": " mine",
  "6538": " detailed",
  "6539": "ordan",
  "6540": " Hel",
  "6541": "name",
  "6542": " featured",
  "6543": " Wik",
  "6544": "ayers",
  "6545": " meat",
  "6546": " Sar",
  "6547": " unus",
  "6548": " Aut",
  "6549": " competitive",
  "6550": " describe",
  "6551": " formed",
  "6552": " Home",
  "6553": " IP",
  "6554": "friend",
  "6555": "nic",
  "6556": "certain",
  "6557": " carrying",
  "6558": " tournament",
  "6559": " termin",
  "6560": " trick",
  "6561": " relationships",
  "6562": " fundamental",
  "6563": "kel",
  "6564": " wave",
  "6565": " cycle",
  "6566": "obb",
  "6567": " crazy",
  "6568": " Cy",
  "6569": " signing",
  "6570": " Way",
  "6571": " guide",
  "6572": " wins",
  "6573": " Catholic",
  "6574": " earned",
  "6575": " decline",
  "6576": " regional",
  "6577": "nam",
  "6578": "ensus",
  "6579": "style",
  "6580": " embr",
  "6581": " strange",
  "6582": " Palestinian",
  "6583": " Jesus",
  "6584": " Long",
  "6585": " ancient",
  "6586": " frequently",
  "6587": " acting",
  "6588": " Putin",
  "6589": " manner",
  "6590": " efficient",
  "6591": "rome",
  "6592": " pushing",
  "6593": " CIA",
  "6594": " comfortable",
  "6595": " Card",
  "6596": " pip",
  "6597": "ORE",
  "6598": "Per",
  "6599": " sharing",
  "6600": " wire",
  "6601": " skill",
  "6602": " Econom",
  "6603": "ockey",
  "6604": "chers",
  "6605": " instru",
  "6606": " Ell",
  "6607": " Er",
  "6608": " owned",
  "6609": "bar",
  "6610": " commitment",
  "6611": " alongside",
  "6612": " OF",
  "6613": "uated",
  "6614": "anes",
  "6615": " Lord",
  "6616": " Davis",
  "6617": "rison",
  "6618": " controversial",
  "6619": " artists",
  "6620": " referred",
  "6621": "weight",
  "6622": " egg",
  "6623": " mouth",
  "6624": " repeatedly",
  "6625": "06",
  "6626": " 48",
  "6627": " Top",
  "6628": "b'\\xef\\xbf'",
  "6629": " 34",
  "6630": "FP",
  "6631": "awa",
  "6632": " attempted",
  "6633": "umber",
  "6634": " updated",
  "6635": "foot",
  "6636": " cert",
  "6637": "ua",
  "6638": " pregn",
  "6639": " Old",
  "6640": " schedule",
  "6641": "vin",
  "6642": "xy",
  "6643": " PS",
  "6644": "amily",
  "6645": "adel",
  "6646": " dedicated",
  "6647": "н",
  "6648": " AL",
  "6649": " sentence",
  "6650": " upcoming",
  "6651": " Right",
  "6652": " NY",
  "6653": " Down",
  "6654": " Di",
  "6655": " column",
  "6656": "hus",
  "6657": " depth",
  "6658": "09",
  "6659": " pled",
  "6660": " virtual",
  "6661": "uable",
  "6662": " journey",
  "6663": " struck",
  "6664": "р",
  "6665": " desk",
  "6666": " studio",
  "6667": " realized",
  "6668": " Energy",
  "6669": "Despite",
  "6670": "ceived",
  "6671": "%)",
  "6672": "ographic",
  "6673": "ugh",
  "6674": " medic",
  "6675": "DS",
  "6676": " serving",
  "6677": "iami",
  "6678": " walked",
  "6679": "rive",
  "6680": "iveness",
  "6681": " king",
  "6682": " reput",
  "6683": "you",
  "6684": " urban",
  "6685": "ko",
  "6686": "phy",
  "6687": " Cle",
  "6688": " Charles",
  "6689": " Wild",
  "6690": " targeted",
  "6691": " channel",
  "6692": " assets",
  "6693": "luding",
  "6694": " tort",
  "6695": " inspired",
  "6696": " hotel",
  "6697": " Arizona",
  "6698": "08",
  "6699": " posts",
  "6700": " newslet",
  "6701": "Like",
  "6702": "Two",
  "6703": " Supp",
  "6704": " universe",
  "6705": "07",
  "6706": " agenda",
  "6707": " causing",
  "6708": " watched",
  "6709": " suicide",
  "6710": " stream",
  "6711": " overwhel",
  "6712": " Py",
  "6713": " usual",
  "6714": " surveillance",
  "6715": " Men",
  "6716": " intent",
  "6717": "sole",
  "6718": "People",
  "6719": " liqu",
  "6720": " sister",
  "6721": " opponents",
  "6722": " chairman",
  "6723": " du",
  "6724": " Wars",
  "6725": " Cruz",
  "6726": "bel",
  "6727": " mainstream",
  "6728": " latter",
  "6729": " hall",
  "6730": " surrounding",
  "6731": " folks",
  "6732": " knowing",
  "6733": " orders",
  "6734": " Inf",
  "6735": " 75",
  "6736": "igg",
  "6737": " remote",
  "6738": " sand",
  "6739": " literally",
  "6740": " Java",
  "6741": " observed",
  "6742": " Again",
  "6743": " subsid",
  "6744": "Fr",
  "6745": "gor",
  "6746": " Defense",
  "6747": " infl",
  "6748": " approval",
  "6749": "acc",
  "6750": " Van",
  "6751": "iments",
  "6752": " basket",
  "6753": "rence",
  "6754": "burg",
  "6755": " teachers",
  "6756": "azi",
  "6757": "avor",
  "6758": "izz",
  "6759": " winter",
  "6760": "iciency",
  "6761": "alle",
  "6762": " exciting",
  "6763": "aze",
  "6764": "aylor",
  "6765": " Tal",
  "6766": " format",
  "6767": "boy",
  "6768": " congress",
  "6769": " protected",
  "6770": "ati",
  "6771": " noticed",
  "6772": " simpl",
  "6773": " dealing",
  "6774": " Young",
  "6775": "rations",
  "6776": " Child",
  "6777": " precise",
  "6778": "iro",
  "6779": "67",
  "6780": "xual",
  "6781": " deeply",
  "6782": "ipl",
  "6783": " communication",
  "6784": " gang",
  "6785": " sending",
  "6786": " forth",
  "6787": " Jr",
  "6788": " fasc",
  "6789": " battery",
  "6790": " wal",
  "6791": "mun",
  "6792": " sky",
  "6793": " narr",
  "6794": " fixed",
  "6795": "post",
  "6796": "abis",
  "6797": " aside",
  "6798": " requirements",
  "6799": "Int",
  "6800": " properties",
  "6801": "rors",
  "6802": " alive",
  "6803": " narrow",
  "6804": " wake",
  "6805": "allas",
  "6806": " passion",
  "6807": " Arch",
  "6808": "onymous",
  "6809": " eating",
  "6810": "ensity",
  "6811": "Or",
  "6812": " mistake",
  "6813": "woman",
  "6814": " explore",
  "6815": " coffee",
  "6816": " Pan",
  "6817": " 1970",
  "6818": " rape",
  "6819": " volume",
  "6820": " promised",
  "6821": " diet",
  "6822": "acking",
  "6823": " risks",
  "6824": " exhib",
  "6825": " Polit",
  "6826": " Fort",
  "6827": " sweet",
  "6828": "May",
  "6829": "’.",
  "6830": " Enter",
  "6831": " Wat",
  "6832": " neut",
  "6833": " involving",
  "6834": " wage",
  "6835": " selection",
  "6836": " Max",
  "6837": " tested",
  "6838": "ether",
  "6839": " flu",
  "6840": "ulture",
  "6841": " defeat",
  "6842": " northern",
  "6843": " reward",
  "6844": " welcome",
  "6845": " Cast",
  "6846": " extended",
  "6847": " femin",
  "6848": " puts",
  "6849": " territory",
  "6850": " phenomen",
  "6851": " unemploy",
  "6852": " refugees",
  "6853": " sample",
  "6854": " height",
  "6855": " approximately",
  "6856": " Kevin",
  "6857": " blame",
  "6858": " Brad",
  "6859": " anyway",
  "6860": "59",
  "6861": "ums",
  "6862": " Detroit",
  "6863": " destroyed",
  "6864": "obile",
  "6865": " sho",
  "6866": " impressive",
  "6867": " Stephen",
  "6868": "asks",
  "6869": " god",
  "6870": " proof",
  "6871": " gap",
  "6872": " dry",
  "6873": "�",
  "6874": " crash",
  "6875": " unknown",
  "6876": " locations",
  "6877": " selected",
  "6878": "apse",
  "6879": " west",
  "6880": "anges",
  "6881": "gery",
  "6882": "stone",
  "6883": " Fil",
  "6884": " attacked",
  "6885": "aire",
  "6886": " maximum",
  "6887": " Miller",
  "6888": " Wilson",
  "6889": " Tit",
  "6890": " promote",
  "6891": " shel",
  "6892": "aser",
  "6893": " merely",
  "6894": " franchise",
  "6895": "arry",
  "6896": "04",
  "6897": "lv",
  "6898": " requests",
  "6899": " retire",
  "6900": " suddenly",
  "6901": " slowly",
  "6902": " protesters",
  "6903": " disag",
  "6904": " teacher",
  "6905": "ixt",
  "6906": " typical",
  "6907": "ogan",
  "6908": " Women",
  "6909": " Ins",
  "6910": "dro",
  "6911": "ingu",
  "6912": " conver",
  "6913": "list",
  "6914": "ao",
  "6915": " chose",
  "6916": " Camer",
  "6917": " Class",
  "6918": " Lu",
  "6919": " matches",
  "6920": " prote",
  "6921": " license",
  "6922": " properly",
  "6923": " assume",
  "6924": "oration",
  "6925": " discover",
  "6926": "isp",
  "6927": " wid",
  "6928": " PR",
  "6929": " Mic",
  "6930": "Rel",
  "6931": " worried",
  "6932": " moder",
  "6933": "fire",
  "6934": " abortion",
  "6935": "owered",
  "6936": " allies",
  "6937": " oblig",
  "6938": " terrorism",
  "6939": " supports",
  "6940": "b' \\xce'",
  "6941": "uilding",
  "6942": "ÃÂ",
  "6943": "ÃÂÃÂ",
  "6944": "inson",
  "6945": "verty",
  "6946": " arguments",
  "6947": " adapt",
  "6948": " theme",
  "6949": " confront",
  "6950": " facilities",
  "6951": " sustain",
  "6952": "gender",
  "6953": " east",
  "6954": " pal",
  "6955": " recognize",
  "6956": "igure",
  "6957": " fuck",
  "6958": "lies",
  "6959": " equival",
  "6960": " obtained",
  "6961": " poverty",
  "6962": " rub",
  "6963": " Italy",
  "6964": " nomine",
  "6965": "03",
  "6966": " deals",
  "6967": " fees",
  "6968": "alo",
  "6969": "itarian",
  "6970": "osis",
  "6971": "ÃÂÃÂÃÂÃÂ",
  "6972": " Hollywood",
  "6973": " understood",
  "6974": " controlled",
  "6975": "VER",
  "6976": " Best",
  "6977": " topic",
  "6978": " Dam",
  "6979": " critics",
  "6980": " Society",
  "6981": " Agency",
  "6982": "axy",
  "6983": " Ford",
  "6984": " sole",
  "6985": " Jersey",
  "6986": "arity",
  "6987": " village",
  "6988": " diagn",
  "6989": " Administ",
  "6990": "raid",
  "6991": " likes",
  "6992": "celer",
  "6993": "han",
  "6994": " Four",
  "6995": "sters",
  "6996": "68",
  "6997": " evil",
  "6998": "Te",
  "6999": " punish",
  "7000": " dress",
  "7001": "cript",
  "7002": " ped",
  "7003": " Georgia",
  "7004": " bunch",
  "7005": " Company",
  "7006": "--------------------------------",
  "7007": " journalists",
  "7008": "John",
  "7009": " exposed",
  "7010": " regions",
  "7011": "redit",
  "7012": "ocation",
  "7013": " communications",
  "7014": " scheme",
  "7015": " transp",
  "7016": " stim",
  "7017": " limits",
  "7018": " somehow",
  "7019": " strongly",
  "7020": " honor",
  "7021": " drag",
  "7022": "aug",
  "7023": " resistance",
  "7024": "lls",
  "7025": " champion",
  "7026": " Labor",
  "7027": " constant",
  "7028": " phase",
  "7029": " NASA",
  "7030": "asts",
  "7031": " Carl",
  "7032": "pool",
  "7033": " profit",
  "7034": " truck",
  "7035": " condem",
  "7036": " escape",
  "7037": " personally",
  "7038": " Night",
  "7039": " Dun",
  "7040": "rimination",
  "7041": " Land",
  "7042": " bid",
  "7043": " NHL",
  "7044": " Stand",
  "7045": " vacc",
  "7046": " deck",
  "7047": "nesota",
  "7048": "iform",
  "7049": " falling",
  "7050": "mo",
  "7051": "GBT",
  "7052": " Network",
  "7053": " somewhere",
  "7054": "ems",
  "7055": "cers",
  "7056": " employee",
  "7057": " harass",
  "7058": "ads",
  "7059": "CA",
  "7060": " bear",
  "7061": "iner",
  "7062": " CD",
  "7063": " comparison",
  "7064": "orted",
  "7065": "ciples",
  "7066": " polls",
  "7067": "owa",
  "7068": " inqu",
  "7069": " Love",
  "7070": "pected",
  "7071": " southern",
  "7072": "oric",
  "7073": " decent",
  "7074": "cow",
  "7075": " Spanish",
  "7076": " encourage",
  "7077": " emissions",
  "7078": " Kn",
  "7079": " 39",
  "7080": " View",
  "7081": "enders",
  "7082": " empty",
  "7083": " Miami",
  "7084": " hits",
  "7085": "oster",
  "7086": " Cam",
  "7087": " definition",
  "7088": " pic",
  "7089": "wan",
  "7090": " directed",
  "7091": "pes",
  "7092": " flex",
  "7093": "zens",
  "7094": " Ok",
  "7095": " meetings",
  "7096": "57",
  "7097": " End",
  "7098": " Bell",
  "7099": "b'\\xd0\\xbe\\xd0'",
  "7100": " comprom",
  "7101": " winner",
  "7102": "intend",
  "7103": "aun",
  "7104": "icken",
  "7105": " gotten",
  "7106": " Daniel",
  "7107": " Turk",
  "7108": " electricity",
  "7109": " chosen",
  "7110": " officially",
  "7111": " bench",
  "7112": " stretch",
  "7113": " database",
  "7114": " Despite",
  "7115": " intellect",
  "7116": "igation",
  "7117": " stronger",
  "7118": " spin",
  "7119": " deleg",
  "7120": " purposes",
  "7121": " DNA",
  "7122": "Com",
  "7123": " cutting",
  "7124": " Turn",
  "7125": " fold",
  "7126": "rary",
  "7127": " extensive",
  "7128": " amounts",
  "7129": " desper",
  "7130": " trees",
  "7131": " anx",
  "7132": " ideal",
  "7133": " Asian",
  "7134": " thread",
  "7135": " fifth",
  "7136": " ring",
  "7137": "b'\\x88\\x92'",
  "7138": "UR",
  "7139": " goods",
  "7140": " colon",
  "7141": " developer",
  "7142": " claiming",
  "7143": "unning",
  "7144": "Any",
  "7145": " retain",
  "7146": " soul",
  "7147": " captured",
  "7148": " Though",
  "7149": " finds",
  "7150": " driven",
  "7151": " payments",
  "7152": "asters",
  "7153": " Jordan",
  "7154": "ras",
  "7155": "CS",
  "7156": " ties",
  "7157": " reasonable",
  "7158": "olt",
  "7159": " dogs",
  "7160": "b'\\xe2\\x96'",
  "7161": " somebody",
  "7162": " ending",
  "7163": "02",
  "7164": " Nations",
  "7165": " choices",
  "7166": " ble",
  "7167": " seats",
  "7168": " Services",
  "7169": " Thank",
  "7170": " pod",
  "7171": " engage",
  "7172": " drawn",
  "7173": " sight",
  "7174": " param",
  "7175": " Dar",
  "7176": "CE",
  "7177": " threatened",
  "7178": " ruled",
  "7179": "ura",
  "7180": "eping",
  "7181": " Attorney",
  "7182": " Irish",
  "7183": " Sea",
  "7184": " trading",
  "7185": "owed",
  "7186": " primarily",
  "7187": " aspects",
  "7188": " fighters",
  "7189": "ML",
  "7190": " answers",
  "7191": " perfectly",
  "7192": "irms",
  "7193": " Academ",
  "7194": " incl",
  "7195": " rival",
  "7196": " parking",
  "7197": " rejected",
  "7198": " Gall",
  "7199": " constantly",
  "7200": "fast",
  "7201": " Hun",
  "7202": " payment",
  "7203": " Cat",
  "7204": " distinct",
  "7205": "ez",
  "7206": " flying",
  "7207": " Ut",
  "7208": " rig",
  "7209": " technologies",
  "7210": " Real",
  "7211": "</",
  "7212": " components",
  "7213": "Police",
  "7214": " admit",
  "7215": "sm",
  "7216": " Scotland",
  "7217": " elsewhere",
  "7218": " Dark",
  "7219": " constit",
  "7220": " tur",
  "7221": " anymore",
  "7222": "lder",
  "7223": " icon",
  "7224": " fields",
  "7225": " estimates",
  "7226": "EW",
  "7227": "sea",
  "7228": " solutions",
  "7229": " resulting",
  "7230": "78",
  "7231": " Bru",
  "7232": " awesome",
  "7233": " encoun",
  "7234": " province",
  "7235": " worldwide",
  "7236": " actor",
  "7237": " regularly",
  "7238": " Moore",
  "7239": " courts",
  "7240": " narrative",
  "7241": "Once",
  "7242": " boot",
  "7243": " enemies",
  "7244": " mixed",
  "7245": "regon",
  "7246": " OS",
  "7247": "mod",
  "7248": " Disney",
  "7249": "icer",
  "7250": " houses",
  "7251": " nobody",
  "7252": " Sk",
  "7253": "inations",
  "7254": " controls",
  "7255": " Water",
  "7256": " letters",
  "7257": "apes",
  "7258": "agram",
  "7259": "iana",
  "7260": "imp",
  "7261": " 42",
  "7262": " murd",
  "7263": " mayor",
  "7264": " loan",
  "7265": " outcome",
  "7266": " MS",
  "7267": " contem",
  "7268": "sell",
  "7269": "Sec",
  "7270": "vy",
  "7271": "ship",
  "7272": " Light",
  "7273": "onic",
  "7274": " apartment",
  "7275": "isan",
  "7276": " Steven",
  "7277": " coalition",
  "7278": " contributed",
  "7279": " Bas",
  "7280": " tank",
  "7281": " concluded",
  "7282": " Adam",
  "7283": " exists",
  "7284": " Tw",
  "7285": " founder",
  "7286": " Brian",
  "7287": "earing",
  "7288": " Lew",
  "7289": " atmosphere",
  "7290": " profile",
  "7291": " brew",
  "7292": " situations",
  "7293": " Championship",
  "7294": " Author",
  "7295": "rates",
  "7296": " incredible",
  "7297": " Constitution",
  "7298": " signal",
  "7299": "otes",
  "7300": " Rog",
  "7301": " accurate",
  "7302": "300",
  "7303": " Victor",
  "7304": "otten",
  "7305": " unp",
  "7306": " Where",
  "7307": "ker",
  "7308": " Southern",
  "7309": ".\"[",
  "7310": " employment",
  "7311": " clients",
  "7312": "Dr",
  "7313": " keeps",
  "7314": " informed",
  "7315": " continuing",
  "7316": " baseball",
  "7317": " generate",
  "7318": " ticket",
  "7319": " conven",
  "7320": "Also",
  "7321": " Conf",
  "7322": " weird",
  "7323": " tied",
  "7324": "lock",
  "7325": "adelph",
  "7326": " category",
  "7327": " infect",
  "7328": "ilarly",
  "7329": "acked",
  "7330": " angry",
  "7331": " Organ",
  "7332": " routine",
  "7333": "aron",
  "7334": " kil",
  "7335": " raising",
  "7336": "ifer",
  "7337": " machines",
  "7338": " registered",
  "7339": " proved",
  "7340": "there",
  "7341": " demands",
  "7342": " gaming",
  "7343": " Italian",
  "7344": " incredibly",
  "7345": " crucial",
  "7346": " stuck",
  "7347": " Civil",
  "7348": " Dallas",
  "7349": "cr",
  "7350": " terrible",
  "7351": "MP",
  "7352": " feedback",
  "7353": " upper",
  "7354": " plastic",
  "7355": " imper",
  "7356": " newly",
  "7357": " Joseph",
  "7358": " consumption",
  "7359": " dozen",
  "7360": " enthus",
  "7361": " estate",
  "7362": "ali",
  "7363": "rage",
  "7364": "56",
  "7365": " innoc",
  "7366": " manip",
  "7367": " Tem",
  "7368": " conscious",
  "7369": " bills",
  "7370": " Cross",
  "7371": " Spain",
  "7372": "ifications",
  "7373": "Today",
  "7374": " writers",
  "7375": " excess",
  "7376": "inding",
  "7377": " aggressive",
  "7378": " reporter",
  "7379": " compens",
  "7380": " returning",
  "7381": " stead",
  "7382": " programming",
  "7383": " Thanks",
  "7384": " represented",
  "7385": " conclusion",
  "7386": "98",
  "7387": " rus",
  "7388": " Bowl",
  "7389": " AR",
  "7390": "MS",
  "7391": " origin",
  "7392": " assistant",
  "7393": "adelphia",
  "7394": " roster",
  "7395": " Minnesota",
  "7396": " organized",
  "7397": "ria",
  "7398": " penalty",
  "7399": " drinking",
  "7400": "lers",
  "7401": " paint",
  "7402": " satell",
  "7403": " gro",
  "7404": " Program",
  "7405": " capture",
  "7406": " conspir",
  "7407": " interpret",
  "7408": " explanation",
  "7409": "iscal",
  "7410": " county",
  "7411": "iscons",
  "7412": "essed",
  "7413": "mont",
  "7414": "ima",
  "7415": " %",
  "7416": "anny",
  "7417": "gorith",
  "7418": "emen",
  "7419": "isconsin",
  "7420": " assistance",
  "7421": " Roman",
  "7422": "58",
  "7423": " complaint",
  "7424": " ru",
  "7425": " nut",
  "7426": " magic",
  "7427": " tall",
  "7428": " Oper",
  "7429": "Ed",
  "7430": " granted",
  "7431": "Because",
  "7432": " Contin",
  "7433": "star",
  "7434": "LA",
  "7435": "Off",
  "7436": " Parliament",
  "7437": " complicated",
  "7438": " audio",
  "7439": " chances",
  "7440": " extract",
  "7441": "rypt",
  "7442": " Gi",
  "7443": " 1999",
  "7444": " hel",
  "7445": " Educ",
  "7446": "era",
  "7447": " shares",
  "7448": " successfully",
  "7449": "esy",
  "7450": " IT",
  "7451": " pilot",
  "7452": "zy",
  "7453": " Ep",
  "7454": " Hot",
  "7455": " myth",
  "7456": " recovery",
  "7457": " Test",
  "7458": " techniques",
  "7459": " iron",
  "7460": " Care",
  "7461": " Zeal",
  "7462": " SC",
  "7463": " scenes",
  "7464": " Win",
  "7465": " veteran",
  "7466": " Fre",
  "7467": " ($",
  "7468": " degrees",
  "7469": "actions",
  "7470": "ked",
  "7471": " sympt",
  "7472": "thew",
  "7473": " lawmakers",
  "7474": " western",
  "7475": " operate",
  "7476": " ads",
  "7477": "rating",
  "7478": " habit",
  "7479": " aimed",
  "7480": "Inst",
  "7481": "anchester",
  "7482": " phr",
  "7483": "rep",
  "7484": "rete",
  "7485": " taste",
  "7486": "idency",
  "7487": " engaged",
  "7488": " privile",
  "7489": " 55",
  "7490": " rating",
  "7491": " teaching",
  "7492": " academic",
  "7493": " Os",
  "7494": "itar",
  "7495": " therap",
  "7496": " passes",
  "7497": " dollar",
  "7498": "hent",
  "7499": " automatically",
  "7500": " Pacific",
  "7501": " monit",
  "7502": " blocks",
  "7503": "abama",
  "7504": " attended",
  "7505": " permanent",
  "7506": "uan",
  "7507": " survive",
  "7508": " anticip",
  "7509": " extrem",
  "7510": " enable",
  "7511": " Look",
  "7512": " Foreign",
  "7513": "chain",
  "7514": "%.",
  "7515": " marked",
  "7516": "itals",
  "7517": " hidden",
  "7518": " accomp",
  "7519": " titles",
  "7520": " Senator",
  "7521": " NBC",
  "7522": "aed",
  "7523": " taught",
  "7524": " Linux",
  "7525": " bom",
  "7526": " index",
  "7527": "everal",
  "7528": " elite",
  "7529": "ibilities",
  "7530": " lawyers",
  "7531": "from",
  "7532": " depending",
  "7533": " valuable",
  "7534": " installed",
  "7535": " championship",
  "7536": " root",
  "7537": " compre",
  "7538": " Bull",
  "7539": " downtown",
  "7540": "mal",
  "7541": " equivalent",
  "7542": " solve",
  "7543": "rific",
  "7544": " duty",
  "7545": " Special",
  "7546": " Business",
  "7547": " 64",
  "7548": " pace",
  "7549": "HS",
  "7550": " reputation",
  "7551": " uncertain",
  "7552": " phones",
  "7553": "uine",
  "7554": " overse",
  "7555": "bal",
  "7556": " Taylor",
  "7557": " personnel",
  "7558": " pin",
  "7559": "reams",
  "7560": "aturally",
  "7561": " sufficient",
  "7562": " visited",
  "7563": " warming",
  "7564": " Sn",
  "7565": " principles",
  "7566": " vulnerable",
  "7567": " enjoyed",
  "7568": " fake",
  "7569": " Nick",
  "7570": " advis",
  "7571": " negotiations",
  "7572": "inder",
  "7573": " generated",
  "7574": " exposure",
  "7575": " recording",
  "7576": " collected",
  "7577": " regardless",
  "7578": "inity",
  "7579": " dict",
  "7580": "EA",
  "7581": " bitcoin",
  "7582": " elev",
  "7583": "b'\\xe3\\x80'",
  "7584": "active",
  "7585": " Kelly",
  "7586": " Anth",
  "7587": " cup",
  "7588": "anan",
  "7589": " patterns",
  "7590": "Getty",
  "7591": " Take",
  "7592": "))",
  "7593": " Avenue",
  "7594": " Josh",
  "7595": " disaster",
  "7596": " cable",
  "7597": "bro",
  "7598": " 65",
  "7599": " chat",
  "7600": " worker",
  "7601": " mainly",
  "7602": " racial",
  "7603": "quarters",
  "7604": " Coast",
  "7605": " Viet",
  "7606": "month",
  "7607": " pounds",
  "7608": " 150",
  "7609": " Call",
  "7610": " portion",
  "7611": " afraid",
  "7612": " inspir",
  "7613": " Ah",
  "7614": " bes",
  "7615": " defence",
  "7616": " Eastern",
  "7617": "mann",
  "7618": " Tony",
  "7619": " tracks",
  "7620": " busy",
  "7621": " grant",
  "7622": " shit",
  "7623": " intense",
  "7624": " Series",
  "7625": " LGBT",
  "7626": "orne",
  "7627": " Still",
  "7628": "athy",
  "7629": " funny",
  "7630": " apolog",
  "7631": " surgery",
  "7632": " Moscow",
  "7633": " Coll",
  "7634": " possession",
  "7635": " prominent",
  "7636": " Mars",
  "7637": " comic",
  "7638": " Ger",
  "7639": "ashes",
  "7640": "97",
  "7641": "ules",
  "7642": " Ray",
  "7643": " thin",
  "7644": " engineering",
  "7645": " troub",
  "7646": " Kurd",
  "7647": " processes",
  "7648": " Nation",
  "7649": "fall",
  "7650": " Kent",
  "7651": " Come",
  "7652": " entit",
  "7653": " ’",
  "7654": " unusual",
  "7655": "raph",
  "7656": "etary",
  "7657": " describes",
  "7658": "world",
  "7659": "96",
  "7660": " resulted",
  "7661": " emerged",
  "7662": " taxp",
  "7663": " gall",
  "7664": "iler",
  "7665": " dim",
  "7666": " propag",
  "7667": " Iowa",
  "7668": " Oregon",
  "7669": "this",
  "7670": " coordin",
  "7671": " corruption",
  "7672": " stations",
  "7673": " Invest",
  "7674": " fought",
  "7675": " AD",
  "7676": " brut",
  "7677": " extension",
  "7678": "ref",
  "7679": " blind",
  "7680": " adopted",
  "7681": "prise",
  "7682": " compete",
  "7683": " recru",
  "7684": " Zealand",
  "7685": " hadn",
  "7686": "Pr",
  "7687": " 400",
  "7688": " mail",
  "7689": "ye",
  "7690": " everywhere",
  "7691": " Balt",
  "7692": " crypt",
  "7693": "Rec",
  "7694": "Col",
  "7695": "Mean",
  "7696": "herent",
  "7697": "icate",
  "7698": " Ali",
  "7699": " contracts",
  "7700": "front",
  "7701": " Lo",
  "7702": " neuro",
  "7703": " Dead",
  "7704": " Rick",
  "7705": " feelings",
  "7706": " firms",
  "7707": "idelines",
  "7708": "’,",
  "7709": " minority",
  "7710": " spr",
  "7711": "cles",
  "7712": "HA",
  "7713": " advertising",
  "7714": " rarely",
  "7715": "da",
  "7716": " discipl",
  "7717": "making",
  "7718": " Northern",
  "7719": " sanctions",
  "7720": " Veg",
  "7721": "scape",
  "7722": " Philadelphia",
  "7723": "upid",
  "7724": " cameras",
  "7725": " explicit",
  "7726": " strict",
  "7727": "viously",
  "7728": "log",
  "7729": " enorm",
  "7730": " finance",
  "7731": " cited",
  "7732": "ifies",
  "7733": " Before",
  "7734": " shortly",
  "7735": "tes",
  "7736": "gun",
  "7737": "UL",
  "7738": " Policy",
  "7739": " expectations",
  "7740": " implementation",
  "7741": "ogen",
  "7742": " recip",
  "7743": " Greek",
  "7744": " thick",
  "7745": " thousand",
  "7746": "antic",
  "7747": " Mu",
  "7748": " loud",
  "7749": "istent",
  "7750": " affili",
  "7751": "urrent",
  "7752": "orough",
  "7753": " Navy",
  "7754": " inev",
  "7755": "cling",
  "7756": "rell",
  "7757": "cus",
  "7758": " photograph",
  "7759": " medium",
  "7760": "azz",
  "7761": " Hom",
  "7762": " Wisconsin",
  "7763": " scenario",
  "7764": " Food",
  "7765": " Live",
  "7766": " sup",
  "7767": "ilton",
  "7768": " plug",
  "7769": " veget",
  "7770": " ho",
  "7771": " visible",
  "7772": "LC",
  "7773": " lights",
  "7774": "een",
  "7775": " creates",
  "7776": " priority",
  "7777": " ven",
  "7778": " bridge",
  "7779": "eland",
  "7780": "inking",
  "7781": " obst",
  "7782": " agric",
  "7783": "ATE",
  "7784": " permission",
  "7785": " Foot",
  "7786": " algorith",
  "7787": "izon",
  "7788": "Co",
  "7789": "elect",
  "7790": " participate",
  "7791": "aska",
  "7792": "who",
  "7793": "asion",
  "7794": " browser",
  "7795": " Global",
  "7796": " tag",
  "7797": " Ol",
  "7798": " Has",
  "7799": " mel",
  "7800": " acceler",
  "7801": " dozens",
  "7802": " Kingdom",
  "7803": " historic",
  "7804": " computers",
  "7805": " laid",
  "7806": " basketball",
  "7807": " losses",
  "7808": "text",
  "7809": " Saf",
  "7810": " Ash",
  "7811": "ogether",
  "7812": " unw",
  "7813": "::",
  "7814": " tor",
  "7815": "aus",
  "7816": " Amendment",
  "7817": "Mar",
  "7818": " strikes",
  "7819": " principle",
  "7820": " Development",
  "7821": " formal",
  "7822": "EP",
  "7823": "igen",
  "7824": " scoring",
  "7825": "obs",
  "7826": "athered",
  "7827": "76",
  "7828": " 44",
  "7829": " counsel",
  "7830": "found",
  "7831": " wing",
  "7832": "++",
  "7833": " shock",
  "7834": " wonderful",
  "7835": " SP",
  "7836": " behalf",
  "7837": "abs",
  "7838": " uncom",
  "7839": "profit",
  "7840": "enth",
  "7841": " interface",
  "7842": " establishment",
  "7843": " toler",
  "7844": " Henry",
  "7845": " Greg",
  "7846": "amber",
  "7847": "car",
  "7848": " Major",
  "7849": " Thus",
  "7850": "Us",
  "7851": "jo",
  "7852": " gained",
  "7853": " fee",
  "7854": "lete",
  "7855": " founded",
  "7856": "etime",
  "7857": " foundation",
  "7858": "she",
  "7859": " ESP",
  "7860": "ilipp",
  "7861": " clubs",
  "7862": " cannabis",
  "7863": " ju",
  "7864": "54",
  "7865": "52",
  "7866": " airport",
  "7867": " Key",
  "7868": "ystem",
  "7869": " borrow",
  "7870": "olis",
  "7871": "weet",
  "7872": "Ne",
  "7873": "BO",
  "7874": " manufacturing",
  "7875": " rely",
  "7876": " Hit",
  "7877": " Pay",
  "7878": "uer",
  "7879": " Alabama",
  "7880": " genuine",
  "7881": " Royal",
  "7882": "rators",
  "7883": "Before",
  "7884": " component",
  "7885": " ridic",
  "7886": "osexual",
  "7887": " wheel",
  "7888": "rative",
  "7889": " Oak",
  "7890": " journalist",
  "7891": " relief",
  "7892": " saved",
  "7893": "51",
  "7894": " hole",
  "7895": " yield",
  "7896": " headed",
  "7897": " cyber",
  "7898": " Moh",
  "7899": "ependent",
  "7900": " gift",
  "7901": "bell",
  "7902": " fault",
  "7903": " withdraw",
  "7904": " indicate",
  "7905": " drawing",
  "7906": " uniform",
  "7907": "umer",
  "7908": " magn",
  "7909": " Rand",
  "7910": "arlier",
  "7911": " stable",
  "7912": " ships",
  "7913": " ->",
  "7914": " banned",
  "7915": " Vis",
  "7916": " Mid",
  "7917": " footage",
  "7918": "Meanwhile",
  "7919": "rous",
  "7920": " doors",
  "7921": " recognized",
  "7922": "lan",
  "7923": " 1960",
  "7924": " containing",
  "7925": "pread",
  "7926": " FC",
  "7927": " river",
  "7928": "mes",
  "7929": "ami",
  "7930": " struggling",
  "7931": "Sub",
  "7932": " spark",
  "7933": " Academy",
  "7934": " walls",
  "7935": " achieved",
  "7936": "opher",
  "7937": "ounced",
  "7938": " neighb",
  "7939": " plate",
  "7940": " edition",
  "7941": " HT",
  "7942": "portion",
  "7943": "mate",
  "7944": " movements",
  "7945": " deliber",
  "7946": "uce",
  "7947": "teen",
  "7948": "Post",
  "7949": " sharp",
  "7950": " AS",
  "7951": " Snow",
  "7952": "ulating",
  "7953": "……",
  "7954": " Three",
  "7955": " episodes",
  "7956": " neutral",
  "7957": " Premier",
  "7958": " Ret",
  "7959": " Fund",
  "7960": " exception",
  "7961": "etts",
  "7962": " producer",
  "7963": " Fred",
  "7964": " destruction",
  "7965": " 1998",
  "7966": "oured",
  "7967": " beliefs",
  "7968": " 47",
  "7969": " Review",
  "7970": " legend",
  "7971": " pump",
  "7972": " McG",
  "7973": " backed",
  "7974": " liked",
  "7975": " hired",
  "7976": "idespread",
  "7977": "cription",
  "7978": "umin",
  "7979": "iel",
  "7980": " roles",
  "7981": " languages",
  "7982": " profession",
  "7983": " entering",
  "7984": "osa",
  "7985": " VR",
  "7986": " interviews",
  "7987": " hang",
  "7988": " tox",
  "7989": " philosophy",
  "7990": "eman",
  "7991": " Administration",
  "7992": " arrange",
  "7993": " Kir",
  "7994": "oen",
  "7995": "interest",
  "7996": " flaw",
  "7997": "Those",
  "7998": " Nob",
  "7999": "sylv",
  "8000": "imore",
  "8001": " stadium",
  "8002": " Atlanta",
  "8003": " Jac",
  "8004": " reduction",
  "8005": " dinner",
  "8006": " bath",
  "8007": " Report",
  "8008": "uper",
  "8009": " Turkish",
  "8010": "400",
  "8011": " aver",
  "8012": " finger",
  "8013": " Note",
  "8014": " Conference",
  "8015": " tackle",
  "8016": " cha",
  "8017": "burgh",
  "8018": " gonna",
  "8019": " Diego",
  "8020": " Point",
  "8021": " crop",
  "8022": " Centre",
  "8023": " farmers",
  "8024": " Manchester",
  "8025": " nominee",
  "8026": " 41",
  "8027": "aching",
  "8028": " Jason",
  "8029": " barely",
  "8030": "ATO",
  "8031": " structures",
  "8032": " contained",
  "8033": " synt",
  "8034": " Ott",
  "8035": " delivery",
  "8036": " convin",
  "8037": " Arm",
  "8038": "ta",
  "8039": "%,",
  "8040": " processing",
  "8041": " discrimination",
  "8042": " incent",
  "8043": "riers",
  "8044": "53",
  "8045": " Fair",
  "8046": "erved",
  "8047": "RS",
  "8048": " Data",
  "8049": "then",
  "8050": "ca",
  "8051": "abinet",
  "8052": "ja",
  "8053": " intellectual",
  "8054": "iy",
  "8055": "ba",
  "8056": " Radio",
  "8057": "amsung",
  "8058": " 46",
  "8059": " Bry",
  "8060": " OK",
  "8061": " Field",
  "8062": " Did",
  "8063": " upset",
  "8064": " Perhaps",
  "8065": "Me",
  "8066": " Education",
  "8067": "sylvania",
  "8068": "away",
  "8069": " Mir",
  "8070": "President",
  "8071": " challenging",
  "8072": " proven",
  "8073": " restrictions",
  "8074": "rik",
  "8075": " forever",
  "8076": "https",
  "8077": "olen",
  "8078": " electronic",
  "8079": "ceeded",
  "8080": " hitting",
  "8081": " Hay",
  "8082": " euro",
  "8083": "ho",
  "8084": " unex",
  "8085": " reviews",
  "8086": " Christians",
  "8087": " 43",
  "8088": " NC",
  "8089": " convicted",
  "8090": "Star",
  "8091": " illness",
  "8092": " smooth",
  "8093": "page",
  "8094": "Dav",
  "8095": " Hor",
  "8096": " retired",
  "8097": " indicated",
  "8098": "usive",
  "8099": " producing",
  "8100": " Fed",
  "8101": " About",
  "8102": " Harry",
  "8103": " rapidly",
  "8104": " rose",
  "8105": " hide",
  "8106": " corporations",
  "8107": "fr",
  "8108": " ocean",
  "8109": " Rus",
  "8110": "aying",
  "8111": "owing",
  "8112": " listening",
  "8113": " Reuters",
  "8114": " UFC",
  "8115": " Sat",
  "8116": " technique",
  "8117": " mo",
  "8118": "yard",
  "8119": "sels",
  "8120": " loyal",
  "8121": " Nic",
  "8122": " Mean",
  "8123": "lessly",
  "8124": " robot",
  "8125": " climb",
  "8126": " notion",
  "8127": " begun",
  "8128": " util",
  "8129": " ren",
  "8130": " recognition",
  "8131": "ouver",
  "8132": "engers",
  "8133": " perpet",
  "8134": " association",
  "8135": " milk",
  "8136": " asks",
  "8137": "87",
  "8138": " websites",
  "8139": " succeed",
  "8140": " description",
  "8141": " Pack",
  "8142": " tickets",
  "8143": " Pen",
  "8144": "achus",
  "8145": " flash",
  "8146": " suggesting",
  "8147": "enny",
  "8148": " Judge",
  "8149": " exclusive",
  "8150": " reaching",
  "8151": " bra",
  "8152": "iti",
  "8153": " prepare",
  "8154": " Kansas",
  "8155": "Who",
  "8156": "inf",
  "8157": "ione",
  "8158": " bail",
  "8159": " frag",
  "8160": " progressive",
  "8161": " burd",
  "8162": "imm",
  "8163": " equally",
  "8164": " Hard",
  "8165": "emem",
  "8166": " hardly",
  "8167": " widespread",
  "8168": " ABC",
  "8169": " campaigns",
  "8170": " Mayor",
  "8171": " contribute",
  "8172": "udes",
  "8173": "ologists",
  "8174": " branch",
  "8175": "Look",
  "8176": " Rose",
  "8177": " grass",
  "8178": " initiative",
  "8179": " Market",
  "8180": " ethnic",
  "8181": " external",
  "8182": "ikes",
  "8183": " Circ",
  "8184": "uma",
  "8185": "rient",
  "8186": " sensitive",
  "8187": " practical",
  "8188": "usted",
  "8189": "elf",
  "8190": " unclear",
  "8191": " normally",
  "8192": "Ref",
  "8193": " representative",
  "8194": "pat",
  "8195": "ls",
  "8196": "thon",
  "8197": " welf",
  "8198": " Full",
  "8199": " reducing",
  "8200": "appy",
  "8201": " friendly",
  "8202": "bec",
  "8203": " carefully",
  "8204": " Arabia",
  "8205": "lad",
  "8206": " Ref",
  "8207": " Ly",
  "8208": "89",
  "8209": "PM",
  "8210": " Luc",
  "8211": " racist",
  "8212": " invent",
  "8213": "rical",
  "8214": "ouch",
  "8215": "PG",
  "8216": " CO",
  "8217": " Next",
  "8218": " respectively",
  "8219": "senal",
  "8220": "rator",
  "8221": " tail",
  "8222": " McCain",
  "8223": " Bernie",
  "8224": "ancouver",
  "8225": " overwhelming",
  "8226": " viewers",
  "8227": " Beach",
  "8228": "stract",
  "8229": " welfare",
  "8230": "arrass",
  "8231": " Further",
  "8232": " convinced",
  "8233": "UN",
  "8234": " smoke",
  "8235": "umes",
  "8236": " collapse",
  "8237": " involvement",
  "8238": " Lind",
  "8239": " thrown",
  "8240": "pload",
  "8241": " connections",
  "8242": "heast",
  "8243": " terrorists",
  "8244": " Battle",
  "8245": " strategic",
  "8246": " hook",
  "8247": " 00",
  "8248": " Latin",
  "8249": " recover",
  "8250": "omething",
  "8251": "igrant",
  "8252": " Ont",
  "8253": " wine",
  "8254": "Mc",
  "8255": "inois",
  "8256": " Music",
  "8257": "rolled",
  "8258": " minds",
  "8259": " vital",
  "8260": " settlement",
  "8261": " statistics",
  "8262": " lists",
  "8263": " vary",
  "8264": " featuring",
  "8265": " ESPN",
  "8266": "ecut",
  "8267": "achusetts",
  "8268": " Sir",
  "8269": " behaviour",
  "8270": " independence",
  "8271": " Dig",
  "8272": "worth",
  "8273": " fantasy",
  "8274": " devast",
  "8275": "ester",
  "8276": "nedy",
  "8277": "core",
  "8278": "uties",
  "8279": " invited",
  "8280": " complaints",
  "8281": " joining",
  "8282": " scores",
  "8283": "dem",
  "8284": " fiscal",
  "8285": " deeper",
  "8286": "abil",
  "8287": " Pennsylvania",
  "8288": "ifest",
  "8289": " steal",
  "8290": " anger",
  "8291": " deputy",
  "8292": " elig",
  "8293": " wars",
  "8294": " Square",
  "8295": " Tenn",
  "8296": " investigate",
  "8297": " Town",
  "8298": " sugar",
  "8299": " constitutional",
  "8300": " III",
  "8301": " scholars",
  "8302": " Pit",
  "8303": " iOS",
  "8304": " anybody",
  "8305": " subjects",
  "8306": " AND",
  "8307": " array",
  "8308": " alien",
  "8309": "FA",
  "8310": " Ult",
  "8311": "bn",
  "8312": " Gov",
  "8313": " lobby",
  "8314": " ownership",
  "8315": " framework",
  "8316": " unemployment",
  "8317": " Division",
  "8318": " transgender",
  "8319": " improvements",
  "8320": " SS",
  "8321": " menu",
  "8322": " peak",
  "8323": "Back",
  "8324": " screens",
  "8325": "ihad",
  "8326": " inject",
  "8327": " luck",
  "8328": "iversary",
  "8329": " define",
  "8330": " tasks",
  "8331": " Xbox",
  "8332": " democratic",
  "8333": " scandal",
  "8334": "icking",
  "8335": " jury",
  "8336": "acon",
  "8337": " Anton",
  "8338": " Ministry",
  "8339": "Che",
  "8340": " cos",
  "8341": " comprehens",
  "8342": "osit",
  "8343": " Es",
  "8344": " Kat",
  "8345": " discovery",
  "8346": "unior",
  "8347": " remem",
  "8348": " register",
  "8349": "agg",
  "8350": " casual",
  "8351": " citizen",
  "8352": "RI",
  "8353": " fab",
  "8354": "Sm",
  "8355": "Under",
  "8356": " roads",
  "8357": " disagree",
  "8358": " failing",
  "8359": " Never",
  "8360": " Little",
  "8361": " Jay",
  "8362": " dynamic",
  "8363": " serves",
  "8364": " Cameron",
  "8365": " Brother",
  "8366": " Mah",
  "8367": " testim",
  "8368": " gathered",
  "8369": " Stone",
  "8370": " Information",
  "8371": " soph",
  "8372": "oding",
  "8373": " implemented",
  "8374": " controversy",
  "8375": " collective",
  "8376": " trained",
  "8377": "anna",
  "8378": " NSA",
  "8379": " neighbour",
  "8380": " fears",
  "8381": "leveland",
  "8382": " samples",
  "8383": " fiction",
  "8384": " prosec",
  "8385": " estimate",
  "8386": " Community",
  "8387": " Ice",
  "8388": " Medical",
  "8389": " 1997",
  "8390": " Philipp",
  "8391": " referring",
  "8392": " tip",
  "8393": " captain",
  "8394": "Will",
  "8395": " 1996",
  "8396": " spaces",
  "8397": "69",
  "8398": "cific",
  "8399": " trem",
  "8400": " Walker",
  "8401": " versus",
  "8402": " legs",
  "8403": " Santa",
  "8404": " temporary",
  "8405": "PC",
  "8406": " noise",
  "8407": "'.",
  "8408": " HD",
  "8409": " overt",
  "8410": " incorpor",
  "8411": " tone",
  "8412": " visitors",
  "8413": " reven",
  "8414": " civilians",
  "8415": " wages",
  "8416": " hypot",
  "8417": " remarks",
  "8418": " sin",
  "8419": "================",
  "8420": " awareness",
  "8421": " ON",
  "8422": " recommended",
  "8423": " stupid",
  "8424": " Spring",
  "8425": " Allen",
  "8426": " heading",
  "8427": " handful",
  "8428": " regulation",
  "8429": "icket",
  "8430": " Action",
  "8431": " Core",
  "8432": " platforms",
  "8433": " accus",
  "8434": " Anthony",
  "8435": " affairs",
  "8436": " touchdown",
  "8437": " rural",
  "8438": " attacking",
  "8439": "gener",
  "8440": " extend",
  "8441": " ultimate",
  "8442": " attached",
  "8443": " Vegas",
  "8444": " discussions",
  "8445": " Ren",
  "8446": " horse",
  "8447": " Brew",
  "8448": "mad",
  "8449": " reprodu",
  "8450": " genetic",
  "8451": " expanded",
  "8452": " attempting",
  "8453": "phones",
  "8454": " Matthew",
  "8455": " races",
  "8456": "including",
  "8457": "iry",
  "8458": " Queen",
  "8459": " raw",
  "8460": " ignore",
  "8461": " Columbia",
  "8462": "serv",
  "8463": " Pent",
  "8464": " Guardian",
  "8465": "hour",
  "8466": " Cook",
  "8467": " iP",
  "8468": "itionally",
  "8469": " gear",
  "8470": " symptoms",
  "8471": " Patrick",
  "8472": " suffer",
  "8473": " settings",
  "8474": " Make",
  "8475": "alling",
  "8476": " salary",
  "8477": "case",
  "8478": " licens",
  "8479": " Budd",
  "8480": "mary",
  "8481": "GO",
  "8482": " tweeted",
  "8483": "angel",
  "8484": " publication",
  "8485": " brill",
  "8486": " factory",
  "8487": " suspected",
  "8488": " purchased",
  "8489": "aret",
  "8490": " intervention",
  "8491": " eastern",
  "8492": " holiday",
  "8493": "type",
  "8494": "2014",
  "8495": " theat",
  "8496": "About",
  "8497": " displ",
  "8498": "esh",
  "8499": " ranked",
  "8500": " neck",
  "8501": " Austin",
  "8502": " Conservative",
  "8503": " Museum",
  "8504": "ective",
  "8505": " Roy",
  "8506": "\")",
  "8507": " cro",
  "8508": " enormous",
  "8509": "Sen",
  "8510": "intendo",
  "8511": " cogn",
  "8512": " logic",
  "8513": "ultural",
  "8514": "ictions",
  "8515": " improvement",
  "8516": " API",
  "8517": " viewed",
  "8518": " ingred",
  "8519": " entertainment",
  "8520": "Ass",
  "8521": " legitimate",
  "8522": " Professor",
  "8523": "ommod",
  "8524": " presum",
  "8525": " Albert",
  "8526": " Massachusetts",
  "8527": " Ball",
  "8528": " 2019",
  "8529": " www",
  "8530": "News",
  "8531": " actors",
  "8532": " substantial",
  "8533": " humanity",
  "8534": " involves",
  "8535": " resource",
  "8536": "arms",
  "8537": " brothers",
  "8538": " liquid",
  "8539": " rational",
  "8540": " seemingly",
  "8541": " sorry",
  "8542": " layer",
  "8543": " loans",
  "8544": " rook",
  "8545": " investigating",
  "8546": " absence",
  "8547": " providers",
  "8548": " tomorrow",
  "8549": " fallen",
  "8550": " bureau",
  "8551": " grounds",
  "8552": " coaches",
  "8553": " stake",
  "8554": " resign",
  "8555": " outs",
  "8556": "rec",
  "8557": " advocates",
  "8558": " Ho",
  "8559": " €",
  "8560": "RC",
  "8561": " investigators",
  "8562": " conspiracy",
  "8563": "Where",
  "8564": " medicine",
  "8565": " dramatic",
  "8566": " fulf",
  "8567": " monitor",
  "8568": " Chair",
  "8569": "EST",
  "8570": "repre",
  "8571": " overs",
  "8572": " chapter",
  "8573": " Season",
  "8574": " coc",
  "8575": "oval",
  "8576": "GE",
  "8577": "lah",
  "8578": ".-",
  "8579": " activist",
  "8580": "plete",
  "8581": " boat",
  "8582": " Check",
  "8583": "aka",
  "8584": " Control",
  "8585": " jur",
  "8586": " suspended",
  "8587": " papers",
  "8588": "Script",
  "8589": " Greece",
  "8590": " opinions",
  "8591": " Such",
  "8592": " Ross",
  "8593": " missile",
  "8594": " Golden",
  "8595": " celeb",
  "8596": " Revolution",
  "8597": "2016",
  "8598": "ped",
  "8599": " stayed",
  "8600": " covers",
  "8601": " Ra",
  "8602": " Head",
  "8603": "iverpool",
  "8604": " diversity",
  "8605": "otype",
  "8606": " bars",
  "8607": "Part",
  "8608": " gam",
  "8609": "Russ",
  "8610": " embarrass",
  "8611": "xit",
  "8612": " offices",
  "8613": " Acc",
  "8614": "rets",
  "8615": "ourse",
  "8616": "claim",
  "8617": " Pot",
  "8618": " Iranian",
  "8619": "ammed",
  "8620": " disrupt",
  "8621": "cover",
  "8622": " WW",
  "8623": " preced",
  "8624": " poly",
  "8625": " forest",
  "8626": "wered",
  "8627": " careful",
  "8628": "reprene",
  "8629": "vard",
  "8630": " amid",
  "8631": " History",
  "8632": "hot",
  "8633": " Hospital",
  "8634": "isting",
  "8635": " Ale",
  "8636": " authent",
  "8637": "quest",
  "8638": " Illinois",
  "8639": " CBS",
  "8640": " Sony",
  "8641": "uction",
  "8642": " ham",
  "8643": "79",
  "8644": "geon",
  "8645": "Related",
  "8646": "dit",
  "8647": " Ap",
  "8648": "rine",
  "8649": " transportation",
  "8650": " Vancouver",
  "8651": " Gaza",
  "8652": " handed",
  "8653": " protocol",
  "8654": " consistently",
  "8655": " mountain",
  "8656": " 52",
  "8657": " reads",
  "8658": " Stat",
  "8659": " pref",
  "8660": " clothes",
  "8661": " attitude",
  "8662": "iability",
  "8663": " Share",
  "8664": " Kennedy",
  "8665": " porn",
  "8666": " princip",
  "8667": " Freedom",
  "8668": " depends",
  "8669": " mining",
  "8670": "des",
  "8671": " petition",
  "8672": " noting",
  "8673": " warrant",
  "8674": " conce",
  "8675": " colors",
  "8676": " lowest",
  "8677": " Anderson",
  "8678": " Tri",
  "8679": " addressed",
  "8680": " Family",
  "8681": "72",
  "8682": "unes",
  "8683": "74",
  "8684": " entr",
  "8685": "Ste",
  "8686": " Stadium",
  "8687": "xx",
  "8688": " throwing",
  "8689": " je",
  "8690": " fruit",
  "8691": " virtually",
  "8692": "!)",
  "8693": " stone",
  "8694": " foss",
  "8695": "inch",
  "8696": " guarantee",
  "8697": " referend",
  "8698": "Both",
  "8699": "??",
  "8700": " speaks",
  "8701": " Baltimore",
  "8702": " steel",
  "8703": " closing",
  "8704": "itting",
  "8705": " reader",
  "8706": "dri",
  "8707": "FF",
  "8708": " buff",
  "8709": " personality",
  "8710": "bi",
  "8711": " appreciate",
  "8712": " Cre",
  "8713": " Iraqi",
  "8714": " surf",
  "8715": " Environment",
  "8716": " nerv",
  "8717": "iences",
  "8718": " km",
  "8719": "maker",
  "8720": "keep",
  "8721": " handling",
  "8722": " profits",
  "8723": "ordon",
  "8724": " grav",
  "8725": " marks",
  "8726": "low",
  "8727": " tries",
  "8728": " Broad",
  "8729": " contributions",
  "8730": " Engine",
  "8731": "ropri",
  "8732": "zed",
  "8733": " spiritual",
  "8734": " conversations",
  "8735": " fantastic",
  "8736": " Tro",
  "8737": " lands",
  "8738": " console",
  "8739": " horror",
  "8740": "ila",
  "8741": ">>>>",
  "8742": "ppers",
  "8743": "\".[",
  "8744": "icity",
  "8745": " gains",
  "8746": " covering",
  "8747": " tea",
  "8748": "ivals",
  "8749": " Harris",
  "8750": "Her",
  "8751": " hint",
  "8752": " astron",
  "8753": "aval",
  "8754": " shoulder",
  "8755": "scale",
  "8756": " wrest",
  "8757": " guest",
  "8758": " Ext",
  "8759": " accommod",
  "8760": "uted",
  "8761": "uits",
  "8762": " depression",
  "8763": " CA",
  "8764": " _",
  "8765": " Lewis",
  "8766": " lucky",
  "8767": " Bang",
  "8768": " encouraged",
  "8769": "flix",
  "8770": "amac",
  "8771": " judges",
  "8772": " incidents",
  "8773": " Cleveland",
  "8774": " drew",
  "8775": " subsequent",
  "8776": " spoken",
  "8777": "ira",
  "8778": " Howard",
  "8779": "annels",
  "8780": " Bad",
  "8781": " brown",
  "8782": " bacter",
  "8783": "Please",
  "8784": "ixed",
  "8785": " rhet",
  "8786": " ranks",
  "8787": " Getty",
  "8788": " photograp",
  "8789": " inflation",
  "8790": " inner",
  "8791": " Intelligence",
  "8792": " Po",
  "8793": "mat",
  "8794": " Ba",
  "8795": " maps",
  "8796": "abeth",
  "8797": " Patri",
  "8798": "ported",
  "8799": "ijing",
  "8800": "plate",
  "8801": " divided",
  "8802": " 1995",
  "8803": " NATO",
  "8804": " paralle",
  "8805": " drama",
  "8806": " Mexican",
  "8807": " distributed",
  "8808": " gal",
  "8809": " innovation",
  "8810": "unicip",
  "8811": " cust",
  "8812": " Unfortunately",
  "8813": " premium",
  "8814": " voter",
  "8815": " permit",
  "8816": " revel",
  "8817": " Kong",
  "8818": " dance",
  "8819": " clim",
  "8820": "pled",
  "8821": " Las",
  "8822": " efficiency",
  "8823": " promises",
  "8824": " Indeed",
  "8825": "Note",
  "8826": " CH",
  "8827": " Which",
  "8828": " ballot",
  "8829": " 51",
  "8830": "eding",
  "8831": "pie",
  "8832": " Adv",
  "8833": " temperatures",
  "8834": " Samsung",
  "8835": " portray",
  "8836": " spokesperson",
  "8837": " locked",
  "8838": " lying",
  "8839": " improving",
  "8840": " threw",
  "8841": " joy",
  "8842": " dump",
  "8843": "Art",
  "8844": " musical",
  "8845": "PP",
  "8846": " mistakes",
  "8847": "dated",
  "8848": " shout",
  "8849": " Start",
  "8850": " homeless",
  "8851": "conf",
  "8852": " replacement",
  "8853": "eries",
  "8854": " comedy",
  "8855": " checks",
  "8856": " Without",
  "8857": " Moon",
  "8858": " instrument",
  "8859": "ounce",
  "8860": " Connect",
  "8861": " acknowledged",
  "8862": " barrel",
  "8863": " responses",
  "8864": " protecting",
  "8865": "backs",
  "8866": " Det",
  "8867": "",
  "8868": " silver",
  "8869": " copies",
  "8870": "heim",
  "8871": " les",
  "8872": " AC",
  "8873": " dad",
  "8874": " breaks",
  "8875": " Plus",
  "8876": " Buff",
  "8877": " commonly",
  "8878": " lets",
  "8879": " legacy",
  "8880": "itage",
  "8881": " mathem",
  "8882": " protein",
  "8883": " joke",
  "8884": "amacare",
  "8885": "erted",
  "8886": "arre",
  "8887": " passengers",
  "8888": "2015",
  "8889": " yellow",
  "8890": " Marvel",
  "8891": "hop",
  "8892": " naturally",
  "8893": "Your",
  "8894": " Scient",
  "8895": " nomination",
  "8896": "Source",
  "8897": " measured",
  "8898": "aping",
  "8899": "oded",
  "8900": "alia",
  "8901": " Use",
  "8902": " abandoned",
  "8903": " mad",
  "8904": " Prince",
  "8905": " studied",
  "8906": "800",
  "8907": " Football",
  "8908": "helsea",
  "8909": " diverse",
  "8910": "argo",
  "8911": " acquired",
  "8912": "ieties",
  "8913": " Lyn",
  "8914": "Cons",
  "8915": "esty",
  "8916": " soil",
  "8917": " Marsh",
  "8918": " demonstrated",
  "8919": " blast",
  "8920": " rear",
  "8921": " funded",
  "8922": " headquarters",
  "8923": "hesis",
  "8924": " stolen",
  "8925": " scan",
  "8926": " counts",
  "8927": " tape",
  "8928": " partnership",
  "8929": " midfield",
  "8930": " NOT",
  "8931": " (“",
  "8932": " upgrade",
  "8933": " Cost",
  "8934": "yo",
  "8935": " Atlantic",
  "8936": " march",
  "8937": " ordinary",
  "8938": " Aud",
  "8939": " Nev",
  "8940": " rom",
  "8941": "aware",
  "8942": " literature",
  "8943": " plain",
  "8944": " stages",
  "8945": " •",
  "8946": " assert",
  "8947": " 1994",
  "8948": "high",
  "8949": " AI",
  "8950": " helpful",
  "8951": " arrive",
  "8952": " exit",
  "8953": " scope",
  "8954": " falls",
  "8955": "dog",
  "8956": "yer",
  "8957": " ignored",
  "8958": "BM",
  "8959": " twenty",
  "8960": "eters",
  "8961": " Master",
  "8962": " clock",
  "8963": " compe",
  "8964": "inction",
  "8965": " virus",
  "8966": " Trib",
  "8967": " referendum",
  "8968": "erg",
  "8969": " inequ",
  "8970": " unions",
  "8971": " Does",
  "8972": "assador",
  "8973": " Gun",
  "8974": " conservatives",
  "8975": " rif",
  "8976": " grid",
  "8977": " symp",
  "8978": " festival",
  "8979": " shopping",
  "8980": " fro",
  "8981": " waters",
  "8982": " Pop",
  "8983": " capabilities",
  "8984": " Bron",
  "8985": " ax",
  "8986": "zing",
  "8987": "iate",
  "8988": "lahoma",
  "8989": " usage",
  "8990": " Hind",
  "8991": "ington",
  "8992": " Empire",
  "8993": "aeda",
  "8994": " Abb",
  "8995": " Indiana",
  "8996": "iley",
  "8997": " transactions",
  "8998": " hoped",
  "8999": " distract",
  "9000": " Ast",
  "9001": " guitar",
  "9002": "VE",
  "9003": " Eag",
  "9004": " sty",
  "9005": " ramp",
  "9006": " assessment",
  "9007": "ctic",
  "9008": " universities",
  "9009": " Dave",
  "9010": " moon",
  "9011": " monitoring",
  "9012": "ormal",
  "9013": "acket",
  "9014": "bridge",
  "9015": " representing",
  "9016": "Facebook",
  "9017": " ratio",
  "9018": " Death",
  "9019": "encing",
  "9020": "ught",
  "9021": " Prov",
  "9022": " conventional",
  "9023": "comes",
  "9024": "UST",
  "9025": "orge",
  "9026": " trave",
  "9027": " Set",
  "9028": " tracking",
  "9029": "door",
  "9030": "ntil",
  "9031": " Sometimes",
  "9032": "only",
  "9033": "shire",
  "9034": " hung",
  "9035": " Sus",
  "9036": " reliable",
  "9037": " tie",
  "9038": " proposals",
  "9039": " skept",
  "9040": " Hell",
  "9041": " replied",
  "9042": " Ros",
  "9043": "fund",
  "9044": "uh",
  "9045": " criticized",
  "9046": " appearances",
  "9047": "rimin",
  "9048": "62",
  "9049": "ecutive",
  "9050": "ela",
  "9051": " Ha",
  "9052": " racism",
  "9053": " insisted",
  "9054": "organ",
  "9055": " introduction",
  "9056": " 2020",
  "9057": " appointed",
  "9058": "dney",
  "9059": " Bureau",
  "9060": "olph",
  "9061": "agic",
  "9062": " Pass",
  "9063": "cut",
  "9064": "Ke",
  "9065": " Line",
  "9066": " beauty",
  "9067": " concrete",
  "9068": " receiver",
  "9069": " supplies",
  "9070": " performing",
  "9071": "made",
  "9072": " bub",
  "9073": " exch",
  "9074": "rite",
  "9075": "63",
  "9076": " visiting",
  "9077": " Technology",
  "9078": " Denver",
  "9079": "ocument",
  "9080": "EE",
  "9081": "omes",
  "9082": " Capt",
  "9083": "theless",
  "9084": "RL",
  "9085": " letting",
  "9086": "AND",
  "9087": " deficit",
  "9088": " classified",
  "9089": " Galaxy",
  "9090": "61",
  "9091": " auto",
  "9092": " render",
  "9093": " absor",
  "9094": " Orig",
  "9095": " swim",
  "9096": " accomplish",
  "9097": " programme",
  "9098": " presidency",
  "9099": "HT",
  "9100": "crib",
  "9101": " blocked",
  "9102": " Sweden",
  "9103": "archy",
  "9104": " dust",
  "9105": " Utah",
  "9106": " drove",
  "9107": " landscape",
  "9108": " cance",
  "9109": " Portland",
  "9110": "plus",
  "9111": " dismissed",
  "9112": " LA",
  "9113": " hyper",
  "9114": " abroad",
  "9115": " bonus",
  "9116": " Jam",
  "9117": " Tour",
  "9118": "har",
  "9119": " sequence",
  "9120": " predicted",
  "9121": " senator",
  "9122": "°",
  "9123": " Age",
  "9124": " domain",
  "9125": " Code",
  "9126": " ec",
  "9127": " museum",
  "9128": " warn",
  "9129": " Associated",
  "9130": "acco",
  "9131": " persons",
  "9132": "NS",
  "9133": " dub",
  "9134": "iano",
  "9135": "ji",
  "9136": "aga",
  "9137": " requested",
  "9138": " trigger",
  "9139": " Ontario",
  "9140": " hockey",
  "9141": " Corpor",
  "9142": " artific",
  "9143": " dates",
  "9144": " testimony",
  "9145": " centers",
  "9146": "л",
  "9147": " rocket",
  "9148": "irts",
  "9149": " ves",
  "9150": " transit",
  "9151": " congressional",
  "9152": " entitled",
  "9153": "ultane",
  "9154": " spokeswoman",
  "9155": " Front",
  "9156": " Nintendo",
  "9157": " Alexander",
  "9158": " rescue",
  "9159": " Cooper",
  "9160": "mony",
  "9161": " assign",
  "9162": "ais",
  "9163": " Bon",
  "9164": " equality",
  "9165": " patch",
  "9166": " urged",
  "9167": " bread",
  "9168": " Olympic",
  "9169": " documentary",
  "9170": " veterans",
  "9171": " clar",
  "9172": "fol",
  "9173": "king",
  "9174": " ”",
  "9175": "pton",
  "9176": " recall",
  "9177": " populations",
  "9178": " Low",
  "9179": " breath",
  "9180": "Still",
  "9181": "rooms",
  "9182": " whenever",
  "9183": "93",
  "9184": " violation",
  "9185": " tactics",
  "9186": " wider",
  "9187": "ounding",
  "9188": " targeting",
  "9189": "Yet",
  "9190": "94",
  "9191": "through",
  "9192": " pursue",
  "9193": "92",
  "9194": " salt",
  "9195": "\">",
  "9196": " lean",
  "9197": "Are",
  "9198": "izabeth",
  "9199": " firing",
  "9200": " Kar",
  "9201": " Mill",
  "9202": " acid",
  "9203": "inating",
  "9204": " mole",
  "9205": " restaurants",
  "9206": " compare",
  "9207": "fare",
  "9208": "Comp",
  "9209": "orous",
  "9210": " wedd",
  "9211": "ennis",
  "9212": " employed",
  "9213": " Roberts",
  "9214": " contrad",
  "9215": " Bible",
  "9216": " politically",
  "9217": "aver",
  "9218": " phrase",
  "9219": " satellite",
  "9220": "71",
  "9221": " Cro",
  "9222": " survival",
  "9223": " retirement",
  "9224": " banking",
  "9225": " Form",
  "9226": "73",
  "9227": " brilliant",
  "9228": " Girl",
  "9229": "########",
  "9230": "atar",
  "9231": " channels",
  "9232": "isons",
  "9233": " servers",
  "9234": " Beijing",
  "9235": " soccer",
  "9236": "trans",
  "9237": " Mach",
  "9238": "they",
  "9239": " introduce",
  "9240": " Justin",
  "9241": " experiments",
  "9242": "enez",
  "9243": " prisoners",
  "9244": "rapped",
  "9245": " cig",
  "9246": " WH",
  "9247": "afe",
  "9248": "jud",
  "9249": " fighter",
  "9250": "600",
  "9251": " scientist",
  "9252": "OK",
  "9253": " YOU",
  "9254": "usalem",
  "9255": " List",
  "9256": " submit",
  "9257": " approached",
  "9258": " Award",
  "9259": " monthly",
  "9260": " Liverpool",
  "9261": " designs",
  "9262": " representatives",
  "9263": " titled",
  "9264": "ordinary",
  "9265": " quote",
  "9266": " popularity",
  "9267": "olves",
  "9268": " abilities",
  "9269": "oenix",
  "9270": " cul",
  "9271": " PD",
  "9272": " membership",
  "9273": " investigations",
  "9274": " focusing",
  "9275": "mans",
  "9276": " bab",
  "9277": " hosp",
  "9278": " Bridge",
  "9279": "Though",
  "9280": " Maryland",
  "9281": " saving",
  "9282": " rush",
  "9283": " Governor",
  "9284": "bow",
  "9285": " shadow",
  "9286": "ouri",
  "9287": " Hur",
  "9288": " Base",
  "9289": " objective",
  "9290": "berry",
  "9291": "emed",
  "9292": " Ted",
  "9293": "erts",
  "9294": "ederation",
  "9295": " mit",
  "9296": " prepar",
  "9297": " tips",
  "9298": " Was",
  "9299": " pipeline",
  "9300": "David",
  "9301": " childhood",
  "9302": "ika",
  "9303": " ratings",
  "9304": " thorough",
  "9305": " entreprene",
  "9306": "enter",
  "9307": " Vill",
  "9308": " Dutch",
  "9309": "was",
  "9310": "break",
  "9311": " actively",
  "9312": " Harvard",
  "9313": " pig",
  "9314": " demanding",
  "9315": " loose",
  "9316": "asty",
  "9317": " unexpected",
  "9318": " smoking",
  "9319": " smell",
  "9320": " deny",
  "9321": "CO",
  "9322": " universal",
  "9323": " forecast",
  "9324": " argues",
  "9325": "don",
  "9326": " phenomenon",
  "9327": " overseas",
  "9328": "olds",
  "9329": " settled",
  "9330": "walk",
  "9331": " Beck",
  "9332": " generations",
  "9333": " weekly",
  "9334": " chicken",
  "9335": " 95",
  "9336": " preparing",
  "9337": " smartphone",
  "9338": " producers",
  "9339": " butt",
  "9340": " PA",
  "9341": " legislative",
  "9342": " anxiety",
  "9343": " disturb",
  "9344": " Have",
  "9345": " innocent",
  "9346": "minute",
  "9347": " Click",
  "9348": " mortg",
  "9349": " celebrate",
  "9350": "Dem",
  "9351": "iki",
  "9352": " Ur",
  "9353": " provision",
  "9354": " DO",
  "9355": " keys",
  "9356": "ded",
  "9357": " shame",
  "9358": " arguing",
  "9359": " Design",
  "9360": "held",
  "9361": " questioned",
  "9362": " forcing",
  "9363": " Cow",
  "9364": " Hop",
  "9365": "ompson",
  "9366": "agh",
  "9367": "b'\\xe2\\x94'",
  "9368": " broader",
  "9369": " encounter",
  "9370": "mers",
  "9371": "SL",
  "9372": " flags",
  "9373": " fool",
  "9374": " mac",
  "9375": " 53",
  "9376": " deadly",
  "9377": " fur",
  "9378": " reverse",
  "9379": "oz",
  "9380": " weigh",
  "9381": " Edward",
  "9382": " Among",
  "9383": " tens",
  "9384": " ~",
  "9385": " mos",
  "9386": " wealthy",
  "9387": " Obamacare",
  "9388": " unpre",
  "9389": "eals",
  "9390": " maintained",
  "9391": " surely",
  "9392": " shield",
  "9393": " Prop",
  "9394": "ocolate",
  "9395": "oret",
  "9396": " secondary",
  "9397": "aved",
  "9398": "Sim",
  "9399": " savings",
  "9400": "irlf",
  "9401": "isa",
  "9402": " roof",
  "9403": " stability",
  "9404": " civilian",
  "9405": " tab",
  "9406": "ă",
  "9407": "elson",
  "9408": " Carter",
  "9409": " reveals",
  "9410": "mind",
  "9411": " alarm",
  "9412": " mini",
  "9413": " anniversary",
  "9414": " sorts",
  "9415": " Bra",
  "9416": "ois",
  "9417": " Ak",
  "9418": "aa",
  "9419": "vernment",
  "9420": "El",
  "9421": " tonight",
  "9422": "84",
  "9423": " releases",
  "9424": " Hon",
  "9425": " rooms",
  "9426": "irlfriend",
  "9427": " Gulf",
  "9428": " outrage",
  "9429": " prosecutors",
  "9430": "isk",
  "9431": " Left",
  "9432": "inals",
  "9433": " disorder",
  "9434": " exha",
  "9435": "ingers",
  "9436": "orious",
  "9437": " shr",
  "9438": " relax",
  "9439": "................",
  "9440": " windows",
  "9441": " threatening",
  "9442": " differently",
  "9443": " harassment",
  "9444": " quoted",
  "9445": " healthcare",
  "9446": " submitted",
  "9447": " arbit",
  "9448": " lunch",
  "9449": "step",
  "9450": " Run",
  "9451": " reforms",
  "9452": " torture",
  "9453": "rection",
  "9454": " fate",
  "9455": " stored",
  "9456": " Belg",
  "9457": " okay",
  "9458": " propaganda",
  "9459": " spots",
  "9460": " instructions",
  "9461": " Vietnam",
  "9462": " sevent",
  "9463": " rounds",
  "9464": " odds",
  "9465": "itter",
  "9466": " 1992",
  "9467": " aer",
  "9468": "html",
  "9469": "tenance",
  "9470": " errors",
  "9471": "ested",
  "9472": " Oklahoma",
  "9473": " hydro",
  "9474": "icism",
  "9475": "GA",
  "9476": " delic",
  "9477": "ailed",
  "9478": " Liberal",
  "9479": " silence",
  "9480": " Graham",
  "9481": "acts",
  "9482": " Warren",
  "9483": " Sab",
  "9484": " graduate",
  "9485": "pa",
  "9486": " affordable",
  "9487": " circle",
  "9488": "sect",
  "9489": " Bloom",
  "9490": " cooperation",
  "9491": " picks",
  "9492": " sear",
  "9493": "itary",
  "9494": " Sarah",
  "9495": " Fall",
  "9496": "orship",
  "9497": " Expl",
  "9498": " striking",
  "9499": " puzz",
  "9500": " persu",
  "9501": " streaming",
  "9502": " comprehensive",
  "9503": "race",
  "9504": " importantly",
  "9505": "omed",
  "9506": " cow",
  "9507": " possess",
  "9508": "Watch",
  "9509": " execution",
  "9510": " Ruby",
  "9511": "lined",
  "9512": "rows",
  "9513": " intim",
  "9514": " struggled",
  "9515": " Person",
  "9516": " assass",
  "9517": " Silver",
  "9518": " Leader",
  "9519": "uten",
  "9520": "ahu",
  "9521": " gent",
  "9522": " Price",
  "9523": "Reuters",
  "9524": "Ty",
  "9525": "ishop",
  "9526": " deserve",
  "9527": " Jerusalem",
  "9528": " landing",
  "9529": " calm",
  "9530": " alter",
  "9531": " ceremony",
  "9532": " assumed",
  "9533": " demonstrate",
  "9534": " difficulty",
  "9535": " ages",
  "9536": " pron",
  "9537": " dying",
  "9538": " hal",
  "9539": " distingu",
  "9540": "asury",
  "9541": " stepped",
  "9542": " borders",
  "9543": " chest",
  "9544": "ethe",
  "9545": " Wolf",
  "9546": " Lt",
  "9547": " adventure",
  "9548": " pointing",
  "9549": "ova",
  "9550": " waves",
  "9551": "atern",
  "9552": " kilomet",
  "9553": "essee",
  "9554": "ierce",
  "9555": " Netflix",
  "9556": " autonom",
  "9557": " precisely",
  "9558": " architecture",
  "9559": " greatly",
  "9560": " promising",
  "9561": " consent",
  "9562": "bury",
  "9563": " consideration",
  "9564": " Ten",
  "9565": " Deb",
  "9566": " drives",
  "9567": " dialogue",
  "9568": " Main",
  "9569": " tremend",
  "9570": "asant",
  "9571": " newsletter",
  "9572": " rookie",
  "9573": "83",
  "9574": " awarded",
  "9575": " Meanwhile",
  "9576": "after",
  "9577": " repeat",
  "9578": " Story",
  "9579": " contribution",
  "9580": " Tele",
  "9581": "iac",
  "9582": " burning",
  "9583": "iev",
  "9584": "party",
  "9585": " simultane",
  "9586": " Scottish",
  "9587": " Vice",
  "9588": " donations",
  "9589": " Indust",
  "9590": "akh",
  "9591": " interf",
  "9592": "itol",
  "9593": " Magic",
  "9594": " voices",
  "9595": " analyst",
  "9596": " Bruce",
  "9597": " Tech",
  "9598": "ceptions",
  "9599": " gif",
  "9600": " frequency",
  "9601": " Common",
  "9602": " procedure",
  "9603": " wanting",
  "9604": " Pres",
  "9605": "omy",
  "9606": " executives",
  "9607": " playoffs",
  "9608": " Bud",
  "9609": "lee",
  "9610": "oice",
  "9611": " staying",
  "9612": "apolis",
  "9613": " birds",
  "9614": " bias",
  "9615": "VD",
  "9616": " Hong",
  "9617": " Az",
  "9618": "izer",
  "9619": " inches",
  "9620": " trillion",
  "9621": "holders",
  "9622": " highlights",
  "9623": " semi",
  "9624": " remarkable",
  "9625": " whereas",
  "9626": "EX",
  "9627": "ributes",
  "9628": " Palestinians",
  "9629": " knee",
  "9630": "open",
  "9631": " Jonathan",
  "9632": " ans",
  "9633": "raig",
  "9634": " implications",
  "9635": "scribe",
  "9636": " formation",
  "9637": " superior",
  "9638": " strategies",
  "9639": "itual",
  "9640": " Berlin",
  "9641": "Step",
  "9642": " Link",
  "9643": "stal",
  "9644": "div",
  "9645": " Sydney",
  "9646": " MORE",
  "9647": " categories",
  "9648": " Ark",
  "9649": " fet",
  "9650": " followers",
  "9651": " cream",
  "9652": "Story",
  "9653": "portation",
  "9654": "FO",
  "9655": " contacted",
  "9656": "Ms",
  "9657": " judgment",
  "9658": "annon",
  "9659": " smile",
  "9660": " info",
  "9661": " emerging",
  "9662": "igious",
  "9663": "rif",
  "9664": "js",
  "9665": "onder",
  "9666": "bered",
  "9667": "yes",
  "9668": "vision",
  "9669": " Eff",
  "9670": "vertisements",
  "9671": "iffs",
  "9672": "hatt",
  "9673": " accessible",
  "9674": " crimin",
  "9675": "TP",
  "9676": " physically",
  "9677": " assigned",
  "9678": " 54",
  "9679": " Andre",
  "9680": " guidelines",
  "9681": " defeated",
  "9682": " wounded",
  "9683": " trials",
  "9684": " stem",
  "9685": " managing",
  "9686": " spell",
  "9687": " ministry",
  "9688": " grade",
  "9689": " coinc",
  "9690": " riding",
  "9691": " indicates",
  "9692": " centuries",
  "9693": " Som",
  "9694": "Christ",
  "9695": "cest",
  "9696": " Affairs",
  "9697": " opens",
  "9698": "aki",
  "9699": " pharm",
  "9700": "lla",
  "9701": "->",
  "9702": " meaningful",
  "9703": " tiss",
  "9704": "erent",
  "9705": " Mrs",
  "9706": " ease",
  "9707": "child",
  "9708": " margin",
  "9709": " Store",
  "9710": " clothing",
  "9711": " Tes",
  "9712": " −",
  "9713": " Six",
  "9714": " Capital",
  "9715": " participation",
  "9716": "cedented",
  "9717": "Mus",
  "9718": " revers",
  "9719": "aria",
  "9720": " poison",
  "9721": " Brexit",
  "9722": " 120",
  "9723": " Yemen",
  "9724": " lapt",
  "9725": " competing",
  "9726": " memories",
  "9727": " CS",
  "9728": " theories",
  "9729": " recipe",
  "9730": " gross",
  "9731": "umble",
  "9732": "author",
  "9733": "hard",
  "9734": " passage",
  "9735": "sl",
  "9736": " aged",
  "9737": " Credit",
  "9738": " bin",
  "9739": " drone",
  "9740": " blank",
  "9741": " dispute",
  "9742": " damaged",
  "9743": " 1993",
  "9744": " Hamilton",
  "9745": " Lam",
  "9746": "base",
  "9747": " substance",
  "9748": " hosted",
  "9749": "TER",
  "9750": "Google",
  "9751": " Chelsea",
  "9752": " promoting",
  "9753": " facilit",
  "9754": " openly",
  "9755": " Instagram",
  "9756": " 1950",
  "9757": " Vik",
  "9758": "View",
  "9759": " Children",
  "9760": " Crime",
  "9761": " clinical",
  "9762": "Out",
  "9763": " nic",
  "9764": "eremy",
  "9765": " Hold",
  "9766": "even",
  "9767": "bits",
  "9768": " investments",
  "9769": " consensus",
  "9770": "igate",
  "9771": " Leon",
  "9772": " Fal",
  "9773": " 99",
  "9774": " educational",
  "9775": "ito",
  "9776": "ses",
  "9777": "const",
  "9778": " dish",
  "9779": " manifest",
  "9780": " custody",
  "9781": "week",
  "9782": " eligible",
  "9783": " Hawai",
  "9784": " legally",
  "9785": " missions",
  "9786": " endorse",
  "9787": " gate",
  "9788": "eria",
  "9789": " memo",
  "9790": " GT",
  "9791": " tables",
  "9792": " Pict",
  "9793": " nin",
  "9794": " studying",
  "9795": "Hz",
  "9796": " ?",
  "9797": " charity",
  "9798": "aration",
  "9799": " addresses",
  "9800": "adi",
  "9801": " inspect",
  "9802": " discount",
  "9803": "rix",
  "9804": "left",
  "9805": " battles",
  "9806": "ALL",
  "9807": " Der",
  "9808": " 250",
  "9809": " Assembly",
  "9810": " athletes",
  "9811": "Pre",
  "9812": " Trade",
  "9813": " fossil",
  "9814": " enthusi",
  "9815": " Management",
  "9816": " suspects",
  "9817": " tired",
  "9818": " helic",
  "9819": "Act",
  "9820": " counterpart",
  "9821": " na",
  "9822": "82",
  "9823": " Eth",
  "9824": "achel",
  "9825": " dating",
  "9826": " spectrum",
  "9827": " Metro",
  "9828": "ateral",
  "9829": " Station",
  "9830": " Bal",
  "9831": " presentation",
  "9832": " lux",
  "9833": "gered",
  "9834": "arts",
  "9835": " bottle",
  "9836": " tap",
  "9837": "riors",
  "9838": "van",
  "9839": " vig",
  "9840": " fundra",
  "9841": " enhance",
  "9842": "assy",
  "9843": " therapy",
  "9844": " Wales",
  "9845": " Exper",
  "9846": " perceived",
  "9847": "market",
  "9848": " Tok",
  "9849": " dominant",
  "9850": "Def",
  "9851": "math",
  "9852": " backing",
  "9853": " Festival",
  "9854": " underlying",
  "9855": " defending",
  "9856": " Through",
  "9857": " racing",
  "9858": " discussing",
  "9859": " burden",
  "9860": " expanding",
  "9861": " muscle",
  "9862": " stops",
  "9863": "uz",
  "9864": " Sean",
  "9865": " beings",
  "9866": "————————",
  "9867": " Marx",
  "9868": " Equ",
  "9869": " transaction",
  "9870": " Uber",
  "9871": "Cal",
  "9872": " recruit",
  "9873": "itudes",
  "9874": "acher",
  "9875": " Gary",
  "9876": " mood",
  "9877": " picking",
  "9878": "lando",
  "9879": "ylum",
  "9880": "player",
  "9881": " managers",
  "9882": "orable",
  "9883": " gathering",
  "9884": " exceed",
  "9885": " hopefully",
  "9886": "angle",
  "9887": " Son",
  "9888": "alysis",
  "9889": " Video",
  "9890": "section",
  "9891": " crus",
  "9892": " Libya",
  "9893": " impression",
  "9894": " hip",
  "9895": "olar",
  "9896": "â",
  "9897": " scrut",
  "9898": " roy",
  "9899": " Tai",
  "9900": "igenous",
  "9901": " institution",
  "9902": " Batman",
  "9903": "}}",
  "9904": " stere",
  "9905": " procedures",
  "9906": "ñ",
  "9907": " pocket",
  "9908": " creatures",
  "9909": " compat",
  "9910": " arrival",
  "9911": "ptions",
  "9912": "oln",
  "9913": "watch",
  "9914": " Boe",
  "9915": " eager",
  "9916": " pollution",
  "9917": "iture",
  "9918": " foods",
  "9919": " kitchen",
  "9920": "ocial",
  "9921": " recre",
  "9922": " surviv",
  "9923": "roph",
  "9924": " organic",
  "9925": " Pentagon",
  "9926": " Morgan",
  "9927": " shipping",
  "9928": " capitalism",
  "9929": " insult",
  "9930": " timing",
  "9931": "sub",
  "9932": "odox",
  "9933": " requirement",
  "9934": " unfair",
  "9935": "aders",
  "9936": " 56",
  "9937": " mice",
  "9938": " Assad",
  "9939": " Represent",
  "9940": " Mess",
  "9941": " MLS",
  "9942": "atively",
  "9943": " Elizabeth",
  "9944": " Op",
  "9945": " diseases",
  "9946": " industries",
  "9947": " Oakland",
  "9948": "dy",
  "9949": " bowl",
  "9950": " Murray",
  "9951": " Creat",
  "9952": "Mod",
  "9953": " sed",
  "9954": " helicop",
  "9955": " divor",
  "9956": "agger",
  "9957": " beach",
  "9958": " punishment",
  "9959": "abet",
  "9960": " shell",
  "9961": "81",
  "9962": "***",
  "9963": " fled",
  "9964": " hospitals",
  "9965": "missions",
  "9966": " tons",
  "9967": " Kick",
  "9968": "ogy",
  "9969": "AF",
  "9970": " Comey",
  "9971": "opyright",
  "9972": " statist",
  "9973": " engineers",
  "9974": " obsc",
  "9975": " hire",
  "9976": " module",
  "9977": "Reg",
  "9978": "AY",
  "9979": "amous",
  "9980": " coaching",
  "9981": "oca",
  "9982": "Rem",
  "9983": " answered",
  "9984": "rac",
  "9985": "SC",
  "9986": "TR",
  "9987": " graphics",
  "9988": " regulatory",
  "9989": " sovere",
  "9990": " stance",
  "9991": "alties",
  "9992": " bow",
  "9993": " Keep",
  "9994": "Click",
  "9995": " explaining",
  "9996": " rhetoric",
  "9997": " beating",
  "9998": " Friend",
  "9999": " tut",
  "10000": " Email",
  "10001": "rior",
  "10002": " Yeah",
  "10003": " Mit",
  "10004": "emic",
  "10005": " acknowledge",
  "10006": " Michel",
  "10007": " principal",
  "10008": " pulling",
  "10009": "erves",
  "10010": " signature",
  "10011": "bing",
  "10012": "brid",
  "10013": "olving",
  "10014": " convince",
  "10015": " Roll",
  "10016": " variable",
  "10017": "cosystem",
  "10018": " pill",
  "10019": " searching",
  "10020": " Ox",
  "10021": " dies",
  "10022": " overcome",
  "10023": " preferred",
  "10024": "duction",
  "10025": " sixth",
  "10026": " adviser",
  "10027": " Tennessee",
  "10028": " trends",
  "10029": " !",
  "10030": " Russell",
  "10031": " (\"",
  "10032": " Thompson",
  "10033": "Ge",
  "10034": " merch",
  "10035": " rebels",
  "10036": " interaction",
  "10037": " periods",
  "10038": " psychological",
  "10039": "ds",
  "10040": "Mich",
  "10041": " Sure",
  "10042": " Yan",
  "10043": " Using",
  "10044": " economics",
  "10045": " Charlie",
  "10046": " Bi",
  "10047": " outlets",
  "10048": " Gil",
  "10049": " Intel",
  "10050": " signals",
  "10051": "pg",
  "10052": " echo",
  "10053": " Executive",
  "10054": " Kentucky",
  "10055": " tempor",
  "10056": " billions",
  "10057": " lineup",
  "10058": " math",
  "10059": "2013",
  "10060": " 1991",
  "10061": " setup",
  "10062": " rend",
  "10063": "Finally",
  "10064": "netic",
  "10065": " eggs",
  "10066": "ui",
  "10067": "Comm",
  "10068": " segment",
  "10069": " arr",
  "10070": "mic",
  "10071": " badly",
  "10072": "kee",
  "10073": " Li",
  "10074": " sentenced",
  "10075": " everyday",
  "10076": " Dragon",
  "10077": " commander",
  "10078": " Holl",
  "10079": " AN",
  "10080": " loves",
  "10081": "unicipal",
  "10082": " genes",
  "10083": "NBC",
  "10084": " bold",
  "10085": " requiring",
  "10086": "91",
  "10087": " bullet",
  "10088": " invasion",
  "10089": "will",
  "10090": " partly",
  "10091": " escal",
  "10092": " instant",
  "10093": " gig",
  "10094": " Jean",
  "10095": "check",
  "10096": " arts",
  "10097": " gene",
  "10098": " removal",
  "10099": " undert",
  "10100": " upload",
  "10101": "liest",
  "10102": " Hart",
  "10103": " topics",
  "10104": " Iron",
  "10105": "enezuel",
  "10106": " inquiry",
  "10107": " amendment",
  "10108": " weakness",
  "10109": " Rather",
  "10110": "news",
  "10111": " concepts",
  "10112": " Ze",
  "10113": " McK",
  "10114": "PL",
  "10115": " shoes",
  "10116": "arted",
  "10117": " Sound",
  "10118": " fabric",
  "10119": "izza",
  "10120": " Delhi",
  "10121": "Earlier",
  "10122": "tsburgh",
  "10123": " frequent",
  "10124": " sections",
  "10125": " occurs",
  "10126": "oli",
  "10127": " migrants",
  "10128": " compensation",
  "10129": " engineer",
  "10130": "eness",
  "10131": " lad",
  "10132": "has",
  "10133": " Finally",
  "10134": " fo",
  "10135": " attractive",
  "10136": " Box",
  "10137": " unve",
  "10138": "instein",
  "10139": " ).",
  "10140": " citing",
  "10141": " tweets",
  "10142": " utility",
  "10143": "arency",
  "10144": "grade",
  "10145": "cor",
  "10146": " posting",
  "10147": " ridiculous",
  "10148": " blockchain",
  "10149": " cler",
  "10150": " Clark",
  "10151": " speaker",
  "10152": "─",
  "10153": "──",
  "10154": " diam",
  "10155": "ا",
  "10156": " corrupt",
  "10157": " talented",
  "10158": " lect",
  "10159": " collaps",
  "10160": " mask",
  "10161": "‐",
  "10162": "necess",
  "10163": "screen",
  "10164": " notable",
  "10165": " Therefore",
  "10166": " elder",
  "10167": " genre",
  "10168": " deadline",
  "10169": " rolling",
  "10170": " carries",
  "10171": " BM",
  "10172": "Top",
  "10173": " Final",
  "10174": "00000000",
  "10175": "via",
  "10176": " ET",
  "10177": "ental",
  "10178": " approaches",
  "10179": " eliminate",
  "10180": " Priv",
  "10181": "ele",
  "10182": " analysts",
  "10183": " sits",
  "10184": " cens",
  "10185": "State",
  "10186": " instances",
  "10187": " Simon",
  "10188": " publishing",
  "10189": " unprecedented",
  "10190": " colour",
  "10191": " roots",
  "10192": " Phoenix",
  "10193": "VP",
  "10194": " cock",
  "10195": " bene",
  "10196": " Psych",
  "10197": " toxic",
  "10198": "ississ",
  "10199": " collaboration",
  "10200": " arc",
  "10201": " inequality",
  "10202": "gus",
  "10203": " neighbors",
  "10204": " insight",
  "10205": " dramatically",
  "10206": " Harper",
  "10207": " homosexual",
  "10208": " towns",
  "10209": " prize",
[...]
