{
  "0": "\u0000",
  "1": "\u0001",
  "2": "\u0002",
  "3": "\u0003",
  "4": "\u0004",
  "5": "\u0005",
  "6": "\u0006",
  "7": "\u0007",
  "8": "\b",
  "9": "\t",
  "10": "\n",
  "11": "\u000b",
  "12": "\f",
  "13": "\r",
  "14": "\u000e",
  "15": "\u000f",
  "16": "\u0010",
  "17": "\u0011",
  "18": "\u0012",
  "19": "\u0013",
  "20": "\u0014",
  "21": "\u0015",
  "22": "\u0016",
  "23": "\u0017",
  "24": "\u0018",
  "25": "\u0019",
  "26": "\u001a",
  "27": "\u001b",
  "28": "\u001c",
  "29": "\u001d",
  "30": "\u001e",
  "31": "\u001f",
  "32": " ",
  "33": "!",
  "34": "\"",
  "35": "#",
  "36": "$",
  "37": "%",
  "38": "&",
  "39": "'",
  "40": "(",
  "41": ")",
  "42": "*",
  "43": "+",
  "44": ",",
  "45": "-",
  "46": ".",
  "47": "/",
  "48": "0",
  "49": "1",
  "50": "2",
  "51": "3",
  "52": "4",
  "53": "5",
  "54": "6",
  "55": "7",
  "56": "8",
  "57": "9",
  "58": ":",
  "59": ";",
  "60": "<",
  "61": "=",
  "62": ">",
  "63": "?",
  "64": "@",
  "65": "A",
  "66": "B",
  "67": "C",
  "68": "D",
  "69": "E",
  "70": "F",
  "71": "G",
  "72": "H",
  "73": "I",
  "74": "J",
  "75": "K",
  "76": "L",
  "77": "M",
  "78": "N",
  "79": "O",
  "80": "P",
  "81": "Q",
  "82": "R",
  "83": "S",
  "84": "T",
  "85": "U",
  "86": "V",
  "87": "W",
  "88": "X",
  "89": "Y",
  "90": "Z",
  "91": "[",
  "92": "\\",
  "93": "]",
  "94": "^",
  "95": "_",
  "96": "`",
  "97": "a",
  "98": "b",
  "99": "c",
  "100": "d",
  "101": "e",
  "102": "f",
  "103": "g",
  "104": "h",
  "105": "i",
  "106": "j",
  "107": "k",
  "108": "l",
  "109": "m",
  "110": "n",
  "111": "o",
  "112": "p",
  "113": "q",
  "114": "r",
  "115": "s",
  "116": "t",
  "117": "u",
  "118": "v",
  "119": "w",
  "120": "x",
  "121": "y",
  "122": "z",
  "123": "{",
  "124": "|",
  "125": "}",
  "126": "~",
  "127": "",
  "128": "b'\\x80'",
  "129": "b'\\x81'",
  "130": "b'\\x82'",
  "131": "b'\\x83'",
  "132": "b'\\x84'",
  "133": "b'\\x85'",
  "134": "b'\\x86'",
  "135": "b'\\x87'",
  "136": "b'\\x88'",
  "137": "b'\\x89'",
  "138": "b'\\x8a'",
  "139": "b'\\x8b'",
  "140": "b'\\x8c'",
  "141": "b'\\x8d'",
  "142": "b'\\x8e'",
  "143": "b'\\x8f'",
  "144": "b'\\x90'",
  "145": "b'\\x91'",
  "146": "b'\\x92'",
  "147": "b'\\x93'",
  "148": "b'\\x94'",
  "149": "b'\\x95'",
  "150": "b'\\x96'",
  "151": "b'\\x97'",
  "152": "b'\\x98'",
  "153": "b'\\x99'",
  "154": "b'\\x9a'",
  "155": "b'\\x9b'",
  "156": "b'\\x9c'",
  "157": "b'\\x9d'",
  "158": "b'\\x9e'",
  "159": "b'\\x9f'",
  "160": "b'\\xa0'",
  "161": "b'\\xa1'",
  "162": "b'\\xa2'",
  "163": "b'\\xa3'",
  "164": "b'\\xa4'",
  "165": "b'\\xa5'",
  "166": "b'\\xa6'",
  "167": "b'\\xa7'",
  "168": "b'\\xa8'",
  "169": "b'\\xa9'",
  "170": "b'\\xaa'",
  "171": "b'\\xab'",
  "172": "b'\\xac'",
  "173": "b'\\xad'",
  "174": "b'\\xae'",
  "175": "b'\\xaf'",
  "176": "b'\\xb0'",
  "177": "b'\\xb1'",
  "178": "b'\\xb2'",
  "179": "b'\\xb3'",
  "180": "b'\\xb4'",
  "181": "b'\\xb5'",
  "182": "b'\\xb6'",
  "183": "b'\\xb7'",
  "184": "b'\\xb8'",
  "185": "b'\\xb9'",
  "186": "b'\\xba'",
  "187": "b'\\xbb'",
  "188": "b'\\xbc'",
  "189": "b'\\xbd'",
  "190": "b'\\xbe'",
  "191": "b'\\xbf'",
  "192": "b'\\xc0'",
  "193": "b'\\xc1'",
  "194": "b'\\xc2'",
  "195": "b'\\xc3'",
  "196": "b'\\xc4'",
  "197": "b'\\xc5'",
  "198": "b'\\xc6'",
  "199": "b'\\xc7'",
  "200": "b'\\xc8'",
  "201": "b'\\xc9'",
  "202": "b'\\xca'",
  "203": "b'\\xcb'",
  "204": "b'\\xcc'",
  "205": "b'\\xcd'",
  "206": "b'\\xce'",
  "207": "b'\\xcf'",
  "208": "b'\\xd0'",
  "209": "b'\\xd1'",
  "210": "b'\\xd2'",
  "211": "b'\\xd3'",
  "212": "b'\\xd4'",
  "213": "b'\\xd5'",
  "214": "b'\\xd6'",
  "215": "b'\\xd7'",
  "216": "b'\\xd8'",
  "217": "b'\\xd9'",
  "218": "b'\\xda'",
  "219": "b'\\xdb'",
  "220": "b'\\xdc'",
  "221": "b'\\xdd'",
  "222": "b'\\xde'",
  "223": "b'\\xdf'",
  "224": "b'\\xe0'",
  "225": "b'\\xe1'",
  "226": "b'\\xe2'",
  "227": "b'\\xe3'",
  "228": "b'\\xe4'",
  "229": "b'\\xe5'",
  "230": "b'\\xe6'",
  "231": "b'\\xe7'",
  "232": "b'\\xe8'",
  "233": "b'\\xe9'",
  "234": "b'\\xea'",
  "235": "b'\\xeb'",
  "236": "b'\\xec'",
  "237": "b'\\xed'",
  "238": "b'\\xee'",
  "239": "b'\\xef'",
  "240": "b'\\xf0'",
  "241": "b'\\xf1'",
  "242": "b'\\xf2'",
  "243": "b'\\xf3'",
  "244": "b'\\xf4'",
  "245": "b'\\xf5'",
  "246": "b'\\xf6'",
  "247": "b'\\xf7'",
  "248": "b'\\xf8'",
  "249": "b'\\xf9'",
  "250": "b'\\xfa'",
  "251": "b'\\xfb'",
  "252": "b'\\xfc'",
  "253": "b'\\xfd'",
  "254": "b'\\xfe'",
  "255": "b'\\xff'",
  "256": "<|endoftext|>",
  "257": " t",
  "258": "he",
  "259": " a",
  "260": " s",
  "261": " w",
  "262": "nd",
  "263": " the",
  "264": "ed",
  "265": " b",
  "266": " to",
  "267": " and",
  "268": " h",
  "269": " f",
  "270": "in",
  "271": " T",
  "272": " wa",
  "273": "re",
  "274": "it",
  "275": "ou",
  "276": " l",
  "277": " d",
  "278": " c",
  "279": " p",
  "280": "ay",
  "281": " m",
  "282": "er",
  "283": " was",
  "284": "om",
  "285": " The",
  "286": " he",
  "287": "is",
  "288": "ar",
  "289": " n",
  "290": "im",
  "291": "on",
  "292": " sa",
  "293": "id",
  "294": "ll",
  "295": " ha",
  "296": " g",
  "297": "at",
  "298": " S",
  "299": "ing",
  "300": "ot",
  "301": "en",
  "302": "an",
  "303": "le",
  "304": "or",
  "305": "ir",
  "306": "am",
  "307": "et",
  "308": " H",
  "309": " it",
  "310": " th",
  "311": "ig",
  "312": " They",
  "313": " in",
  "314": "il",
  "315": " pl",
  "316": " He",
  "317": " \"",
  "318": "ow",
  "319": "ri",
  "320": "ver",
  "321": "ut",
  "322": " be",
  "323": " u",
  "324": " said",
  "325": " play",
  "326": "ith",
  "327": " day",
  "328": " with",
  "329": "pp",
  "330": "On",
  "331": " o",
  "332": " y",
  "333": "oo",
  "334": "ked",
  "335": " r",
  "336": " her",
  "337": "ce",
  "338": " I",
  "339": " She",
  "340": "ld",
  "341": " Tim",
  "342": " his",
  "343": " st",
  "344": "ke",
  "345": " e",
  "346": " big",
  "347": "nt",
  "348": "ck",
  "349": " you",
  "350": "very",
  "351": "st",
  "352": "ve",
  "353": "end",
  "354": " on",
  "355": "un",
  "356": " happ",
  "357": "riend",
  "358": " friend",
  "359": "all",
  "360": "ily",
  "361": " L",
  "362": " they",
  "363": " we",
  "364": " had",
  "365": " not",
  "366": " li",
  "367": " up",
  "368": "her",
  "369": " want",
  "370": " of",
  "371": "ad",
  "372": "itt",
  "373": "se",
  "374": " B",
  "375": " do",
  "376": " happy",
  "377": "ent",
  "378": " M",
  "379": " very",
  "380": "es",
  "381": " that",
  "382": " saw",
  "383": "One",
  "384": "'s",
  "385": "ould",
  "386": " mom",
  "387": " for",
  "388": " sh",
  "389": "ittle",
  "390": " so",
  "391": " little",
  "392": " she",
  "393": "ime",
  "394": " ne",
  "395": "ch",
  "396": " nam",
  "397": ".\"",
  "398": " time",
  "399": " k",
  "400": "ound",
  "401": " there",
  "402": " named",
  "403": " sm",
  "404": " bo",
  "405": " Lily",
  "406": " were",
  "407": " wanted",
  "408": "out",
  "409": " but",
  "410": " friends",
  "411": "The",
  "412": "ved",
  "413": "!\"",
  "414": "ht",
  "415": " Tom",
  "416": "ird",
  "417": "el",
  "418": "al",
  "419": " bird",
  "420": " an",
  "421": "ake",
  "422": " too",
  "423": "ome",
  "424": "ug",
  "425": " It",
  "426": "ide",
  "427": " went",
  "428": " wh",
  "429": " hel",
  "430": "Once",
  "431": " is",
  "432": " all",
  "433": "ue",
  "434": " help",
  "435": " loo",
  "436": " lo",
  "437": "ter",
  "438": " A",
  "439": " upon",
  "440": "ry",
  "441": "ore",
  "442": "ind",
  "443": " fun",
  "444": "get",
  "445": " toy",
  "446": "ill",
  "447": "ame",
  "448": " as",
  "449": " at",
  "450": "ra",
  "451": " j",
  "452": " did",
  "453": "gether",
  "454": " re",
  "455": "ur",
  "456": " together",
  "457": " se",
  "458": "ack",
  "459": " cat",
  "460": "ly",
  "461": " tre",
  "462": "ood",
  "463": "ic",
  "464": " dog",
  "465": "ted",
  "466": " could",
  "467": " can",
  "468": " their",
  "469": "ard",
  "470": "ark",
  "471": "ec",
  "472": " gir",
  "473": " played",
  "474": " him",
  "475": " ball",
  "476": "?\"",
  "477": " girl",
  "478": "way",
  "479": " go",
  "480": " ro",
  "481": "hed",
  "482": " out",
  "483": "my",
  "484": " are",
  "485": " le",
  "486": "ain",
  "487": " fr",
  "488": "hen",
  "489": " kn",
  "490": "'t",
  "491": "um",
  "492": " them",
  "493": "ax",
  "494": " sad",
  "495": "ul",
  "496": " boy",
  "497": " tree",
  "498": "other",
  "499": " have",
  "500": " man",
  "501": " cl",
  "502": " looked",
  "503": " loved",
  "504": "oug",
  "505": " found",
  "506": " sp",
  "507": " star",
  "508": " Sue",
  "509": "one",
  "510": "hing",
  "511": " sc",
  "512": " back",
  "513": " Max",
  "514": "own",
  "515": "are",
  "516": " like",
  "517": "side",
  "518": "ful",
  "519": " bec",
  "520": " me",
  "521": "ight",
  "522": "ong",
  "523": " car",
  "524": " park",
  "525": "op",
  "526": "elt",
  "527": " liked",
  "528": " One",
  "529": " would",
  "530": "round",
  "531": " make",
  "532": " la",
  "533": " fa",
  "534": " felt",
  "535": "ell",
  "536": "You",
  "537": " W",
  "538": " see",
  "539": "omet",
  "540": " But",
  "541": " asked",
  "542": "ag",
  "543": " new",
  "544": " no",
  "545": "ouse",
  "546": " Sam",
  "547": " started",
  "548": "ice",
  "549": "ared",
  "550": " came",
  "551": " Ben",
  "552": " other",
  "553": " al",
  "554": "ought",
  "555": "iled",
  "556": " ag",
  "557": " somet",
  "558": " good",
  "559": " small",
  "560": " br",
  "561": "ss",
  "562": " smiled",
  "563": " say",
  "564": "ade",
  "565": "ried",
  "566": "ings",
  "567": "ob",
  "568": "pot",
  "569": " wor",
  "570": " ex",
  "571": " find",
  "572": " away",
  "573": " put",
  "574": " something",
  "575": " co",
  "576": "ia",
  "577": " what",
  "578": " made",
  "579": "ty",
  "580": " from",
  "581": " thought",
  "582": "ened",
  "583": " home",
  "584": " playing",
  "585": " every",
  "586": " wal",
  "587": "ook",
  "588": " mu",
  "589": "ach",
  "590": "uc",
  "591": "arn",
  "592": " ran",
  "593": " Spot",
  "594": " F",
  "595": "ile",
  "596": " J",
  "597": "ie",
  "598": " again",
  "599": "ave",
  "600": " some",
  "601": "dd",
  "602": " house",
  "603": " laug",
  "604": " down",
  "605": " fl",
  "606": "king",
  "607": " scared",
  "608": " took",
  "609": "ny",
  "610": "ure",
  "611": " pr",
  "612": "ick",
  "613": " toys",
  "614": " learn",
  "615": " box",
  "616": " will",
  "617": "if",
  "618": " You",
  "619": " around",
  "620": "ab",
  "621": " my",
  "622": "ret",
  "623": " things",
  "624": " your",
  "625": "ep",
  "626": " bl",
  "627": "oud",
  "628": "uck",
  "629": " when",
  "630": " fe",
  "631": "ish",
  "632": " lived",
  "633": " sun",
  "634": " then",
  "635": " sw",
  "636": "as",
  "637": "us",
  "638": ",\"",
  "639": "pped",
  "640": " ch",
  "641": " ab",
  "642": "ank",
  "643": " Mia",
  "644": " get",
  "645": "Tim",
  "646": "ump",
  "647": " lot",
  "648": "Th",
  "649": "ucy",
  "650": "oth",
  "651": "ist",
  "652": "ap",
  "653": " tried",
  "654": " got",
  "655": " know",
  "656": " says",
  "657": " who",
  "658": "ited",
  "659": "ust",
  "660": " kne",
  "661": " many",
  "662": "nder",
  "663": " about",
  "664": " int",
  "665": "Lily",
  "666": " pret",
  "667": " any",
  "668": " dec",
  "669": " red",
  "670": " D",
  "671": "ive",
  "672": " knew",
  "673": "ise",
  "674": "ous",
  "675": "ace",
  "676": " more",
  "677": " pic",
  "678": " care",
  "679": " hug",
  "680": "ally",
  "681": "au",
  "682": "qu",
  "683": "fter",
  "684": " water",
  "685": " learned",
  "686": " best",
  "687": " became",
  "688": " po",
  "689": " Lucy",
  "690": " v",
  "691": "ause",
  "692": " op",
  "693": " outside",
  "694": "b'\\xe2\\x80'",
  "695": " gre",
  "696": " exc",
  "697": "urp",
  "698": " laughed",
  "699": "ways",
  "700": " look",
  "701": " always",
  "702": " show",
  "703": " So",
  "704": " decid",
  "705": " un",
  "706": " Bob",
  "707": " room",
  "708": " because",
  "709": " decided",
  "710": " ho",
  "711": "fe",
  "712": " eat",
  "713": "ite",
  "714": " into",
  "715": " both",
  "716": "ant",
  "717": " jump",
  "718": " And",
  "719": " Mom",
  "720": "ers",
  "721": " pe",
  "722": "udd",
  "723": "They",
  "724": " dad",
  "725": " one",
  "726": "nn",
  "727": " ke",
  "728": " feel",
  "729": " nice",
  "730": " excited",
  "731": " this",
  "732": " fast",
  "733": " E",
  "734": "Yes",
  "735": " long",
  "736": "Tom",
  "737": " run",
  "738": " sk",
  "739": " told",
  "740": "urpr",
  "741": " am",
  "742": " inside",
  "743": "ull",
  "744": " tr",
  "745": "our",
  "746": " surpr",
  "747": " mo",
  "748": "ink",
  "749": "iny",
  "750": " pretty",
  "751": " sor",
  "752": " take",
  "753": "Wh",
  "754": "og",
  "755": "nna",
  "756": " gra",
  "757": " each",
  "758": " sl",
  "759": "lew",
  "760": " gave",
  "761": " str",
  "762": " much",
  "763": " how",
  "764": "ged",
  "765": "imal",
  "766": " animal",
  "767": " rock",
  "768": "ara",
  "769": " need",
  "770": "etter",
  "771": "But",
  "772": " or",
  "773": " than",
  "774": " tow",
  "775": "ven",
  "776": " C",
  "777": " under",
  "778": " old",
  "779": "ess",
  "780": " sorry",
  "781": "ge",
  "782": "ised",
  "783": "ro",
  "784": "urt",
  "785": " cle",
  "786": " walked",
  "787": "and",
  "788": " fish",
  "789": " clo",
  "790": " hand",
  "791": " bear",
  "792": "ft",
  "793": " ta",
  "794": "ase",
  "795": " His",
  "796": " kind",
  "797": "urn",
  "798": " We",
  "799": " te",
  "800": "here",
  "801": " just",
  "802": " flow",
  "803": " happened",
  "804": " didn",
  "805": "pl",
  "806": " food",
  "807": " list",
  "808": " animals",
  "809": " try",
  "810": " hig",
  "811": " ide",
  "812": " wat",
  "813": " near",
  "814": "ine",
  "815": " sky",
  "816": "ched",
  "817": " sn",
  "818": "ving",
  "819": "rom",
  "820": " fi",
  "821": " idea",
  "822": " us",
  "823": " better",
  "824": " heard",
  "825": " tw",
  "826": " bug",
  "827": " Amy",
  "828": "gry",
  "829": " its",
  "830": "ff",
  "831": " let",
  "832": "pec",
  "833": "ate",
  "834": " en",
  "835": " share",
  "836": "able",
  "837": " careful",
  "838": "ex",
  "839": "Thank",
  "840": " if",
  "841": " fly",
  "842": "Mom",
  "843": " stor",
  "844": "ial",
  "845": " Th",
  "846": " flew",
  "847": "more",
  "848": " anymore",
  "849": " spec",
  "850": " special",
  "851": " com",
  "852": "lf",
  "853": " lots",
  "854": "ion",
  "855": " never",
  "856": " dan",
  "857": " by",
  "858": " wind",
  "859": " don",
  "860": " fo",
  "861": " tal",
  "862": "ream",
  "863": " clean",
  "864": " bu",
  "865": " gr",
  "866": " love",
  "867": "rm",
  "868": " end",
  "869": " Then",
  "870": "\n\n",
  "871": "ber",
  "872": "ort",
  "873": " even",
  "874": "ople",
  "875": " fore",
  "876": " mag",
  "877": "udden",
  "878": " over",
  "879": " cake",
  "880": " shiny",
  "881": " hard",
  "882": " Anna",
  "883": " turn",
  "884": " col",
  "885": " after",
  "886": " book",
  "887": " bad",
  "888": "uddenly",
  "889": " safe",
  "890": "ady",
  "891": "Let",
  "892": " fam",
  "893": " hurt",
  "894": " proud",
  "895": " surprised",
  "896": "imb",
  "897": "pected",
  "898": " high",
  "899": " Every",
  "900": "bb",
  "901": " people",
  "902": " cu",
  "903": " door",
  "904": " climb",
  "905": "arden",
  "906": " garden",
  "907": " ground",
  "908": " gl",
  "909": " come",
  "910": " opened",
  "911": " picked",
  "912": " loud",
  "913": "expected",
  "914": " unexpected",
  "915": " bea",
  "916": " che",
  "917": "As",
  "918": "ild",
  "919": " blue",
  "920": " give",
  "921": " way",
  "922": "'m",
  "923": " im",
  "924": " hugged",
  "925": " still",
  "926": " color",
  "927": " thanked",
  "928": " ever",
  "929": " From",
  "930": " far",
  "931": " call",
  "932": " Her",
  "933": " When",
  "934": " off",
  "935": "ip",
  "936": " K",
  "937": "No",
  "938": "age",
  "939": "ummy",
  "940": " Sara",
  "941": " magic",
  "942": "iz",
  "943": "ough",
  "944": " jumped",
  "945": " should",
  "946": "ool",
  "947": "uff",
  "948": " kid",
  "949": " family",
  "950": " smile",
  "951": "kay",
  "952": " par",
  "953": " walk",
  "954": " place",
  "955": "hes",
  "956": "ct",
  "957": " In",
  "958": "ture",
  "959": " now",
  "960": " great",
  "961": " ma",
  "962": " qu",
  "963": "les",
  "964": "itty",
  "965": " stay",
  "966": " pa",
  "967": "em",
  "968": " strong",
  "969": " sto",
  "970": " forest",
  "971": " unt",
  "972": " bra",
  "973": "ane",
  "974": " stick",
  "975": " P",
  "976": " bro",
  "977": " beaut",
  "978": " until",
  "979": "dy",
  "980": " frog",
  "981": " boat",
  "982": "oon",
  "983": "xt",
  "984": " squ",
  "985": " next",
  "986": "ning",
  "987": "lease",
  "988": "ak",
  "989": " happily",
  "990": " kids",
  "991": " app",
  "992": " listen",
  "993": "iful",
  "994": "ies",
  "995": " beautiful",
  "996": "unny",
  "997": "th",
  "998": "oy",
  "999": " dra",
  "1000": " clos",
  "1001": " helped",
  "1002": " showed",
  "1003": " story",
  "1004": " while",
  "1005": " rain",
  "1006": "be",
  "1007": " tra",
  "1008": "rel",
  "1009": " picture",
  "1010": " imp",
  "1011": " town",
  "1012": "pt",
  "1013": " being",
  "1014": "ress",
  "1015": "ary",
  "1016": "It",
  "1017": " everyone",
  "1018": " mor",
  "1019": " hat",
  "1020": "ree",
  "1021": " ad",
  "1022": " rem",
  "1023": " stopped",
  "1024": " game",
  "1025": " met",
  "1026": " called",
  "1027": "Now",
  "1028": "He",
  "1029": "Can",
  "1030": "uffy",
  "1031": " ca",
  "1032": " wo",
  "1033": " angry",
  "1034": " truck",
  "1035": " open",
  "1036": " cry",
  "1037": " soft",
  "1038": " yummy",
  "1039": "ger",
  "1040": "When",
  "1041": "by",
  "1042": " bed",
  "1043": " Kitty",
  "1044": " Let",
  "1045": "vent",
  "1046": " lost",
  "1047": " keep",
  "1048": " warm",
  "1049": " Sally",
  "1050": " brave",
  "1051": " Wh",
  "1052": " mouse",
  "1053": " couldn",
  "1054": " ate",
  "1055": "so",
  "1056": " de",
  "1057": "fore",
  "1058": " watch",
  "1059": "dded",
  "1060": " also",
  "1061": " R",
  "1062": " doll",
  "1063": " fell",
  "1064": " leave",
  "1065": "ished",
  "1066": " two",
  "1067": " face",
  "1068": " green",
  "1069": "iss",
  "1070": "gan",
  "1071": " noise",
  "1072": " flowers",
  "1073": "What",
  "1074": "bit",
  "1075": "irst",
  "1076": "ble",
  "1077": "owl",
  "1078": "abbit",
  "1079": " where",
  "1080": "ock",
  "1081": " soon",
  "1082": "luffy",
  "1083": "self",
  "1084": "illy",
  "1085": " hear",
  "1086": " slide",
  "1087": " rabbit",
  "1088": " before",
  "1089": " pus",
  "1090": " hole",
  "1091": " sat",
  "1092": "irrel",
  "1093": "ired",
  "1094": " use",
  "1095": " hands",
  "1096": "ma",
  "1097": " nodded",
  "1098": "”",
  "1099": "Then",
  "1100": "“",
  "1101": "Hi",
  "1102": "That",
  "1103": " kept",
  "1104": " expl",
  "1105": "ear",
  "1106": " squirrel",
  "1107": "Look",
  "1108": " pain",
  "1109": " going",
  "1110": " cook",
  "1111": " store",
  "1112": " birds",
  "1113": "day",
  "1114": " having",
  "1115": " sing",
  "1116": "az",
  "1117": " funny",
  "1118": " Fluffy",
  "1119": " catch",
  "1120": " ey",
  "1121": "aybe",
  "1122": "uit",
  "1123": "ught",
  "1124": "leep",
  "1125": "Ben",
  "1126": " fin",
  "1127": " bunny",
  "1128": " bus",
  "1129": " bre",
  "1130": " Can",
  "1131": " fix",
  "1132": " yell",
  "1133": "uch",
  "1134": " think",
  "1135": "ange",
  "1136": " wr",
  "1137": " tired",
  "1138": " looking",
  "1139": " cra",
  "1140": " our",
  "1141": " used",
  "1142": "thing",
  "1143": " pull",
  "1144": " work",
  "1145": " kit",
  "1146": "air",
  "1147": " Now",
  "1148": "We",
  "1149": " wait",
  "1150": " sound",
  "1151": " has",
  "1152": " jo",
  "1153": " beh",
  "1154": " thr",
  "1155": " others",
  "1156": " pond",
  "1157": " ask",
  "1158": " sunny",
  "1159": "ting",
  "1160": " G",
  "1161": " mean",
  "1162": "chen",
  "1163": " kitchen",
  "1164": " talk",
  "1165": " dr",
  "1166": "led",
  "1167": " flo",
  "1168": "ng",
  "1169": "ember",
  "1170": " Jo",
  "1171": "rew",
  "1172": " head",
  "1173": " pie",
  "1174": " tri",
  "1175": " first",
  "1176": " dif",
  "1177": "ello",
  "1178": " eyes",
  "1179": "Hello",
  "1180": "joy",
  "1181": " real",
  "1182": " fav",
  "1183": " flower",
  "1184": " mommy",
  "1185": " z",
  "1186": " right",
  "1187": " mess",
  "1188": " con",
  "1189": "orn",
  "1190": " swe",
  "1191": "ath",
  "1192": "ious",
  "1193": " import",
  "1194": " “",
  "1195": " cold",
  "1196": " remember",
  "1197": " Jack",
  "1198": " vo",
  "1199": " duck",
  "1200": " race",
  "1201": " Do",
  "1202": " curi",
  "1203": "imes",
  "1204": " sand",
  "1205": " moral",
  "1206": "zy",
  "1207": " shared",
  "1208": " advent",
  "1209": " party",
  "1210": " enjoy",
  "1211": " okay",
  "1212": " making",
  "1213": " bright",
  "1214": "ac",
  "1215": "At",
  "1216": "llow",
  "1217": " important",
  "1218": "reed",
  "1219": "ster",
  "1220": "ount",
  "1221": " hop",
  "1222": " curious",
  "1223": " worked",
  "1224": " dress",
  "1225": " own",
  "1226": " hid",
  "1227": " cla",
  "1228": " favor",
  "1229": " yard",
  "1230": " sleep",
  "1231": " began",
  "1232": " dir",
  "1233": " mon",
  "1234": " favorite",
  "1235": "hn",
  "1236": " thing",
  "1237": " tall",
  "1238": " hill",
  "1239": " ice",
  "1240": "Wow",
  "1241": "Don",
  "1242": " rest",
  "1243": " here",
  "1244": " draw",
  "1245": " Fin",
  "1246": " bag",
  "1247": " dis",
  "1248": " ri",
  "1249": "ken",
  "1250": " tell",
  "1251": " watched",
  "1252": " follow",
  "1253": " agreed",
  "1254": " move",
  "1255": "que",
  "1256": "eded",
  "1257": "co",
  "1258": "ect",
  "1259": "lly",
  "1260": " block",
  "1261": " bel",
  "1262": " night",
  "1263": " surprise",
  "1264": " hun",
  "1265": " stop",
  "1266": " pick",
  "1267": " cut",
  "1268": " trees",
  "1269": " hot",
  "1270": "aper",
  "1271": " This",
  "1272": " grass",
  "1273": " behind",
  "1274": " sho",
  "1275": "After",
  "1276": " dark",
  "1277": " worry",
  "1278": " voice",
  "1279": "ied",
  "1280": " walking",
  "1281": " floor",
  "1282": " song",
  "1283": " tail",
  "1284": " ru",
  "1285": " table",
  "1286": " top",
  "1287": " Dad",
  "1288": " lion",
  "1289": " forg",
  "1290": " farm",
  "1291": " sweet",
  "1292": " lady",
  "1293": "Max",
  "1294": " please",
  "1295": "fere",
  "1296": " shout",
  "1297": " colors",
  "1298": " differe",
  "1299": " read",
  "1300": " leaves",
  "1301": " closer",
  "1302": " butter",
  "1303": " turned",
  "1304": "ign",
  "1305": "aring",
  "1306": "’",
  "1307": " wood",
  "1308": " needed",
  "1309": "isy",
  "1310": " tast",
  "1311": "Why",
  "1312": " del",
  "1313": " feeling",
  "1314": " cried",
  "1315": "ered",
  "1316": " adventure",
  "1317": " piece",
  "1318": " cars",
  "1319": " Mr",
  "1320": " Suddenly",
  "1321": " does",
  "1322": " different",
  "1323": " laugh",
  "1324": " hungry",
  "1325": " fire",
  "1326": " roll",
  "1327": "Sue",
  "1328": "Anna",
  "1329": " full",
  "1330": "ike",
  "1331": " As",
  "1332": "bo",
  "1333": " yellow",
  "1334": " cr",
  "1335": " friendly",
  "1336": " hair",
  "1337": " paper",
  "1338": " prin",
  "1339": " swing",
  "1340": " per",
  "1341": "oom",
  "1342": " wet",
  "1343": " touch",
  "1344": "Sam",
  "1345": "cked",
  "1346": " fruit",
  "1347": " broken",
  "1348": " That",
  "1349": "ient",
  "1350": "ater",
  "1351": "ached",
  "1352": "bye",
  "1353": " another",
  "1354": " ready",
  "1355": " climbed",
  "1356": " prom",
  "1357": " dance",
  "1358": " Bobo",
  "1359": " pretend",
  "1360": " listened",
  "1361": "where",
  "1362": " danc",
  "1363": "ppy",
  "1364": " light",
  "1365": " swim",
  "1366": " running",
  "1367": " only",
  "1368": " gone",
  "1369": "bbed",
  "1370": " plan",
  "1371": " smell",
  "1372": "sh",
  "1373": "Suddenly",
  "1374": "av",
  "1375": " close",
  "1376": "She",
  "1377": "ila",
  "1378": " blocks",
  "1379": " amaz",
  "1380": " wonder",
  "1381": " Jane",
  "1382": "aby",
  "1383": "ndma",
  "1384": "So",
  "1385": " hold",
  "1386": " wall",
  "1387": "ins",
  "1388": " All",
  "1389": "Sara",
  "1390": " repl",
  "1391": " sees",
  "1392": " helping",
  "1393": "oney",
  "1394": " glad",
  "1395": " pu",
  "1396": " slow",
  "1397": " reached",
  "1398": " ac",
  "1399": " goodbye",
  "1400": " Timmy",
  "1401": "red",
  "1402": " ant",
  "1403": " been",
  "1404": " dri",
  "1405": " fight",
  "1406": " cool",
  "1407": " less",
  "1408": " pushed",
  "1409": " butterf",
  "1410": "iced",
  "1411": "af",
  "1412": " cream",
  "1413": " window",
  "1414": "Mia",
  "1415": " moment",
  "1416": " fair",
  "1417": "ather",
  "1418": " explore",
  "1419": " hide",
  "1420": " O",
  "1421": " Everyone",
  "1422": " must",
  "1423": " ar",
  "1424": " trying",
  "1425": " sit",
  "1426": " snow",
  "1427": " stuck",
  "1428": " baby",
  "1429": " might",
  "1430": " perf",
  "1431": " wag",
  "1432": " name",
  "1433": " done",
  "1434": " apple",
  "1435": " ste",
  "1436": "icy",
  "1437": " coming",
  "1438": " bit",
  "1439": " child",
  "1440": " quick",
  "1441": " bar",
  "1442": "ized",
  "1443": " thank",
  "1444": " fall",
  "1445": " balloon",
  "1446": " looks",
  "1447": " scary",
  "1448": " buy",
  "1449": " wished",
  "1450": " held",
  "1451": "ash",
  "1452": " train",
  "1453": " underst",
  "1454": " doing",
  "1455": " dirty",
  "1456": " build",
  "1457": " dream",
  "1458": " din",
  "1459": "In",
  "1460": "ott",
  "1461": " left",
  "1462": "ames",
  "1463": " air",
  "1464": "avy",
  "1465": " shouted",
  "1466": " mar",
  "1467": "aisy",
  "1468": " brother",
  "1469": " win",
  "1470": "key",
  "1471": " books",
  "1472": " bran",
  "1473": " replied",
  "1474": " count",
  "1475": " tiny",
  "1476": " spl",
  "1477": " clapped",
  "1478": " reach",
  "1479": " why",
  "1480": " owl",
  "1481": " dro",
  "1482": " wise",
  "1483": "andy",
  "1484": " pulled",
  "1485": " woods",
  "1486": "ely",
  "1487": " three",
  "1488": "'re",
  "1489": " through",
  "1490": " grow",
  "1491": " cloud",
  "1492": " sure",
  "1493": " chair",
  "1494": " land",
  "1495": " treat",
  "1496": " swam",
  "1497": " butterfly",
  "1498": " seen",
  "1499": "ask",
  "1500": " mat",
  "1501": " cup",
  "1502": " sometimes",
  "1503": "outh",
  "1504": " mouth",
  "1505": " pink",
  "1506": " nest",
  "1507": "ix",
  "1508": " cre",
  "1509": " fill",
  "1510": "ph",
  "1511": "Okay",
  "1512": " job",
  "1513": " grabbed",
  "1514": "pe",
  "1515": " colorful",
  "1516": "oup",
  "1517": "uddy",
  "1518": "ield",
  "1519": " join",
  "1520": "art",
  "1521": " plant",
  "1522": " lesson",
  "1523": " stayed",
  "1524": "ower",
  "1525": " There",
  "1526": " cont",
  "1527": " bigger",
  "1528": " remembered",
  "1529": " paint",
  "1530": " waved",
  "1531": " After",
  "1532": " ve",
  "1533": "ds",
  "1534": "This",
  "1535": " Mommy",
  "1536": "Oh",
  "1537": "room",
  "1538": " waited",
  "1539": " clot",
  "1540": " blew",
  "1541": " enjoyed",
  "1542": " cast",
  "1543": " quickly",
  "1544": " clothes",
  "1545": " broke",
  "1546": "cle",
  "1547": "inging",
  "1548": " noticed",
  "1549": " set",
  "1550": "Jo",
  "1551": " anything",
  "1552": " likes",
  "1553": "ation",
  "1554": " games",
  "1555": " pictures",
  "1556": "ucky",
  "1557": " miss",
  "1558": " gif",
  "1559": " heavy",
  "1560": " alone",
  "1561": " gent",
  "1562": " sea",
  "1563": " pen",
  "1564": " mus",
  "1565": "ries",
  "1566": " tight",
  "1567": " world",
  "1568": " bott",
  "1569": " spot",
  "1570": "der",
  "1571": " year",
  "1572": " pot",
  "1573": " hopped",
  "1574": "aught",
  "1575": "asure",
  "1576": " turns",
  "1577": "ton",
  "1578": "Her",
  "1579": "orm",
  "1580": " pat",
  "1581": " arm",
  "1582": " threw",
  "1583": " mix",
  "1584": "lc",
  "1585": " bike",
  "1586": " himself",
  "1587": "ctor",
  "1588": " won",
  "1589": " Buddy",
  "1590": " everywhere",
  "1591": " tower",
  "1592": "Lucy",
  "1593": " white",
  "1594": " followed",
  "1595": "less",
  "1596": "amp",
  "1597": " comp",
  "1598": " ride",
  "1599": " ju",
  "1600": " key",
  "1601": "row",
  "1602": "man",
  "1603": " black",
  "1604": " wrong",
  "1605": "Bob",
  "1606": "olly",
  "1607": " What",
  "1608": " je",
  "1609": "ape",
  "1610": "ze",
  "1611": "Spot",
  "1612": " makes",
  "1613": "arent",
  "1614": "thy",
  "1615": " break",
  "1616": " music",
  "1617": " delic",
  "1618": " forgot",
  "1619": "inin",
  "1620": " deep",
  "1621": "ee",
  "1622": "ued",
  "1623": "\".",
  "1624": " castle",
  "1625": " wear",
  "1626": " bee",
  "1627": "ister",
  "1628": " pol",
  "1629": "ner",
  "1630": "cess",
  "1631": " parent",
  "1632": "ves",
  "1633": "Do",
  "1634": " em",
  "1635": " Daisy",
  "1636": " round",
  "1637": " hit",
  "1638": "iet",
  "1639": "ang",
  "1640": " quiet",
  "1641": " monster",
  "1642": "oun",
  "1643": "ully",
  "1644": " vis",
  "1645": " danced",
  "1646": " wants",
  "1647": " nap",
  "1648": "ance",
  "1649": " John",
  "1650": " dry",
  "1651": " stu",
  "1652": "zz",
  "1653": " understand",
  "1654": " bor",
  "1655": " talked",
  "1656": "os",
  "1657": "rot",
  "1658": "ross",
  "1659": " leaf",
  "1660": " faster",
  "1661": "fully",
  "1662": "ren",
  "1663": "ts",
  "1664": " bowl",
  "1665": " leg",
  "1666": " brought",
  "1667": "itten",
  "1668": " cookies",
  "1669": " side",
  "1670": "anan",
  "1671": " smart",
  "1672": " sister",
  "1673": "From",
  "1674": " rel",
  "1675": " poin",
  "1676": " res",
  "1677": " mum",
  "1678": " Inside",
  "1679": "cy",
  "1680": "His",
  "1681": "ards",
  "1682": " happen",
  "1683": " branch",
  "1684": " sec",
  "1685": "eddy",
  "1686": " someone",
  "1687": " sharing",
  "1688": " well",
  "1689": " rocks",
  "1690": " button",
  "1691": " finished",
  "1692": " really",
  "1693": " sign",
  "1694": " flying",
  "1695": " contin",
  "1696": "ence",
  "1697": " Maybe",
  "1698": " fox",
  "1699": " ra",
  "1700": " silly",
  "1701": "ipp",
  "1702": " worried",
  "1703": " visit",
  "1704": "gy",
  "1705": " Lila",
  "1706": " To",
  "1707": " Joe",
  "1708": " dinner",
  "1709": " que",
  "1710": " today",
  "1711": " secret",
  "1712": " ele",
  "1713": " gu",
  "1714": " Soon",
  "1715": " everything",
  "1716": " danger",
  "1717": " beach",
  "1718": " el",
  "1719": " perfect",
  "1720": "John",
  "1721": " smiles",
  "1722": " wish",
  "1723": " shin",
  "1724": " filled",
  "1725": "ast",
  "1726": " Sarah",
  "1727": " pig",
  "1728": " welc",
  "1729": " eating",
  "1730": " river",
  "1731": " sang",
  "1732": " At",
  "1733": " fur",
  "1734": " children",
  "1735": " pieces",
  "1736": " pudd",
  "1737": " continued",
  "1738": " Em",
  "1739": " else",
  "1740": " gi",
  "1741": " bite",
  "1742": " ear",
  "1743": " king",
  "1744": " promised",
  "1745": " field",
  "1746": " parents",
  "1747": "While",
  "1748": " carefully",
  "1749": " realized",
  "1750": " free",
  "1751": " snack",
  "1752": " creat",
  "1753": "ead",
  "1754": "itting",
  "1755": " orange",
  "1756": " jar",
  "1757": "imi",
  "1758": " spr",
  "1759": " drink",
  "1760": " drag",
  "1761": " yes",
  "1762": "Maybe",
  "1763": "stead",
  "1764": " mud",
  "1765": "Just",
  "1766": " rolled",
  "1767": " cow",
  "1768": " blank",
  "1769": " crying",
  "1770": " laughing",
  "1771": " Billy",
  "1772": " words",
  "1773": "Amy",
  "1774": " soup",
  "1775": "ses",
  "1776": " doctor",
  "1777": " purp",
  "1778": " snake",
  "1779": " blanket",
  "1780": " Z",
  "1781": "cket",
  "1782": " grandma",
  "1783": " amazing",
  "1784": " brown",
  "1785": "ord",
  "1786": " sail",
  "1787": " candy",
  "1788": " enough",
  "1789": " gift",
  "1790": " bath",
  "1791": " pet",
  "1792": " throw",
  "1793": " boun",
  "1794": " bottle",
  "1795": " fairy",
  "1796": " without",
  "1797": "Fin",
  "1798": " purple",
  "1799": "ich",
  "1800": " lon",
  "1801": " asks",
  "1802": "ons",
  "1803": " barked",
  "1804": "chool",
  "1805": " wagged",
  "1806": " crab",
  "1807": " lonely",
  "1808": " moved",
  "1809": "ire",
  "1810": " whe",
  "1811": "used",
  "1812": "fort",
  "1813": " monkey",
  "1814": " closed",
  "1815": " morning",
  "1816": "iver",
  "1817": "ased",
  "1818": "ises",
  "1819": ".”",
  "1820": " dangerous",
  "1821": "ub",
  "1822": "unch",
  "1823": " school",
  "1824": " welcome",
  "1825": " att",
  "1826": " money",
  "1827": "gg",
  "1828": " owner",
  "1829": " sitting",
  "1830": "ey",
  "1831": " lake",
  "1832": " Gra",
  "1833": " paw",
  "1834": " getting",
  "1835": " shop",
  "1836": "ere",
  "1837": "ated",
  "1838": "!”",
  "1839": " higher",
  "1840": " strange",
  "1841": " shoes",
  "1842": "ush",
  "1843": " treasure",
  "1844": " mail",
  "1845": " living",
  "1846": " apples",
  "1847": " -",
  "1848": " stre",
  "1849": " talking",
  "1850": " shining",
  "1851": " pre",
  "1852": " Tommy",
  "1853": " past",
  "1854": " mother",
  "1855": "althy",
  "1856": "una",
  "1857": " Ch",
  "1858": " egg",
  "1859": " smo",
  "1860": "ible",
  "1861": " Bl",
  "1862": " road",
  "1863": " runs",
  "1864": " chee",
  "1865": "Mommy",
  "1866": " coat",
  "1867": " mad",
  "1868": "vel",
  "1869": " teddy",
  "1870": " pass",
  "1871": " caught",
  "1872": "board",
  "1873": " Mimi",
  "1874": " wings",
  "1875": "fish",
  "1876": " delicious",
  "1877": " nose",
  "1878": " stand",
  "1879": " letter",
  "1880": " buck",
  "1881": " belie",
  "1882": " dragon",
  "1883": " fan",
  "1884": "cks",
  "1885": " years",
  "1886": " bat",
  "1887": "set",
  "1888": " sam",
  "1889": "asket",
  "1890": " same",
  "1891": "ol",
  "1892": " sear",
  "1893": "app",
  "1894": "est",
  "1895": " basket",
  "1896": "ail",
  "1897": "ella",
  "1898": " start",
  "1899": " puddle",
  "1900": "ches",
  "1901": " thinks",
  "1902": " ph",
  "1903": "igh",
  "1904": "itch",
  "1905": " coll",
  "1906": " scream",
  "1907": "igg",
  "1908": " days",
  "1909": "isk",
  "1910": " farmer",
  "1911": "arm",
  "1912": " swings",
  "1913": " pill",
  "1914": " finally",
  "1915": " mine",
  "1916": " kite",
  "1917": "sw",
  "1918": " tom",
  "1919": "bow",
  "1920": " answ",
  "1921": " whist",
  "1922": " hoped",
  "1923": " push",
  "1924": " fit",
  "1925": " tasty",
  "1926": "emy",
  "1927": " gentle",
  "1928": " wore",
  "1929": " herself",
  "1930": " trou",
  "1931": "ined",
  "1932": " singing",
  "1933": " cray",
  "1934": " hor",
  "1935": " arri",
  "1936": "up",
  "1937": " vill",
  "1938": " stone",
  "1939": " cho",
  "1940": " bush",
  "1941": " shap",
  "1942": " teach",
  "1943": "phant",
  "1944": "Please",
  "1945": " bell",
  "1946": "ier",
  "1947": " dropped",
  "1948": " carrot",
  "1949": " Jen",
  "1950": "llie",
  "1951": "ama",
  "1952": "aughty",
  "1953": " hiding",
  "1954": "ract",
  "1955": " naughty",
  "1956": " woke",
  "1957": "isa",
  "1958": "iskers",
  "1959": " pers",
  "1960": " bring",
  "1961": " ben",
  "1962": " rainbow",
  "1963": " belong",
  "1964": "sy",
  "1965": " pile",
  "1966": " cour",
  "1967": "'ll",
  "1968": " teac",
  "1969": "sc",
  "1970": " twins",
  "1971": "OK",
  "1972": " cheered",
  "1973": " spin",
  "1974": " shapes",
  "1975": " bow",
  "1976": " seem",
  "1977": " sack",
  "1978": " elephant",
  "1979": " shell",
  "1980": "erry",
  "1981": " min",
  "1982": " grew",
  "1983": " touc",
  "1984": " spoon",
  "1985": " course",
  "1986": " lunch",
  "1987": " shook",
  "1988": " street",
  "1989": "Jack",
  "1990": " juice",
  "1991": " plane",
  "1992": "irth",
  "1993": " rope",
  "1994": "irthday",
  "1995": " puppy",
  "1996": " joy",
  "1997": " Blue",
  "1998": "ipped",
  "1999": "fused",
  "2000": " seed",
  "2001": " village",
  "2002": " arrived",
  "2003": " able",
  "2004": " forever",
  "2005": " cheese",
  "2006": "eb",
  "2007": " nut",
  "2008": " cute",
  "2009": " fence",
  "2010": "ball",
  "2011": " rob",
  "2012": "idge",
  "2013": " wonderful",
  "2014": "ale",
  "2015": "Good",
  "2016": " spo",
  "2017": " prob",
  "2018": " des",
  "2019": " inc",
  "2020": "\n ",
  "2021": " touched",
  "2022": " war",
  "2023": " few",
  "2024": "lla",
  "2025": " sounds",
  "2026": " Fred",
  "2027": " bread",
  "2028": " power",
  "2029": " Whiskers",
  "2030": "col",
  "2031": "umb",
  "2032": " Emma",
  "2033": "lem",
  "2034": " eas",
  "2035": " birthday",
  "2036": "ilk",
  "2037": " bench",
  "2038": " shake",
  "2039": " most",
  "2040": " carry",
  "2041": " bugs",
  "2042": "ass",
  "2043": " teacher",
  "2044": " problem",
  "2045": "br",
  "2046": " Thank",
  "2047": " busy",
  "2048": " heart",
  "2049": " feels",
  "2050": " band",
  "2051": " shy",
  "2052": " neck",
  "2053": " corn",
  "2054": " promise",
  "2055": "Finally",
  "2056": " rec",
  "2057": "eter",
  "2058": " cave",
  "2059": " milk",
  "2060": " wra",
  "2061": " Remy",
  "2062": " storm",
  "2063": "irp",
  "2064": " robot",
  "2065": "gly",
  "2066": " pop",
  "2067": " honey",
  "2068": "ountain",
  "2069": " believe",
  "2070": "ost",
  "2071": " kiss",
  "2072": "ato",
  "2073": " Bella",
  "2074": " ob",
  "2075": " dolls",
  "2076": " upset",
  "2077": " patient",
  "2078": "irt",
  "2079": "adow",
  "2080": "eared",
  "2081": " helpful",
  "2082": " slowly",
  "2083": " towards",
  "2084": " ugly",
  "2085": " dist",
  "2086": " gray",
  "2087": " pocket",
  "2088": "urtle",
  "2089": " live",
  "2090": " holding",
  "2091": "umpy",
  "2092": "oggy",
  "2093": "ian",
  "2094": " meet",
  "2095": " stories",
  "2096": " spark",
  "2097": " balls",
  "2098": " disapp",
  "2099": " cir",
  "2100": "arp",
  "2101": " suc",
  "2102": " shr",
  "2103": "ator",
  "2104": " late",
  "2105": " driver",
  "2106": "alm",
  "2107": " cover",
  "2108": " magical",
  "2109": "ove",
  "2110": " noises",
  "2111": " spid",
  "2112": " dirt",
  "2113": " amazed",
  "2114": " glow",
  "2115": " young",
  "2116": " seat",
  "2117": " sharp",
  "2118": "pping",
  "2119": "unt",
  "2120": " mark",
  "2121": " turtle",
  "2122": "ourn",
  "2123": " Le",
  "2124": " Mark",
  "2125": " seek",
  "2126": " puzz",
  "2127": "read",
  "2128": " splas",
  "2129": " journ",
  "2130": " kitten",
  "2131": " treats",
  "2132": "umber",
  "2133": "ling",
  "2134": " bucket",
  "2135": " wild",
  "2136": " zoom",
  "2137": " ba",
  "2138": " fold",
  "2139": " sandw",
  "2140": " mist",
  "2141": "fortable",
  "2142": " bubb",
  "2143": " rud",
  "2144": " sug",
  "2145": " princess",
  "2146": " horse",
  "2147": " Lisa",
  "2148": " trip",
  "2149": " rude",
  "2150": " mach",
  "2151": " string",
  "2152": " cloth",
  "2153": " hugs",
  "2154": " part",
  "2155": " stars",
  "2156": " taking",
  "2157": "ens",
  "2158": "Sure",
  "2159": " di",
  "2160": " lem",
  "2161": " Jim",
  "2162": "iling",
  "2163": " organ",
  "2164": " wheel",
  "2165": "epend",
  "2166": " instead",
  "2167": " net",
  "2168": " card",
  "2169": "ung",
  "2170": " huge",
  "2171": " coin",
  "2172": " sick",
  "2173": "Of",
  "2174": " fighting",
  "2175": "Be",
  "2176": " pillow",
  "2177": "oose",
  "2178": " inv",
  "2179": " sal",
  "2180": " lucky",
  "2181": " Finally",
  "2182": " wide",
  "2183": " cookie",
  "2184": " Ann",
  "2185": "Hey",
  "2186": "aur",
  "2187": " spicy",
  "2188": " forget",
  "2189": "Lila",
  "2190": " drove",
  "2191": " spider",
  "2192": " Just",
  "2193": "pper",
  "2194": "ors",
  "2195": "rill",
  "2196": " craw",
  "2197": " songs",
  "2198": "not",
  "2199": " bone",
  "2200": "Later",
  "2201": " fixed",
  "2202": " joke",
  "2203": " life",
  "2204": " cannot",
  "2205": " whistle",
  "2206": " path",
  "2207": " moon",
  "2208": " giant",
  "2209": "lower",
  "2210": "oph",
  "2211": "ert",
  "2212": " shelf",
  "2213": "ular",
  "2214": " comes",
  "2215": " taste",
  "2216": " snowman",
  "2217": " write",
  "2218": "ize",
  "2219": "den",
  "2220": " thin",
  "2221": " chased",
  "2222": " last",
  "2223": " worm",
  "2224": " cart",
  "2225": " Grandma",
  "2226": " grab",
  "2227": " cou",
  "2228": " foot",
  "2229": " Come",
  "2230": " ash",
  "2231": " wave",
  "2232": " grumpy",
  "2233": " hidden",
  "2234": " On",
  "2235": "erest",
  "2236": " peace",
  "2237": " machine",
  "2238": " bark",
  "2239": " daddy",
  "2240": " wasn",
  "2241": " change",
  "2242": " interest",
  "2243": " drive",
  "2244": " sel",
  "2245": " sour",
  "2246": " oven",
  "2247": " landed",
  "2248": " suddenly",
  "2249": " Bu",
  "2250": " confused",
  "2251": "elly",
  "2252": " across",
  "2253": " stepped",
  "2254": " adventures",
  "2255": " ser",
  "2256": " boss",
  "2257": "to",
  "2258": " fruits",
  "2259": " Leo",
  "2260": " takes",
  "2261": " myster",
  "2262": " N",
  "2263": "ity",
  "2264": " phone",
  "2265": " later",
  "2266": " ducks",
  "2267": " exp",
  "2268": " pan",
  "2269": " ce",
  "2270": "St",
  "2271": " Luna",
  "2272": " smooth",
  "2273": " selfish",
  "2274": " val",
  "2275": " bought",
  "2276": "ery",
  "2277": " tie",
  "2278": " missed",
  "2279": " drew",
  "2280": " legs",
  "2281": " tea",
  "2282": " spe",
  "2283": " fle",
  "2284": " ent",
  "2285": " jog",
  "2286": " smelly",
  "2287": "ope",
  "2288": "To",
  "2289": "ever",
  "2290": "mer",
  "2291": " sticks",
  "2292": " wolf",
  "2293": " wash",
  "2294": " zoo",
  "2295": "oop",
  "2296": " grate",
  "2297": "ose",
  "2298": "let",
  "2299": " sheep",
  "2300": " messy",
  "2301": " emp",
  "2302": " chick",
  "2303": " empty",
  "2304": "pect",
  "2305": " clever",
  "2306": " calm",
  "2307": " fil",
  "2308": "?”",
  "2309": "eth",
  "2310": " step",
  "2311": " dogs",
  "2312": " beak",
  "2313": " grateful",
  "2314": " Molly",
  "2315": "kin",
  "2316": " fing",
  "2317": " hope",
  "2318": " watching",
  "2319": " pour",
  "2320": "ife",
  "2321": " lay",
  "2322": " sleepy",
  "2323": "dge",
  "2324": "amed",
  "2325": " though",
  "2326": "irpy",
  "2327": " rad",
  "2328": "Soon",
  "2329": " interesting",
  "2330": "izz",
  "2331": "izzy",
  "2332": "ugg",
  "2333": "ions",
  "2334": " slid",
  "2335": " Cat",
  "2336": " clouds",
  "2337": " splash",
  "2338": " puzzle",
  "2339": " faces",
  "2340": "yard",
  "2341": " med",
  "2342": "erly",
  "2343": " ign",
  "2344": "box",
  "2345": " backyard",
  "2346": "ars",
  "2347": " imag",
  "2348": "iger",
  "2349": " feather",
  "2350": " line",
  "2351": " whole",
  "2352": " Momo",
  "2353": " finish",
  "2354": " banan",
  "2355": " Jill",
  "2356": "wel",
  "2357": " seemed",
  "2358": " act",
  "2359": " prot",
  "2360": "Come",
  "2361": " lemon",
  "2362": " jelly",
  "2363": " lift",
  "2364": " rocket",
  "2365": " Doggy",
  "2366": " along",
  "2367": " healthy",
  "2368": " plate",
  "2369": " quest",
  "2370": " save",
  "2371": " explain",
  "2372": " Daddy",
  "2373": "unk",
  "2374": "llo",
  "2375": " tid",
  "2376": " smelled",
  "2377": " Ollie",
  "2378": " mot",
  "2379": " weak",
  "2380": " longer",
  "2381": " jewel",
  "2382": "ward",
  "2383": " fake",
  "2384": " Be",
  "2385": " easy",
  "2386": " pract",
  "2387": " spray",
  "2388": " su",
  "2389": " pool",
  "2390": " Bunny",
  "2391": " drum",
  "2392": " pin",
  "2393": " scar",
  "2394": " Jerry",
  "2395": " kick",
  "2396": " nothing",
  "2397": " arms",
  "2398": "ont",
  "2399": " maybe",
  "2400": " emb",
  "2401": " anyone",
  "2402": " rod",
  "2403": " neigh",
  "2404": " forgive",
  "2405": " crayons",
  "2406": " av",
  "2407": "iting",
  "2408": " supp",
  "2409": "oomy",
  "2410": " wondered",
  "2411": " yog",
  "2412": " saved",
  "2413": "ming",
  "2414": " ring",
  "2415": " tidy",
  "2416": "ment",
  "2417": "onest",
  "2418": " explor",
  "2419": " working",
  "2420": " Chirpy",
  "2421": "ork",
  "2422": " cross",
  "2423": " trouble",
  "2424": " gives",
  "2425": "irr",
  "2426": " front",
  "2427": "rass",
  "2428": "arrass",
  "2429": " shirt",
  "2430": " neighb",
  "2431": "sp",
  "2432": " onto",
  "2433": "ocked",
  "2434": " fancy",
  "2435": " ship",
  "2436": " mind",
  "2437": " embarrass",
  "2438": " jumping",
  "2439": " pack",
  "2440": "arge",
  "2441": " sur",
  "2442": "orrow",
  "2443": " such",
  "2444": " With",
  "2445": "aughter",
  "2446": "ually",
  "2447": " puts",
  "2448": " lad",
  "2449": "ult",
  "2450": " gently",
  "2451": " honest",
  "2452": " Their",
  "2453": " wing",
  "2454": "oc",
  "2455": " cheer",
  "2456": " mistake",
  "2457": " Why",
  "2458": " sol",
  "2459": " dish",
  "2460": " person",
  "2461": " waiting",
  "2462": " queen",
  "2463": " chew",
  "2464": " cozy",
  "2465": " pointed",
  "2466": " deer",
  "2467": " bossy",
  "2468": "urse",
  "2469": " Mary",
  "2470": " af",
  "2471": "oof",
  "2472": " bal",
  "2473": " building",
  "2474": " lock",
  "2475": "Kitty",
  "2476": " ladder",
  "2477": " large",
  "2478": " prince",
  "2479": " lovely",
  "2480": " daughter",
  "2481": " stood",
  "2482": " plants",
  "2483": "ned",
  "2484": "we",
  "2485": "gest",
  "2486": "And",
  "2487": " My",
  "2488": " cleaned",
  "2489": "era",
  "2490": " tomorrow",
  "2491": " search",
  "2492": " swimming",
  "2493": " places",
  "2494": " loves",
  "2495": "aw",
  "2496": " hum",
  "2497": " ret",
  "2498": "ones",
  "2499": " ants",
  "2500": " Somet",
  "2501": " wip",
  "2502": " teeth",
  "2503": " law",
  "2504": " splashed",
  "2505": "aced",
  "2506": "My",
  "2507": "raid",
  "2508": " pizz",
  "2509": " lazy",
  "2510": " return",
  "2511": " boring",
  "2512": " afraid",
  "2513": " bounce",
  "2514": " van",
  "2515": " pretended",
  "2516": " true",
  "2517": "Sally",
  "2518": " answer",
  "2519": " rich",
  "2520": " sandwich",
  "2521": " nearby",
  "2522": " goes",
  "2523": " Together",
  "2524": " number",
  "2525": "oman",
  "2526": " scarf",
  "2527": " match",
  "2528": " gather",
  "2529": " screamed",
  "2530": " woman",
  "2531": " pizza",
  "2532": "pa",
  "2533": " couch",
  "2534": " tool",
  "2535": " appeared",
  "2536": " stra",
  "2537": " chase",
  "2538": " pri",
  "2539": " furry",
  "2540": "ado",
  "2541": " powerful",
  "2542": "vous",
  "2543": " trust",
  "2544": " hang",
  "2545": " eag",
  "2546": " fear",
  "2547": " creative",
  "2548": " gun",
  "2549": " ashamed",
  "2550": " stret",
  "2551": "ek",
  "2552": " gen",
  "2553": " success",
  "2554": "icked",
  "2555": " If",
  "2556": " map",
  "2557": " TV",
  "2558": " matter",
  "2559": "uce",
  "2560": " cand",
  "2561": " clown",
  "2562": " sold",
  "2563": " St",
  "2564": " test",
  "2565": " circle",
  "2566": " ner",
  "2567": "oppy",
  "2568": " Bobby",
  "2569": " noisy",
  "2570": "elp",
  "2571": " nervous",
  "2572": " wearing",
  "2573": " motor",
  "2574": " hello",
  "2575": " icy",
  "2576": " rub",
  "2577": " boot",
  "2578": " chocol",
  "2579": " drank",
  "2580": " flag",
  "2581": " shadow",
  "2582": " saf",
  "2583": " impress",
  "2584": " note",
  "2585": " dig",
  "2586": "ute",
  "2587": " tries",
  "2588": " snee",
  "2589": " smiling",
  "2590": " carried",
  "2591": " class",
  "2592": "rag",
  "2593": "ina",
  "2594": " soap",
  "2595": " Bird",
  "2596": "osaur",
  "2597": "ndpa",
  "2598": " Please",
  "2599": " Don",
  "2600": "mb",
  "2601": "Stop",
  "2602": "nic",
  "2603": " tick",
  "2604": " protect",
  "2605": " picnic",
  "2606": " Go",
  "2607": " hero",
  "2608": "iff",
  "2609": " chocolate",
  "2610": " mel",
  "2611": " lamp",
  "2612": " ap",
  "2613": "irror",
  "2614": " knee",
  "2615": "ensive",
  "2616": " lead",
  "2617": " rare",
  "2618": " gate",
  "2619": " expensive",
  "2620": " gold",
  "2621": " dinosaur",
  "2622": " mirror",
  "2623": " gener",
  "2624": " wand",
  "2625": " tent",
  "2626": " these",
  "2627": " polite",
  "2628": " bald",
  "2629": " journey",
  "2630": " glue",
  "2631": "ual",
  "2632": " weird",
  "2633": " shark",
  "2634": " Tiny",
  "2635": " whale",
  "2636": " sugar",
  "2637": " Sp",
  "2638": " fat",
  "2639": "Help",
  "2640": "itter",
  "2641": " respect",
  "2642": " mysterious",
  "2643": " har",
  "2644": " eld",
  "2645": " pres",
  "2646": " towel",
  "2647": " feet",
  "2648": " hur",
  "2649": " reg",
  "2650": " Benny",
  "2651": " clap",
  "2652": "isp",
  "2653": " poor",
  "2654": " bean",
  "2655": " march",
  "2656": " disco",
  "2657": " closet",
  "2658": " tele",
  "2659": " How",
  "2660": " embarrassed",
  "2661": " peaceful",
  "2662": " dizzy",
  "2663": "arl",
  "2664": " bridge",
  "2665": " dancing",
  "2666": " tasted",
  "2667": " balloons",
  "2668": "scape",
  "2669": " print",
  "2670": "issors",
  "2671": " cri",
  "2672": " brush",
  "2673": "ote",
  "2674": "ness",
  "2675": " decor",
  "2676": " mod",
  "2677": " generous",
  "2678": " kicked",
  "2679": " rough",
  "2680": " Sometimes",
  "2681": "any",
  "2682": " relie",
  "2683": "Tommy",
  "2684": " gigg",
  "2685": " bake",
  "2686": "ser",
  "2687": " sque",
  "2688": " pump",
  "2689": " elderly",
  "2690": " whisp",
  "2691": " mic",
  "2692": "owed",
  "2693": " moms",
  "2694": " crown",
  "2695": " become",
  "2696": " Bear",
  "2697": "lebr",
  "2698": " painted",
  "2699": "imp",
  "2700": " wis",
  "2701": " cap",
  "2702": " group",
  "2703": "airs",
  "2704": " thick",
  "2705": " vase",
  "2706": " tape",
  "2707": " sco",
  "2708": " scissors",
  "2709": "ventually",
  "2710": " celebr",
  "2711": "lves",
  "2712": " pay",
  "2713": " team",
  "2714": " clock",
  "2715": " word",
  "2716": " wouldn",
  "2717": " yelled",
  "2718": " incred",
  "2719": " mixed",
  "2720": " log",
  "2721": " drawing",
  "2722": " Br",
  "2723": " lose",
  "2724": " stir",
  "2725": " clear",
  "2726": " 3",
  "2727": " Mama",
  "2728": " blow",
  "2729": "ragile",
  "2730": " cage",
  "2731": " glass",
  "2732": "ced",
  "2733": "asp",
  "2734": " norm",
  "2735": " spread",
  "2736": " space",
  "2737": " scare",
  "2738": " incredible",
  "2739": "ume",
  "2740": " mighty",
  "2741": " fine",
  "2742": "rob",
  "2743": " knocked",
  "2744": " adm",
  "2745": " horn",
  "2746": " sock",
  "2747": " normal",
  "2748": " fool",
  "2749": " ignor",
  "2750": " guess",
  "2751": " fragile",
  "2752": " corner",
  "2753": "ustr",
  "2754": "Dad",
  "2755": " wrap",
  "2756": " stubb",
  "2757": "ym",
  "2758": " mountain",
  "2759": " hose",
  "2760": "getable",
  "2761": " balance",
  "2762": "cient",
  "2763": " branches",
  "2764": " stubborn",
  "2765": " famous",
  "2766": " vegetable",
  "2767": " cone",
  "2768": "ighed",
  "2769": " Ducky",
  "2770": " organized",
  "2771": " barn",
  "2772": " yarn",
  "2773": " ancient",
  "2774": " mis",
  "2775": "erries",
  "2776": " fright",
  "2777": "ony",
  "2778": " ter",
  "2779": " berries",
  "2780": " twist",
  "2781": " creature",
  "2782": " roar",
  "2783": " which",
  "2784": " unus",
  "2785": " present",
  "2786": "aking",
  "2787": " feed",
  "2788": " frustr",
  "2789": "alous",
  "2790": " unusual",
  "2791": " burn",
  "2792": "robe",
  "2793": " taught",
  "2794": " jealous",
  "2795": " eggs",
  "2796": " board",
  "2797": " pray",
  "2798": " Some",
  "2799": "port",
  "2800": " relieved",
  "2801": " hears",
  "2802": " foolish",
  "2803": " jam",
  "2804": "Where",
  "2805": " spoiled",
  "2806": " spent",
  "2807": "anged",
  "2808": " terri",
  "2809": " square",
  "2810": "dle",
  "2811": " wake",
  "2812": " exploring",
  "2813": " understood",
  "2814": " shoe",
  "2815": " wagon",
  "2816": " fier",
  "2817": " measure",
  "2818": " fierce",
  "2819": " frightened",
  "2820": "orry",
  "2821": "bby",
  "2822": " frustrated",
  "2823": "ique",
  "2824": " rose",
  "2825": " dead",
  "2826": " chicken",
  "2827": "lace",
  "2828": " wrote",
  "2829": " waves",
  "2830": " swan",
  "2831": " comfortable",
  "2832": " toug",
  "2833": "ray",
  "2834": " sunf",
  "2835": " unique",
  "2836": " tells",
  "2837": "fic",
  "2838": " sell",
  "2839": " discover",
  "2840": " searched",
  "2841": " necklace",
  "2842": " dull",
  "2843": " ord",
  "2844": " bloom",
  "2845": " police",
  "2846": " diffic",
  "2847": " washed",
  "2848": " useful",
  "2849": " chest",
  "2850": " finding",
  "2851": " clay",
  "2852": " cab",
  "2853": " tough",
  "2854": "ond",
  "2855": " goat",
  "2856": " breath",
  "2857": " straw",
  "2858": " pir",
  "2859": " dug",
  "2860": " exam",
  "2861": "Together",
  "2862": " jet",
  "2863": " difficult",
  "2864": " Ella",
  "2865": "berry",
  "2866": "kn",
  "2867": "unn",
  "2868": " cats",
  "2869": " Pe",
  "2870": " paws",
  "2871": " add",
  "2872": " nosy",
  "2873": " ham",
  "2874": "alk",
  "2875": " Tr",
  "2876": " mask",
  "2877": " sword",
  "2878": " cabin",
  "2879": " crazy",
  "2880": " bathroom",
  "2881": "known",
  "2882": " bubbles",
  "2883": " clum",
  "2884": " tiger",
  "2885": " pumpkin",
  "2886": "shine",
  "2887": " finger",
  "2888": " bitter",
  "2889": " witch",
  "2890": " covered",
  "2891": " clumsy",
  "2892": " unknown",
  "2893": " stat",
  "2894": " ending",
  "2895": " thankful",
  "2896": " salad",
  "2897": " adventur",
  "2898": " asking",
  "2899": "als",
  "2900": " terrible",
  "2901": " potato",
  "2902": "light",
  "2903": " '",
  "2904": " Rex",
  "2905": "yal",
  "2906": " adventurous",
  "2907": " drop",
  "2908": " Andy",
  "2909": " nuts",
  "2910": " stuff",
  "2911": " joined",
  "2912": "Me",
  "2913": " wealthy",
  "2914": " body",
  "2915": "bled",
  "2916": "cil",
  "2917": " sunshine",
  "2918": " gloomy",
  "2919": " rat",
  "2920": " unl",
  "2921": "com",
  "2922": " pencil",
  "2923": " ind",
  "2924": "reen",
  "2925": "iant",
  "2926": " mov",
  "2927": "pill",
  "2928": " guit",
  "2929": "Here",
  "2930": " value",
  "2931": " collect",
  "2932": "irsty",
  "2933": " loyal",
  "2934": " perform",
  "2935": " yourself",
  "2936": " acorn",
  "2937": " tomato",
  "2938": " medic",
  "2939": "Every",
  "2940": " stri",
  "2941": " hairy",
  "2942": " exciting",
  "2943": " Many",
  "2944": "selves",
  "2945": " moving",
  "2946": " Brown",
  "2947": "erpill",
  "2948": " suit",
  "2949": " caterpill",
  "2950": " shoot",
  "2951": " statue",
  "2952": " bored",
  "2953": " sunflower",
  "2954": "und",
  "2955": " Jimmy",
  "2956": " yours",
  "2957": " record",
  "2958": " shore",
  "2959": " medicine",
  "2960": " thirsty",
  "2961": " changed",
  "2962": " Will",
  "2963": "corn",
  "2964": " nods",
  "2965": "ground",
  "2966": " Al",
  "2967": " trick",
  "2968": " dove",
  "2969": "xible",
  "2970": " smaller",
  "2971": " cro",
  "2972": " delicate",
  "2973": " market",
  "2974": " knowing",
  "2975": "ormous",
  "2976": "gu",
  "2977": " heal",
  "2978": "Jim",
  "2979": " banana",
  "2980": " pepper",
  "2981": " hoop",
  "2982": " enormous",
  "2983": "ory",
  "2984": " guitar",
  "2985": "rilliant",
  "2986": " asleep",
  "2987": "live",
  "2988": " neighbor",
  "2989": " snacks",
  "2990": " brilliant",
  "2991": " rh",
  "2992": " solve",
  "2993": " relax",
  "2994": " hats",
  "2995": "ying",
  "2996": " seeds",
  "2997": "iness",
  "2998": " counted",
  "2999": " caterpillar",
  "3000": " frown",
  "3001": " popcorn",
  "3002": " lab",
  "3003": "Who",
  "3004": "Mum",
  "3005": "fted",
  "3006": " cher",
  "3007": "gust",
  "3008": " flash",
  "3009": " While",
  "3010": " explained",
  "3011": "lph",
  "3012": "iddle",
  "3013": "If",
  "3014": " jolly",
  "3015": "inal",
  "3016": "Inside",
  "3017": " shine",
  "3018": " stage",
  "3019": " disgust",
  "3020": "How",
  "3021": "inky",
  "3022": " carrots",
  "3023": "ates",
  "3024": " orig",
  "3025": " cheap",
  "3026": "ungle",
  "3027": " flexible",
  "3028": " remind",
  "3029": " U",
  "3030": "ilt",
  "3031": " times",
  "3032": "ident",
  "3033": " shiver",
  "3034": "anut",
  "3035": " knife",
  "3036": " depend",
  "3037": " dolph",
  "3038": " boats",
  "3039": " dough",
  "3040": " jungle",
  "3041": "ict",
  "3042": " cries",
  "3043": " original",
  "3044": " cost",
  "3045": "mbre",
  "3046": " careless",
  "3047": " umbre",
  "3048": " stove",
  "3049": " Instead",
  "3050": " disgusting",
  "3051": " meal",
  "3052": " four",
  "3053": "apped",
  "3054": " muff",
  "3055": " cube",
  "3056": " Your",
  "3057": "most",
  "3058": " zip",
  "3059": " melon",
  "3060": " middle",
  "3061": "edient",
  "3062": " fridge",
  "3063": " harm",
  "3064": " hay",
  "3065": "pid",
  "3066": " waff",
  "3067": " gar",
  "3068": " sighed",
  "3069": " cam",
  "3070": "Sorry",
  "3071": " successful",
  "3072": "land",
  "3073": "pes",
  "3074": " brace",
  "3075": " borrow",
  "3076": " almost",
  "3077": " stupid",
  "3078": " triang",
  "3079": "ud",
  "3080": " squee",
  "3081": " crane",
  "3082": " fountain",
  "3083": " fearful",
  "3084": " design",
  "3085": "ages",
  "3086": " obedient",
  "3087": "enny",
  "3088": "opter",
  "3089": "icopter",
  "3090": " eager",
  "3091": " vegetables",
  "3092": "Are",
  "3093": " magn",
  "3094": " er",
  "3095": " tor",
  "3096": " scr",
  "3097": " mole",
  "3098": "erable",
  "3099": " cryst",
  "3100": " helicopter",
  "3101": " filthy",
  "3102": "umpet",
  "3103": " comb",
  "3104": "There",
  "3105": " hammer",
  "3106": " prize",
  "3107": " dependable",
  "3108": " trumpet",
  "3109": " raced",
  "3110": "dile",
  "3111": " miserable",
  "3112": "codile",
  "3113": " spotted",
  "3114": " jack",
  "3115": " aunt",
  "3116": " choose",
  "3117": " stones",
  "3118": " bottom",
  "3119": " fig",
  "3120": " gets",
  "3121": " stamp",
  "3122": " slipped",
  "3123": " No",
  "3124": " houses",
  "3125": " compet",
  "3126": " collar",
  "3127": " independ",
  "3128": " painting",
  "3129": " dest",
  "3130": " batter",
  "3131": "berries",
  "3132": " shows",
  "3133": " escape",
  "3134": " low",
  "3135": " bedroom",
  "3136": " mailbox",
  "3137": " belonged",
  "3138": " jacket",
  "3139": " flute",
  "3140": " taken",
  "3141": " tied",
  "3142": "ours",
  "3143": " raven",
  "3144": " serious",
  "3145": " parrot",
  "3146": "iable",
  "3147": " Sammy",
  "3148": " pebb",
  "3149": " lifted",
  "3150": " fork",
  "3151": " eng",
  "3152": " study",
  "3153": " garage",
  "3154": " island",
  "3155": " independent",
  "3156": "host",
  "3157": " ref",
  "3158": " moder",
  "3159": " ang",
  "3160": " cheerful",
  "3161": "met",
  "3162": " goose",
  "3163": " Sn",
  "3164": " standing",
  "3165": " sil",
  "3166": " impressive",
  "3167": " crocodile",
  "3168": " built",
  "3169": " umbrella",
  "3170": " lean",
  "3171": " gem",
  "3172": " toast",
  "3173": " helmet",
  "3174": " rug",
  "3175": " jug",
  "3176": " thoughtful",
  "3177": " ghost",
  "3178": " torn",
  "3179": "unnel",
  "3180": " tank",
  "3181": " jeep",
  "3182": " sauce",
  "3183": " modern",
  "3184": " tunnel",
  "3185": " hopping",
  "3186": " beet",
  "3187": " playful",
  "3188": "oin",
  "3189": "Molly",
  "3190": " crayon",
  "3191": " crystal",
  "3192": " Jenny",
  "3193": " hurts",
  "3194": " gum",
  "3195": " cere",
  "3196": "oto",
  "3197": "amond",
  "3198": " peanut",
  "3199": "inary",
  "3200": " spring",
  "3201": " anx",
  "3202": " needs",
  "3203": " crawled",
  "3204": " anxious",
  "3205": "aser",
  "3206": "cean",
  "3207": " ocean",
  "3208": " kissed",
  "3209": " movie",
  "3210": " magnet",
  "3211": "io",
  "3212": " steal",
  "3213": " diamond",
  "3214": " quar",
  "3215": " crack",
  "3216": " sink",
  "3217": " reliable",
  "3218": " arrow",
  "3219": "llip",
  "3220": "llipop",
  "3221": " candle",
  "3222": "atch",
  "3223": " picks",
  "3224": " tricks",
  "3225": " using",
  "3226": " twig",
  "3227": " disappoin",
  "3228": " cereal",
  "3229": " lollipop",
  "3230": " deaf",
  "3231": " mush",
  "3232": " troubled",
  "3233": " popular",
  "3234": " bracelet",
  "3235": " humble",
  "3236": " tooth",
  "3237": " pige",
  "3238": " competit",
  "3239": " helpless",
  "3240": " pant",
  "3241": " press",
  "3242": " smoke",
  "3243": " camera",
  "3244": "ipe",
  "3245": " tears",
  "3246": " helps",
  "3247": "cut",
  "3248": "cles",
  "3249": " quarrel",
  "3250": "aff",
  "3251": " ruined",
  "3252": " ones",
  "3253": " locked",
  "3254": "ti",
  "3255": "appy",
  "3256": "pack",
  "3257": " cop",
  "3258": " passed",
  "3259": " mug",
  "3260": " charm",
  "3261": "Their",
  "3262": " Even",
  "3263": "axi",
  "3264": "ulu",
  "3265": " rid",
  "3266": " cact",
  "3267": "urkey",
  "3268": " happiness",
  "3269": " mushroom",
  "3270": " beetle",
  "3271": " wrapped",
  "3272": " pian",
  "3273": "comfortable",
  "3274": " spend",
  "3275": "ext",
  "3276": " triangle",
  "3277": " belt",
  "3278": "coa",
  "3279": "Timmy",
  "3280": " uncomfortable",
  "3281": " harder",
  "3282": "ilty",
  "3283": " persist",
  "3284": " engine",
  "3285": "zed",
  "3286": " guilty",
  "3287": " scale",
  "3288": "het",
  "3289": " wander",
  "3290": " piano",
  "3291": "atter",
  "3292": " env",
  "3293": " answered",
  "3294": "iv",
  "3295": " meant",
  "3296": " boys",
  "3297": "edy",
  "3298": " taxi",
  "3299": " scoot",
  "3300": " lit",
  "3301": "cident",
  "3302": " turkey",
  "3303": " flashlight",
  "3304": "Mama",
  "3305": " True",
  "3306": " angel",
  "3307": " licked",
  "3308": " spill",
  "3309": " nail",
  "3310": " fluffy",
  "3311": " tag",
  "3312": " coins",
  "3313": "hetti",
  "3314": "aghetti",
  "3315": " squash",
  "3316": " bull",
  "3317": " comet",
  "3318": " disappointed",
  "3319": " cactus",
  "3320": " ordinary",
  "3321": " liz",
  "3322": " tire",
  "3323": " fis",
  "3324": " roof",
  "3325": " yaw",
  "3326": " invited",
  "3327": " spaghetti",
  "3328": " mitten",
  "3329": " rode",
  "3330": " charming",
  "3331": "ube",
  "3332": " harmless",
  "3333": " grace",
  "3334": " comput",
  "3335": " cocoa",
  "3336": " figure",
  "3337": " pants",
  "3338": "ubby",
  "3339": " persistent",
  "3340": " wheat",
  "3341": " speed",
  "3342": " rep",
  "3343": " dolphin",
  "3344": "Jane",
  "3345": " ticket",
  "3346": " mop",
  "3347": " delight",
  "3348": " giving",
  "3349": " walks",
  "3350": " tap",
  "3351": " bubble",
  "3352": " compass",
  "3353": " shape",
  "3354": "ief",
  "3355": " wire",
  "3356": " avoc",
  "3357": "hip",
  "3358": " whispered",
  "3359": "ither",
  "3360": " dust",
  "3361": "asses",
  "3362": " pow",
  "3363": " ears",
  "3364": " poured",
  "3365": " accident",
  "3366": "ging",
  "3367": " shade",
  "3368": "uth",
  "3369": " pale",
  "3370": " gifted",
  "3371": " bees",
  "3372": " rag",
  "3373": " create",
  "3374": "Bobo",
  "3375": " chubby",
  "3376": " practiced",
  "3377": " compassion",
  "3378": " lizard",
  "3379": "anger",
  "3380": " load",
  "3381": "ellig",
  "3382": " saus",
  "3383": " Jake",
  "3384": " tube",
  "3385": " radio",
  "3386": " office",
  "3387": " knot",
  "3388": " intellig",
  "3389": " sailed",
  "3390": "zzy",
  "3391": " friendship",
  "3392": " restless",
  "3393": " coo",
  "3394": " vide",
  "3395": " soldier",
  "3396": " regular",
  "3397": " needle",
  "3398": " planet",
  "3399": " pasta",
  "3400": " half",
  "3401": " desk",
  "3402": " computer",
  "3403": " shrimp",
  "3404": " loop",
  "3405": " libr",
  "3406": "ulif",
  "3407": " sle",
  "3408": " glove",
  "3409": " forward",
  "3410": "opl",
  "3411": "eropl",
  "3412": " carp",
  "3413": " cush",
  "3414": "opard",
  "3415": "ccol",
  "3416": "weet",
  "3417": "ccoli",
  "3418": "omes",
  "3419": " aeropl",
  "3420": " thread",
  "3421": "cream",
  "3422": " onion",
  "3423": " harsh",
  "3424": "essie",
  "3425": " sheet",
  "3426": " eraser",
  "3427": " hunt",
  "3428": " yogurt",
  "3429": " screen",
  "3430": " nod",
  "3431": " caulif",
  "3432": " questions",
  "3433": " envious",
  "3434": " carpet",
  "3435": "cycle",
  "3436": " acce",
  "3437": " haircut",
  "3438": " raft",
  "3439": " spun",
  "3440": " pro",
  "3441": " bri",
  "3442": " inse",
  "3443": " prun",
  "3444": " stream",
  "3445": " deliver",
  "3446": " lying",
  "3447": " melt",
  "3448": " cauliflower",
  "3449": " vine",
  "3450": " pigeon",
  "3451": " intelligent",
  "3452": " feathers",
  "3453": " returned",
  "3454": " alert",
  "3455": " sleeping",
  "3456": " pony",
  "3457": " peach",
  "3458": " leopard",
  "3459": " stronger",
  "3460": " pengu",
  "3461": "ebook",
  "3462": " notebook",
  "3463": "azz",
  "3464": "ebra",
  "3465": " happening",
  "3466": " trunk",
  "3467": "ye",
  "3468": " stretch",
  "3469": " trap",
  "3470": " thief",
  "3471": " destro",
  "3472": " barber",
  "3473": " question",
  "3474": " Lulu",
  "3475": " pipe",
  "3476": " bicy",
  "3477": " Today",
  "3478": " OK",
  "3479": "rework",
  "3480": " nicely",
  "3481": "ulb",
  "3482": " competitive",
  "3483": " skin",
  "3484": " barrel",
  "3485": " poem",
  "3486": " parade",
  "3487": " broccoli",
  "3488": " Buzz",
  "3489": " dreams",
  "3490": " crawl",
  "3491": " mill",
  "3492": " learning",
  "3493": " decide",
  "3494": " attract",
  "3495": " insect",
  "3496": " excite",
  "3497": " bin",
  "3498": " wheels",
  "3499": " zebra",
  "3500": " louder",
  "3501": "dom",
  "3502": " bulb",
  "3503": "ital",
  "3504": "asing",
  "3505": " ways",
  "3506": " celebrate",
  "3507": " ador",
  "3508": " Sh",
  "3509": " scooter",
  "3510": "atient",
  "3511": " compassionate",
  "3512": " hosp",
  "3513": " boxes",
  "3514": " distant",
  "3515": " track",
  "3516": "umbers",
  "3517": " firework",
  "3518": " envel",
  "3519": " hospital",
  "3520": " pebble",
  "3521": " behave",
  "3522": " hook",
  "3523": "isted",
  "3524": " judge",
  "3525": " attractive",
  "3526": "vator",
  "3527": "ten",
  "3528": " homes",
  "3529": "igator",
  "3530": " cricket",
  "3531": " rubbed",
  "3532": " deter",
  "3533": " aeroplane",
  "3534": " adorable",
  "3535": " enc",
  "3536": " diary",
  "3537": " elevator",
  "3538": " pit",
  "3539": " surf",
  "3540": "Sarah",
  "3541": " Pipp",
  "3542": " vi",
  "3543": " truth",
  "3544": " marry",
  "3545": " walls",
  "3546": " scatter",
  "3547": " graceful",
  "3548": " sniff",
  "3549": " order",
  "3550": "ats",
  "3551": " determ",
  "3552": " uncle",
  "3553": " spinning",
  "3554": " rice",
  "3555": " travel",
  "3556": " seal",
  "3557": " bushes",
  "3558": " Emily",
  "3559": "urb",
  "3560": " slept",
  "3561": " saying",
  "3562": " sort",
  "3563": " ignorant",
  "3564": " eventually",
  "3565": " chalk",
  "3566": "tern",
  "3567": " numbers",
  "3568": " biggest",
  "3569": "chair",
  "3570": " themselves",
  "3571": " bandage",
  "3572": " ed",
  "3573": " tray",
  "3574": " univer",
  "3575": " ink",
  "3576": " alligator",
  "3577": " motorcycle",
  "3578": " speak",
  "3579": "lcan",
  "3580": " oy",
  "3581": "Go",
  "3582": " send",
  "3583": " tem",
  "3584": "usie",
  "3585": " impatient",
  "3586": "urtain",
  "3587": " yoga",
  "3588": " skip",
  "3589": " curtain",
  "3590": " Poppy",
  "3591": "lcano",
  "3592": " disturb",
  "3593": " counting",
  "3594": " Fr",
  "3595": " tummy",
  "3596": " vest",
  "3597": " bounced",
  "3598": " armchair",
  "3599": "ete",
  "3600": "aged",
  "3601": " skull",
  "3602": " base",
  "3603": " cooked",
  "3604": " herb",
  "3605": "irit",
  "3606": " enth",
  "3607": " film",
  "3608": " club",
  "3609": "ision",
  "3610": " hipp",
  "3611": " wallet",
  "3612": " destroy",
  "3613": " shut",
  "3614": " avocado",
  "3615": "olin",
  "3616": " earth",
  "3617": " compl",
  "3618": " enthus",
  "3619": " volcano",
  "3620": " week",
  "3621": " enthusia",
  "3622": " stranger",
  "3623": " laughs",
  "3624": "aky",
  "3625": " wiped",
  "3626": " cleaning",
  "3627": "rage",
  "3628": " cushion",
  "3629": " metal",
  "3630": "Billy",
  "3631": " city",
  "3632": " Peter",
  "3633": " spell",
  "3634": " steak",
  "3635": " stack",
  "3636": "ating",
  "3637": " unlock",
  "3638": " jellyfish",
  "3639": " skipped",
  "3640": " pattern",
  "3641": " lively",
  "3642": " hedge",
  "3643": "lies",
  "3644": " guard",
  "3645": " bicycle",
  "3646": " showing",
  "3647": "elery",
  "3648": " grown",
  "3649": " envelope",
  "3650": " sweater",
  "3651": " nurse",
  "3652": " forth",
  "3653": " ple",
  "3654": " loudly",
  "3655": " journal",
  "3656": " bump",
  "3657": " dive",
  "3658": " Polly",
  "3659": "ject",
  "3660": " zipp",
  "3661": " polish",
  "3662": " muffin",
  "3663": " impro",
  "3664": "umbled",
  "3665": " pointing",
  "3666": " violin",
  "3667": " chain",
  "3668": " cupboard",
  "3669": " library",
  "3670": " hippo",
  "3671": "Gra",
  "3672": " pirate",
  "3673": "Give",
  "3674": " Fo",
  "3675": "nam",
  "3676": " station",
  "3677": " missile",
  "3678": " meat",
  "3679": " celery",
  "3680": "oby",
  "3681": " purse",
  "3682": " decorate",
  "3683": " kay",
  "3684": " resc",
  "3685": "ache",
  "3686": " yach",
  "3687": " split",
  "3688": " prep",
  "3689": " post",
  "3690": " buttons",
  "3691": " temp",
  "3692": " playground",
  "3693": "htub",
  "3694": " yet",
  "3695": " soar",
  "3696": " bathtub",
  "3697": " brothers",
  "3698": " case",
  "3699": " shells",
  "3700": " salt",
  "3701": " complet",
  "3702": " gathered",
  "3703": " lights",
  "3704": "ffe",
  "3705": "work",
  "3706": " strawberry",
  "3707": "ffee",
  "3708": " sneeze",
  "3709": " falls",
  "3710": " ribb",
  "3711": " cable",
  "3712": " knows",
  "3713": "nament",
  "3714": " yacht",
  "3715": "uring",
  "3716": " ornament",
  "3717": " folder",
  "3718": "etty",
  "3719": " once",
  "3720": " kayak",
  "3721": "under",
  "3722": " shield",
  "3723": " screw",
  "3724": " led",
  "3725": " tripped",
  "3726": " edge",
  "3727": " trucks",
  "3728": "bul",
  "3729": " whenever",
  "3730": " waffle",
  "3731": " Birdy",
  "3732": " wishes",
  "3733": " teleph",
  "3734": " modest",
  "3735": " complain",
  "3736": " pine",
  "3737": " poke",
  "3738": " cell",
  "3739": " bags",
  "3740": "par",
  "3741": " mixer",
  "3742": " mild",
  "3743": " troph",
  "3744": " reading",
  "3745": "ushed",
  "3746": "bulance",
  "3747": " Mum",
  "3748": " itself",
  "3749": " ambulance",
  "3750": " cartoon",
  "3751": " telephone",
  "3752": " encou",
  "3753": " father",
  "3754": " fu",
  "3755": " calling",
  "3756": "ention",
  "3757": " video",
  "3758": " suggest",
  "3759": " added",
  "3760": " oyster",
  "3761": " radish",
  "3762": " Little",
  "3763": "iron",
  "3764": " frame",
  "3765": " repe",
  "3766": " attic",
  "3767": " matt",
  "3768": " lime",
  "3769": " flea",
  "3770": " root",
  "3771": "aving",
  "3772": "utes",
  "3773": "illa",
  "3774": " chess",
  "3775": "ito",
  "3776": " Dan",
  "3777": " magaz",
  "3778": " hall",
  "3779": " ot",
  "3780": " pole",
  "3781": " glowing",
  "3782": " succe",
  "3783": " otter",
  "3784": " disappeared",
  "3785": "ophone",
  "3786": "Jimmy",
  "3787": "?\".",
  "3788": "gl",
  "3789": " tools",
  "3790": " growl",
  "3791": "stic",
  "3792": " driving",
  "3793": " knight",
  "3794": " coffee",
  "3795": " itch",
  "3796": "quito",
  "3797": "Well",
  "3798": " determined",
  "3799": " trophy",
  "3800": "ric",
  "3801": " enthusiastic",
  "3802": " mos",
  "3803": " drawer",
  "3804": "head",
  "3805": " managed",
  "3806": "ines",
  "3807": " meadow",
  "3808": "ait",
  "3809": " rot",
  "3810": "case",
  "3811": " mosquito",
  "3812": " switch",
  "3813": " mattress",
  "3814": " powder",
  "3815": " Miss",
  "3816": "nger",
  "3817": " spear",
  "3818": "esday",
  "3819": " spirit",
  "3820": " aut",
  "3821": " Tweet",
  "3822": " arg",
  "3823": ",”",
  "3824": " veil",
  "3825": " People",
  "3826": " separ",
  "3827": " drawings",
  "3828": " minutes",
  "3829": " dess",
  "3830": "glasses",
  "3831": " sunglasses",
  "3832": " kindness",
  "3833": " football",
  "3834": " repair",
  "3835": "la",
  "3836": " means",
  "3837": "old",
  "3838": " flame",
  "3839": "iew",
  "3840": " support",
  "3841": " micr",
  "3842": " marble",
  "3843": "time",
  "3844": " packed",
  "3845": "ctory",
  "3846": "aroo",
  "3847": " makeup",
  "3848": "angaroo",
  "3849": " hotel",
  "3850": " grandpa",
  "3851": " barking",
  "3852": " shocked",
  "3853": " message",
  "3854": "seum",
  "3855": " grill",
  "3856": " view",
  "3857": " sausage",
  "3858": " microphone",
  "3859": " gasp",
  "3860": " penny",
  "3861": "See",
  "3862": " factory",
  "3863": " task",
  "3864": " ok",
  "3865": " stairs",
  "3866": " museum",
  "3867": "ctop",
  "3868": "Bye",
  "3869": " pun",
  "3870": " eye",
  "3871": " maze",
  "3872": "obile",
  "3873": " thunder",
  "3874": " colour",
  "3875": "omobile",
  "3876": " kangaroo",
  "3877": " sailor",
  "3878": "ckey",
  "3879": " hockey",
  "3880": " automobile",
  "3881": " newsp",
  "3882": " coal",
  "3883": " tear",
  "3884": " camp",
  "3885": " cooking",
  "3886": " iron",
  "3887": " rever",
  "3888": " package",
  "3889": " wool",
  "3890": "istol",
  "3891": " whip",
  "3892": " safely",
  "3893": " early",
  "3894": "ctopus",
  "3895": " staff",
  "3896": " handle",
  "3897": " fireman",
  "3898": " penguin",
  "3899": " knock",
  "3900": " strugg",
  "3901": " slides",
  "3902": " pear",
  "3903": " math",
  "3904": " sight",
  "3905": " grapes",
  "3906": " Rose",
  "3907": " weep",
  "3908": " gear",
  "3909": " leash",
  "3910": " giggled",
  "3911": " wife",
  "3912": " tornado",
  "3913": " laser",
  "3914": " quit",
  "3915": " cups",
  "3916": " cord",
  "3917": " lotion",
  "3918": " those",
  "3919": "uper",
  "3920": " either",
  "3921": " rolling",
  "3922": " rake",
  "3923": " patch",
  "3924": " pistol",
  "3925": "Jill",
  "3926": " golf",
  "3927": " file",
  "3928": " perm",
  "3929": " octopus",
  "3930": " cooler",
  "3931": " Look",
  "3932": " hunter",
  "3933": "Re",
  "3934": " marched",
  "3935": " sandbox",
  "3936": "ucet",
  "3937": " dessert",
  "3938": " cob",
  "3939": " Tina",
  "3940": " men",
  "3941": " blackboard",
  "3942": " Snow",
  "3943": "undry",
  "3944": " zipper",
  "3945": " laundry",
  "3946": " vend",
  "3947": " pee",
  "3948": "ature",
  "3949": " ow",
  "3950": "ugged",
  "3951": "ready",
  "3952": "ilot",
  "3953": " stumbled",
  "3954": " remain",
  "3955": " bananas",
  "3956": "urch",
  "3957": " photo",
  "3958": " temple",
  "3959": " bathe",
  "3960": "hic",
  "3961": " oak",
  "3962": " faucet",
  "3963": " vehic",
  "3964": " enjoying",
  "3965": "ination",
  "3966": "ron",
  "3967": " pastry",
  "3968": "web",
  "3969": "leton",
  "3970": "keleton",
  "3971": "cing",
  "3972": "apers",
  "3973": "ney",
  "3974": "'d",
  "3975": " sne",
  "3976": " often",
  "3977": " opens",
  "3978": "keep",
  "3979": " Pete",
  "3980": "asher",
  "3981": " anch",
  "3982": " mule",
  "3983": " short",
  "3984": " pretending",
  "3985": " cardboard",
  "3986": " already",
  "3987": "Em",
  "3988": " mint",
  "3989": " cobweb",
  "3990": " ten",
  "3991": " hours",
  "3992": " steps",
  "3993": " rhin",
  "3994": " sett",
  "3995": " ur",
  "3996": " five",
  "3997": " avail",
  "3998": " Sunny",
  "3999": "washer",
  "4000": "bol",
  "4001": " lend",
  "4002": " freez",
  "4003": "ymbol",
  "4004": " vendor",
  "4005": " magazine",
  "4006": " holds",
  "4007": "Joe",
  "4008": " rise",
  "4009": " oil",
  "4010": " dishwasher",
  "4011": "Al",
  "4012": " hurry",
  "4013": " trail",
  "4014": " hanging",
  "4015": " reward",
  "4016": " flour",
  "4017": " costume",
  "4018": " anchor",
  "4019": " pal",
  "4020": " available",
  "4021": " mem",
  "4022": " realised",
  "4023": " stared",
  "4024": " novel",
  "4025": "Fluffy",
  "4026": " complete",
  "4027": "azor",
  "4028": " trash",
  "4029": " pilot",
  "4030": " mummy",
  "4031": " hut",
  "4032": " battery",
  "4033": " thinking",
  "4034": " Bessie",
  "4035": " symbol",
  "4036": "play",
  "4037": "rosc",
  "4038": "imney",
  "4039": " Here",
  "4040": "roscope",
  "4041": " church",
  "4042": " Betty",
  "4043": " silver",
  "4044": " picking",
  "4045": " baseball",
  "4046": " sub",
  "4047": " juicy",
  "4048": " Everywhere",
  "4049": " towers",
  "4050": "ense",
  "4051": " Give",
  "4052": "ately",
  "4053": " palace",
  "4054": " organize",
  "4055": " allowed",
  "4056": " chimney",
  "4057": "anda",
  "4058": " basketball",
  "4059": " gor",
  "4060": " boots",
  "4061": " skeleton",
  "4062": " fingers",
  "4063": " Zip",
  "4064": " pinch",
  "4065": " resist",
  "4066": " newspaper",
  "4067": " valu",
  "4068": " Rob",
  "4069": " spilled",
  "4070": " ward",
  "4071": " super",
  "4072": " excitement",
  "4073": "Wait",
  "4074": " size",
  "4075": " wardrobe",
  "4076": "ocer",
  "4077": " jokes",
  "4078": " fog",
  "4079": " cane",
  "4080": "vision",
  "4081": " display",
  "4082": " names",
  "4083": " notice",
  "4084": " bikes",
  "4085": " por",
  "4086": " Pippin",
  "4087": " may",
  "4088": " dreamed",
  "4089": "ured",
  "4090": "oceros",
  "4091": " taller",
  "4092": " jumps",
  "4093": " ig",
  "4094": " discovered",
  "4095": " napkin",
  "4096": " cows",
  "4097": "loo",
  "4098": " falling",
  "4099": " tightly",
  "4100": " igloo",
  "4101": " bill",
  "4102": " television",
  "4103": " Spike",
  "4104": " holes",
  "4105": "keeper",
  "4106": " fastest",
  "4107": "aurant",
  "4108": " stickers",
  "4109": "asis",
  "4110": "aches",
  "4111": " restaurant",
  "4112": "aid",
  "4113": "come",
  "4114": " rhinoceros",
  "4115": " practice",
  "4116": "Is",
  "4117": " Susie",
  "4118": " check",
  "4119": " ax",
  "4120": " sparkly",
  "4121": " cards",
  "4122": "Ow",
  "4123": "iction",
  "4124": "ik",
  "4125": "eer",
  "4126": " junk",
  "4127": " telling",
  "4128": "gen",
  "4129": " shrink",
  "4130": " shaking",
  "4131": "ictionary",
  "4132": " medal",
  "4133": " climbing",
  "4134": "body",
  "4135": " roared",
  "4136": "place",
  "4137": " fisher",
  "4138": " oasis",
  "4139": "arry",
  "4140": " perfume",
  "4141": " frogs",
  "4142": " blueberries",
  "4143": " improve",
  "4144": " gasped",
  "4145": "stairs",
  "4146": "ilet",
  "4147": "vice",
  "4148": " spoke",
  "4149": " offered",
  "4150": " swamp",
  "4151": " snap",
  "4152": " pressed",
  "4153": " axe",
  "4154": "arian",
  "4155": " tut",
  "4156": " imagine",
  "4157": " beep",
  "4158": " Zoom",
  "4159": " freezer",
  "4160": " against",
  "4161": " subway",
  "4162": " rece",
  "4163": " cabinet",
  "4164": "iest",
  "4165": " swinging",
  "4166": " ped",
  "4167": " obser",
  "4168": "htray",
  "4169": " toilet",
  "4170": " porch",
  "4171": " hive",
  "4172": " butterflies",
  "4173": " letters",
  "4174": " papers",
  "4175": " tub",
  "4176": " jewelry",
  "4177": " gorilla",
  "4178": " passport",
  "4179": " neat",
  "4180": "fa",
  "4181": " stops",
  "4182": "iches",
  "4183": " valuable",
  "4184": " gain",
  "4185": " bathrobe",
  "4186": " sandwiches",
  "4187": " razor",
  "4188": " object",
  "4189": " model",
  "4190": " Toby",
  "4191": " disag",
  "4192": "zag",
  "4193": " blouse",
  "4194": " tutor",
  "4195": "lud",
  "4196": " tuna",
  "4197": " stretched",
  "4198": " oats",
  "4199": " happier",
  "4200": " fireplace",
  "4201": " drain",
  "4202": "te",
  "4203": " dictionary",
  "4204": "Mummy",
  "4205": " reind",
  "4206": " bookcase",
  "4207": "igzag",
  "4208": "ampoo",
  "4209": " lie",
  "4210": " blin",
  "4211": " Are",
  "4212": " cherries",
  "4213": " attach",
  "4214": " miner",
  "4215": " listening",
  "4216": " billboard",
  "4217": " ashtray",
  "4218": " hanger",
  "4219": " hung",
  "4220": " fisherman",
  "4221": " son",
  "4222": " reindeer",
  "4223": "reek",
  "4224": " airport",
  "4225": " reverse",
  "4226": " theater",
  "4227": "Little",
  "4228": " distance",
  "4229": " popped",
  "4230": " creek",
  "4231": " rules",
  "4232": " olive",
  "4233": " microscope",
  "4234": " includ",
  "4235": " chose",
  "4236": " Co",
  "4237": " lip",
  "4238": " prov",
  "4239": " pleased",
  "4240": " squirrels",
  "4241": "cu",
  "4242": " gym",
  "4243": " bookshe",
  "4244": "lend",
  "4245": " unpack",
  "4246": " nature",
  "4247": " fuel",
  "4248": "omed",
  "4249": " hate",
  "4250": " opera",
  "4251": " bury",
  "4252": " anyway",
  "4253": " growing",
  "4254": "xy",
  "4255": " shampoo",
  "4256": " helper",
  "4257": " comfort",
  "4258": " ahead",
  "4259": " bookshelf",
  "4260": " belongs",
  "4261": " advice",
  "4262": " ext",
  "4263": "Mr",
  "4264": "ival",
  "4265": " circles",
  "4266": " grand",
  "4267": " sofa",
  "4268": " doesn",
  "4269": "lter",
  "4270": " sweetie",
  "4271": " alarm",
  "4272": " separate",
  "4273": " stirred",
  "4274": " Grandpa",
  "4275": " shelter",
  "4276": " agree",
  "4277": " poked",
  "4278": "ogn",
  "4279": "fast",
  "4280": " fest",
  "4281": " buckle",
  "4282": " skirt",
  "4283": " point",
  "4284": " pastel",
  "4285": "affe",
  "4286": " leaving",
  "4287": " recogn",
  "4288": " Kim",
  "4289": " breakfast",
  "4290": " vehicle",
  "4291": " rescue",
  "4292": " painter",
  "4293": " page",
  "4294": " grape",
  "4295": " tease",
  "4296": " rail",
  "4297": "ummer",
  "4298": " anywhere",
  "4299": " Mrs",
  "4300": " wipe",
  "4301": "riger",
  "4302": "rigerator",
  "4303": "ola",
  "4304": " leaned",
  "4305": "!\".",
  "4306": " riding",
  "4307": " weather",
  "4308": " musician",
  "4309": " refrigerator",
  "4310": " weigh",
  "4311": " serve",
  "4312": " festival",
  "4313": " chance",
  "4314": " disappear",
  "4315": "stri",
  "4316": "ison",
  "4317": "Ouch",
  "4318": " peeked",
  "4319": " trade",
  "4320": " slipp",
  "4321": "render",
  "4322": " Teddy",
  "4323": " rubber",
  "4324": " lightning",
  "4325": " peek",
  "4326": " goal",
  "4327": " lumber",
  "4328": "ience",
  "4329": " waste",
  "4330": " invite",
  "4331": " Mar",
  "4332": "ef",
  "4333": "angu",
  "4334": " extra",
  "4335": " label",
  "4336": " Dolly",
  "4337": "aspoon",
  "4338": " calend",
  "4339": " accidentally",
  "4340": " gas",
  "4341": " knob",
  "4342": " accept",
  "4343": " langu",
  "4344": " dreaming",
  "4345": " meeting",
  "4346": " gaz",
  "4347": " ceiling",
  "4348": "iki",
  "4349": "res",
  "4350": " fort",
  "4351": " soil",
  "4352": " beef",
  "4353": " twir",
  "4354": " cliff",
  "4355": " calendar",
  "4356": " lawn",
  "4357": " giraffe",
  "4358": " birdc",
  "4359": " apron",
  "4360": "vet",
  "4361": " winter",
  "4362": " birdcage",
  "4363": " windows",
  "4364": " happens",
  "4365": " suff",
  "4366": "Daisy",
  "4367": " swung",
  "4368": " monkeys",
  "4369": "ected",
  "4370": " stable",
  "4371": " stom",
  "4372": " lid",
  "4373": "rmomet",
  "4374": " sounded",
  "4375": " brick",
  "4376": " missing",
  "4377": " starts",
  "4378": " caring",
  "4379": "yer",
  "4380": "rmometer",
  "4381": " summer",
  "4382": " ostri",
  "4383": " refused",
  "4384": "night",
  "4385": " Buzzy",
  "4386": " teaspoon",
  "4387": " cudd",
  "4388": " panda",
  "4389": " crib",
  "4390": " Cl",
  "4391": "aked",
  "4392": " bent",
  "4393": " warned",
  "4394": " mustache",
  "4395": " wigg",
  "4396": "ium",
  "4397": " dancer",
  "4398": " lions",
  "4399": " frowned",
  "4400": "bbles",
  "4401": " pages",
  "4402": " admire",
  "4403": " ribbon",
  "4404": " quiz",
  "4405": " ins",
  "4406": " unite",
  "4407": " fixing",
  "4408": "low",
  "4409": " sent",
  "4410": " remove",
  "4411": " lic",
  "4412": " bet",
  "4413": "Did",
  "4414": " reef",
  "4415": " finds",
  "4416": " squeeze",
  "4417": " imagined",
  "4418": " jail",
  "4419": " classroom",
  "4420": "amber",
  "4421": " trains",
  "4422": " Where",
  "4423": " Boun",
  "4424": " problems",
  "4425": "eor",
  "4426": " spoil",
  "4427": " Red",
  "4428": " puddles",
  "4429": "astic",
  "4430": " prevent",
  "4431": " lawyer",
  "4432": " above",
  "4433": "urnit",
  "4434": "urniture",
  "4435": "med",
  "4436": " mass",
  "4437": " sadly",
  "4438": " inf",
  "4439": "ucture",
  "4440": " human",
  "4441": " structure",
  "4442": " furniture",
  "4443": " chamber",
  "4444": "iform",
  "4445": " carrying",
  "4446": " blinked",
  "4447": " favour",
  "4448": "aul",
  "4449": " uniform",
  "4450": " socks",
  "4451": "thank",
  "4452": " thermometer",
  "4453": " suggested",
  "4454": " shower",
  "4455": " respectful",
  "4456": " searching",
  "4457": " license",
  "4458": " chasing",
  "4459": " surprises",
  "4460": "ations",
  "4461": " mistakes",
  "4462": " shouts",
  "4463": " incre",
  "4464": "adium",
  "4465": " stadium",
  "4466": " handed",
  "4467": " delay",
  "4468": " zoomed",
  "4469": " weap",
  "4470": " Hel",
  "4471": " favourite",
  "4472": " surrender",
  "4473": "alley",
  "4474": " doors",
  "4475": "eorge",
  "4476": " valley",
  "4477": " art",
  "4478": "uggage",
  "4479": " strip",
  "4480": " Bill",
  "4481": " sneezed",
  "4482": " ostrich",
  "4483": "rod",
  "4484": " luggage",
  "4485": " sticker",
  "4486": " argue",
  "4487": " choice",
  "4488": " pushing",
  "4489": " introd",
  "4490": " chairs",
  "4491": " appl",
  "4492": " excitedly",
  "4493": " Ow",
  "4494": " spade",
  "4495": "veal",
  "4496": " Binky",
  "4497": " sunset",
  "4498": " cur",
  "4499": " brightly",
  "4500": "ricane",
  "4501": "hero",
  "4502": " forgave",
  "4503": " proudly",
  "4504": " language",
  "4505": " fought",
  "4506": " superhero",
  "4507": " Lee",
  "4508": " yield",
  "4509": " slip",
  "4510": "Ch",
  "4511": " ignore",
  "4512": " reveal",
  "4513": " saving",
  "4514": " meas",
  "4515": "eterin",
  "4516": "eterinarian",
  "4517": " V",
  "4518": " player",
  "4519": " pair",
  "4520": " harb",
  "4521": " pup",
  "4522": " evening",
  "4523": " aw",
  "4524": "elcome",
  "4525": "Your",
  "4526": " fre",
  "4527": " veterinarian",
  "4528": " Carl",
  "4529": " Big",
  "4530": " older",
  "4531": " cared",
  "4532": " mall",
  "4533": " Pandy",
  "4534": "chan",
  "4535": "mend",
  "4536": " pulls",
  "4537": "b' \\xe2\\x80'",
  "4538": " raise",
  "4539": " rushed",
  "4540": "ecause",
  "4541": " succeed",
  "4542": " mystery",
  "4543": "Mary",
  "4544": " Y",
  "4545": " plates",
  "4546": " grabs",
  "4547": "ommend",
  "4548": " replace",
  "4549": " supply",
  "4550": " sniffed",
  "4551": " harbor",
  "4552": " recommend",
  "4553": " rac",
  "4554": " admired",
  "4555": " slippery",
  "4556": " ranch",
  "4557": " prepare",
  "4558": " leak",
  "4559": "aud",
  "4560": " putting",
  "4561": " berry",
  "4562": " Ellie",
  "4563": " lives",
  "4564": " wre",
  "4565": " wine",
  "4566": " planes",
  "4567": " steam",
  "4568": " shakes",
  "4569": " Pat",
  "4570": " apol",
  "4571": " infant",
  "4572": " menu",
  "4573": " event",
  "4574": " restore",
  "4575": " regret",
  "4576": " gro",
  "4577": " float",
  "4578": " hoping",
  "4579": " delighted",
  "4580": " softly",
  "4581": " shoulder",
  "4582": " panic",
  "4583": " mineral",
  "4584": " claw",
  "4585": "ah",
  "4586": "chanic",
  "4587": " Next",
  "4588": " country",
  "4589": " reminded",
  "4590": " ended",
  "4591": "cer",
  "4592": " apolog",
  "4593": " colourful",
  "4594": " Mike",
  "4595": "icky",
  "4596": " beg",
  "4597": " mechanic",
  "4598": " Would",
  "4599": " port",
  "4600": " clapping",
  "4601": " points",
  "4602": " fresh",
  "4603": " Zoomy",
  "4604": "cuss",
  "4605": " plastic",
  "4606": "Will",
  "4607": " rained",
  "4608": "ari",
  "4609": " shovel",
  "4610": "ince",
  "4611": "peedy",
  "4612": "ason",
  "4613": " sudden",
  "4614": " kinds",
  "4615": " suffer",
  "4616": " discuss",
  "4617": " shone",
  "4618": "Yuck",
  "4619": "Next",
  "4620": " chickens",
  "4621": " copper",
  "4622": " shivering",
  "4623": " weapon",
  "4624": " dear",
  "4625": " hurricane",
  "4626": "iday",
  "4627": "Yay",
  "4628": " thumb",
  "4629": " score",
  "4630": " barks",
  "4631": " Alice",
  "4632": " Un",
  "4633": "icer",
  "4634": "cond",
  "4635": " x",
  "4636": "wards",
  "4637": "imed",
  "4638": " wreck",
  "4639": " applaud",
  "4640": " second",
  "4641": " Fl",
  "4642": "lex",
  "4643": " tip",
  "4644": " giggle",
  "4645": " hol",
  "4646": " matches",
  "4647": " feelings",
  "4648": " holiday",
  "4649": " throwing",
  "4650": " thanks",
  "4651": " End",
  "4652": " Bubbles",
  "4653": " sticky",
  "4654": " Olive",
  "4655": " brighter",
  "4656": " Kiki",
  "4657": " sunr",
  "4658": " smells",
  "4659": " Jazz",
  "4660": "ement",
  "4661": " bend",
  "4662": "Grandma",
  "4663": "sity",
  "4664": " yawn",
  "4665": " massage",
  "4666": " Dave",
  "4667": " greedy",
  "4668": " repeat",
  "4669": " unh",
  "4670": " sunrise",
  "4671": " alive",
  "4672": " universe",
  "4673": " enter",
  "4674": " splashing",
  "4675": " Or",
  "4676": "igi",
  "4677": "cast",
  "4678": " provide",
  "4679": "Emma",
  "4680": " navy",
  "4681": " meowed",
  "4682": " flies",
  "4683": " dare",
  "4684": " breat",
  "4685": " heads",
  "4686": " sandcast",
  "4687": " sigh",
  "4688": "Qu",
  "4689": " skill",
  "4690": " kneel",
  "4691": " chirp",
  "4692": " ener",
  "4693": "Ann",
  "4694": "Buddy",
  "4695": " parts",
  "4696": " impressed",
  "4697": " prune",
  "4698": " freeze",
  "4699": " keeping",
  "4700": "Mark",
  "4701": " cherry",
  "4702": "Lisa",
  "4703": " letting",
  "4704": " rush",
  "4705": " pushes",
  "4706": "acked",
  "4707": " trusted",
  "4708": " Help",
  "4709": " laught",
  "4710": " tide",
  "4711": " unhappy",
  "4712": " laughter",
  "4713": " poison",
  "4714": "..",
  "4715": " raining",
  "4716": " examine",
  "4717": " somewhere",
  "4718": "arlie",
  "4719": " yawned",
  "4720": " sprayed",
  "4721": "yth",
  "4722": " prunes",
  "4723": " Freddy",
  "4724": " row",
  "4725": " prayed",
  "4726": "ythm",
  "4727": "heart",
  "4728": " steel",
  "4729": " dem",
  "4730": " leather",
  "4731": " castles",
  "4732": " pigs",
  "4733": " crossed",
  "4734": " breaks",
  "4735": "All",
  "4736": "ero",
  "4737": "erc",
  "4738": " starting",
  "4739": " Ted",
  "4740": " rooms",
  "4741": " pirates",
  "4742": " Sque",
  "4743": " invit",
  "4744": " eaten",
  "4745": " courage",
  "4746": " Bow",
  "4747": " heat",
  "4748": "quest",
  "4749": "ophie",
  "4750": "year",
  "4751": " shrugged",
  "4752": " observe",
  "4753": " tour",
  "4754": " explored",
  "4755": " content",
  "4756": " bumped",
  "4757": " believed",
  "4758": " jogged",
  "4759": " imagination",
  "4760": " Mandy",
  "4761": " toe",
  "4762": " Speedy",
  "4763": " equ",
  "4764": " demand",
  "4765": " streng",
  "4766": " sport",
  "4767": " flapped",
  "4768": " request",
  "4769": " dishes",
  "4770": " news",
  "4771": " checked",
  "4772": " strength",
  "4773": " buzz",
  "4774": " mention",
  "4775": " Lola",
  "4776": "Ready",
  "4777": " horses",
  "4778": " punish",
  "4779": " minute",
  "4780": "apping",
  "4781": " throws",
  "4782": " network",
  "4783": " myself",
  "4784": " rhythm",
  "4785": " offer",
  "4786": " claws",
  "4787": " badly",
  "4788": "bles",
  "4789": " sweetheart",
  "4790": " drops",
  "4791": " coats",
  "4792": " paid",
  "4793": "Alice",
  "4794": " nation",
  "4795": " vac",
  "4796": " sty",
  "4797": " snugg",
  "4798": " expect",
  "4799": " exerc",
  "4800": "men",
  "4801": " settle",
  "4802": " sparkled",
  "4803": " upstairs",
  "4804": " baking",
  "4805": "inking",
  "4806": " hist",
  "4807": " history",
  "4808": " cheek",
  "4809": " bouncing",
  "4810": " scratch",
  "4811": "ges",
  "4812": " scold",
  "4813": "oe",
  "4814": " given",
  "4815": "Daddy",
  "4816": " squeezed",
  "4817": " stud",
  "4818": " rabbits",
  "4819": " tracks",
  "4820": " energy",
  "4821": "ially",
  "4822": "mare",
  "4823": "otten",
  "4824": " placed",
  "4825": " Hoppy",
  "4826": " Gigi",
  "4827": "isty",
  "4828": " sandcastle",
  "4829": " Sk",
  "4830": " calls",
  "4831": " waving",
  "4832": " spots",
  "4833": "Jenny",
  "4834": " warn",
  "4835": "enry",
  "4836": " daisy",
  "4837": "spec",
  "4838": "quake",
  "4839": " ignored",
  "4840": "mble",
  "4841": "Before",
  "4842": "ipment",
  "4843": " beauty",
  "4844": "Sh",
  "4845": " equipment",
  "4846": " Johnny",
  "4847": "reat",
  "4848": " soak",
  "4849": " pedal",
  "4850": " flood",
  "4851": "specially",
  "4852": " candles",
  "4853": " brain",
  "4854": " bears",
  "4855": " earthquake",
  "4856": " burned",
  "4857": " Under",
  "4858": " Sm",
  "4859": " yucky",
  "4860": " tremble",
  "4861": " pur",
  "4862": " Coco",
  "4863": " vroom",
  "4864": " Ru",
  "4865": " blueberry",
  "4866": " bother",
  "4867": " See",
  "4868": " Lilly",
  "4869": " easily",
  "4870": " entered",
  "4871": " crash",
  "4872": "Mimi",
  "4873": " nightmare",
  "4874": " stomach",
  "4875": " blowing",
  "4876": " sir",
  "4877": " Mummy",
  "4878": " vacation",
  "4879": " ing",
  "4880": " hearts",
  "4881": " tug",
  "4882": " twisted",
  "4883": " especially",
  "4884": " strawberries",
  "4885": " increase",
  "4886": " Snowy",
  "4887": "redient",
  "4888": " ingredient",
  "4889": " aftern",
  "4890": " Fox",
  "4891": " afternoon",
  "4892": "xygen",
  "4893": "ween",
  "4894": "ifi",
  "4895": " snowball",
  "4896": " writing",
  "4897": " shopkeeper",
  "4898": " palm",
  "4899": " Zara",
  "4900": " between",
  "4901": " whistled",
  "4902": " poppy",
  "4903": " wisdom",
  "4904": "eration",
  "4905": " sew",
  "4906": " hills",
  "4907": "anges",
  "4908": " moves",
  "4909": "hest",
  "4910": "riage",
  "4911": "izes",
  "4912": " insisted",
  "4913": "ecting",
  "4914": " planned",
  "4915": " hopes",
  "4916": " Paul",
  "4917": " scoop",
  "4918": " lemonade",
  "4919": " comf",
  "4920": " permit",
  "4921": " beans",
  "4922": " university",
  "4923": " pad",
  "4924": " mama",
  "4925": " include",
  "4926": " floated",
  "4927": " Owl",
  "4928": " slap",
  "4929": " mailman",
  "4930": "arnt",
  "4931": " nobody",
  "4932": " learnt",
  "4933": "laimed",
  "4934": "Welcome",
  "4935": " introduce",
  "4936": " cape",
  "4937": " safari",
  "4938": " George",
  "4939": " \n",
  "4940": " encourage",
  "4941": "Fred",
  "4942": " heel",
  "4943": " pulling",
  "4944": " follows",
  "4945": " luck",
  "4946": " exclaimed",
  "4947": " ingredients",
  "4948": " Squeaky",
  "4949": "nesday",
  "4950": "ednesday",
  "4951": "reeze",
  "4952": "resses",
  "4953": " racing",
  "4954": " Sharing",
  "4955": " weight",
  "4956": " strike",
  "4957": " following",
  "4958": " closely",
  "4959": " Annie",
  "4960": "house",
  "4961": " teaching",
  "4962": "With",
  "4963": "uesday",
  "4964": " below",
  "4965": " backpack",
  "4966": " whisper",
  "4967": " Who",
  "4968": " Have",
  "4969": "emember",
  "4970": "emem",
  "4971": "emem",
  "4972": "emem",
  "4973": "emem",
  "4974": "emem",
  "4975": "emem",
  "4976": "emem",
  "4977": "emem",
  "4978": "emem",
  "4979": "emem",
  "4980": "emem",
  "4981": "emem",
  "4982": "emem",
  "4983": "emem",
  "4984": "emem",
  "4985": "emem",
  "4986": "emem",
  "4987": "emem",
  "4988": "emem",
  "4989": "emem",
  "4990": "emem",
  "4991": "emem",
  "4992": "emem",
  "4993": "emem",
  "4994": "emem",
  "4995": "emem",
  "4996": "emem",
  "4997": "emem",
  "4998": "emem",
  "4999": "emem",
  "5000": "emem",
  "5001": "emem",
  "5002": "emem",
  "5003": "emem",
  "5004": "emem",
  "5005": "emem",
  "5006": "emem",
  "5007": "emem",
  "5008": "emem",
  "5009": "emem",
  "5010": "emem",
  "5011": "emem",
  "5012": "emem",
  "5013": "emem",
  "5014": "emem",
  "5015": "emem",
  "5016": "emem",
  "5017": "emem",
  "5018": "emem",
  "5019": "emem",
  "5020": "emem",
  "5021": "emem",
  "5022": "emem",
  "5023": "emem",
  "5024": "emem",
  "5025": "emem",
  "5026": "emem",
  "5027": "emem",
  "5028": "emem",
  "5029": "emem",
  "5030": "emem",
  "5031": "emem",
  "5032": "emem",
  "5033": "emem",
  "5034": "emem",
  "5035": "emem",
  "5036": "emem",
  "5037": "emem",
  "5038": "emem",
  "5039": "emem",
  "5040": "emem",
  "5041": "emem",
  "5042": "emem",
  "5043": "emem",
  "5044": "emem",
  "5045": "emem",
  "5046": "emem",
  "5047": "emem",
  "5048": "emem",
  "5049": "emem",
  "5050": "emem",
  "5051": "emem",
  "5052": "emem",
  "5053": "emem",
  "5054": "emem",
  "5055": "emem",
  "5056": "emem",
  "5057": "emem",
  "5058": "emem",
  "5059": "emem",
  "5060": "emem",
  "5061": "emem",
  "5062": "emem",
  "5063": "emem",
  "5064": "emem",
  "5065": "emem",
  "5066": "emem",
  "5067": "emem",
  "5068": "emem",
  "5069": "emem",
  "5070": "emem",
  "5071": "emem",
  "5072": "emem",
  "5073": "emem",
  "5074": "emem",
  "5075": "emem",
  "5076": "emem",
  "5077": "emem",
  "5078": "emem",
  "5079": "emem",
  "5080": "emem",
  "5081": "emem",
  "5082": "emem",
  "5083": "emem",
  "5084": "emem",
  "5085": "emem",
  "5086": "emem",
  "5087": "emem",
  "5088": "emem",
  "5089": "emem",
  "5090": "emem",
  "5091": "emem",
  "5092": "emem",
  "5093": "emem",
  "5094": "emem",
  "5095": "emem",
  "5096": "emem",
  "5097": "emem",
  "5098": "emem",
  "5099": "emem",
  "5100": "emem",
  "5101": "emem",
  "5102": "emem",
  "5103": "emem",
  "5104": "emem",
  "5105": "emem",
  "5106": "emem",
  "5107": "emem",
  "5108": "emem",
  "5109": "emem",
  "5110": "emem",
  "5111": "emem",
  "5112": "emem",
  "5113": "emem",
  "5114": "emem",
  "5115": "emem",
  "5116": "emem",
  "5117": "emem",
  "5118": "emem",
  "5119": "emem",
  "5120": "emem",
  "5121": "emem",
  "5122": "emem",
  "5123": "emem",
  "5124": "emem",
  "5125": "emem",
  "5126": "emem",
  "5127": "emem",
  "5128": "emem",
  "5129": "emem",
  "5130": "emem",
  "5131": "emem",
  "5132": "emem",
  "5133": "emem",
  "5134": "emem",
  "5135": "emem",
  "5136": "emem",
  "5137": "emem",
  "5138": "emem",
  "5139": "emem",
  "5140": "emem",
  "5141": "emem",
  "5142": "emem",
  "5143": "emem",
  "5144": "emem",
  "5145": "emem",
  "5146": "emem",
  "5147": "emem",
  "5148": "emem",
  "5149": "emem",
  "5150": "emem",
  "5151": "emem",
  "5152": "emem",
  "5153": "emem",
  "5154": "emem",
  "5155": "emem",
  "5156": "emem",
  "5157": "emem",
  "5158": "emem",
  "5159": "emem",
  "5160": "emem",
  "5161": "emem",
  "5162": "emem",
  "5163": "emem",
  "5164": "emem",
  "5165": "emem",
  "5166": "emem",
  "5167": "emem",
  "5168": "emem",
  "5169": "emem",
  "5170": "emem",
  "5171": "emem",
  "5172": "emem",
  "5173": "emem",
  "5174": "emem",
  "5175": "emem",
  "5176": "emem",
  "5177": "emem",
  "5178": "emem",
  "5179": "emem",
  "5180": "emem",
  "5181": "emem",
  "5182": "emem",
  "5183": "emem",
  "5184": "emem",
  "5185": "emem",
  "5186": "emem",
  "5187": "emem",
  "5188": "emem",
  "5189": "emem",
  "5190": "emem",
  "5191": "emem",
  "5192": "emem",
  "5193": "emem",
  "5194": "emem",
  "5195": "emem",
  "5196": "emem",
  "5197": "emem",
  "5198": "emem",
  "5199": "emem",
  "5200": "emem",
  "5201": "emem",
  "5202": "emem",
  "5203": "emem",
  "5204": "emem",
  "5205": "emem",
  "5206": "emem",
  "5207": "emem",
  "5208": "emem",
  "5209": "emem",
  "5210": "emem",
  "5211": "emem",
  "5212": "emem",
  "5213": "emem",
  "5214": "emem",
  "5215": "emem",
  "5216": "emem",
  "5217": "emem",
  "5218": "emem",
  "5219": "emem",
  "5220": "emem",
  "5221": "emem",
  "5222": "emem",
  "5223": "emem",
  "5224": "emem",
  "5225": "emem",
  "5226": "emem",
  "5227": "emem",
  "5228": "emem",
  "5229": "emem",
  "5230": "emem",
  "5231": "emem",
  "5232": "emem",
  "5233": "emem",
  "5234": "emem",
  "5235": "emem",
  "5236": "emem",
  "5237": "emem",
  "5238": "emem",
  "5239": "emem",
  "5240": "emem",
  "5241": "emem",
  "5242": "emem",
  "5243": "emem",
  "5244": "emem",
  "5245": "emem",
  "5246": "emem",
  "5247": "emem",
  "5248": "emem",
  "5249": "emem",
  "5250": "emem",
  "5251": "emem",
  "5252": "emem",
  "5253": "emem",
  "5254": "emem",
  "5255": "emem",
  "5256": "emem",
  "5257": "emem",
  "5258": "emem",
  "5259": "emem",
  "5260": "emem",
  "5261": "emem",
  "5262": "emem",
  "5263": "emem",
  "5264": "emem",
  "5265": "emem",
  "5266": "emem",
  "5267": "emem",
  "5268": "emem",
  "5269": "emem",
  "5270": "emem",
  "5271": "emem",
  "5272": "emem",
  "5273": "emem",
  "5274": "emem",
  "5275": "emem",
  "5276": "emem",
  "5277": "emem",
  "5278": "emem",
  "5279": "emem",
  "5280": "emem",
  "5281": "emem",
  "5282": "emem",
  "5283": "emem",
  "5284": "emem",
  "5285": "emem",
  "5286": "emem",
  "5287": "emem",
  "5288": "emem",
  "5289": "emem",
  "5290": "emem",
  "5291": "emem",
  "5292": "emem",
  "5293": "emem",
  "5294": "emem",
  "5295": "emem",
  "5296": "emem",
  "5297": "emem",
  "5298": "emem",
  "5299": "emem",
  "5300": "emem",
  "5301": "emem",
  "5302": "emem",
  "5303": "emem",
  "5304": "emem",
  "5305": "emem",
  "5306": "emem",
  "5307": "emem",
  "5308": "emem",
  "5309": "emem",
  "5310": "emem",
  "5311": "emem",
  "5312": "emem",
  "5313": "emem",
  "5314": "emem",
  "5315": "emem",
  "5316": "emem",
  "5317": "emem",
  "5318": "emem",
  "5319": "emem",
  "5320": "emem",
  "5321": "emem",
  "5322": "emem",
  "5323": "emem",
  "5324": "emem",
  "5325": "emem",
  "5326": "emem",
  "5327": "emem",
  "5328": "emem",
  "5329": "emem",
  "5330": "emem",
  "5331": "emem",
  "5332": "emem",
  "5333": "emem",
  "5334": "emem",
  "5335": "emem",
  "5336": "emem",
  "5337": "emem",
  "5338": "emem",
  "5339": "emem",
  "5340": "emem",
  "5341": "emem",
  "5342": "emem",
  "5343": "emem",
  "5344": "emem",
  "5345": "emem",
  "5346": "emem",
  "5347": "emem",
  "5348": "emem",
  "5349": "emem",
  "5350": "emem",
  "5351": "emem",
  "5352": "emem",
  "5353": "emem",
  "5354": "emem",
  "5355": "emem",
  "5356": "emem",
  "5357": "emem",
  "5358": "emem",
  "5359": "emem",
  "5360": "emem",
  "5361": "emem",
  "5362": "emem",
  "5363": "emem",
  "5364": "emem",
  "5365": "emem",
  "5366": "emem",
  "5367": "emem",
  "5368": "emem",
  "5369": "emem",
  "5370": "emem",
  "5371": "emem",
  "5372": "emem",
  "5373": "emem",
  "5374": "emem",
  "5375": "emem",
  "5376": "emem",
  "5377": "emem",
  "5378": "emem",
  "5379": "emem",
  "5380": "emem",
  "5381": "emem",
  "5382": "emem",
  "5383": "emem",
  "5384": "emem",
  "5385": "emem",
  "5386": "emem",
  "5387": "emem",
  "5388": "emem",
  "5389": "emem",
  "5390": "emem",
  "5391": "emem",
  "5392": "emem",
  "5393": "emem",
  "5394": "emem",
  "5395": "emem",
  "5396": "emem",
  "5397": "emem",
  "5398": "emem",
  "5399": "emem",
  "5400": "emem",
  "5401": "emem",
  "5402": "emem",
  "5403": "emem",
  "5404": "emem",
  "5405": "emem",
  "5406": "emem",
  "5407": "emem",
  "5408": "emem",
  "5409": "emem",
  "5410": "emem",
  "5411": "emem",
  "5412": "emem",
  "5413": "emem",
  "5414": "emem",
  "5415": "emem",
  "5416": "emem",
  "5417": "emem",
  "5418": "emem",
  "5419": "emem",
  "5420": "emem",
  "5421": "emem",
  "5422": "emem",
  "5423": "emem",
  "5424": "emem",
  "5425": "emem",
  "5426": "emem",
  "5427": "emem",
  "5428": "emem",
  "5429": "emem",
  "5430": "emem",
  "5431": "emem",
  "5432": "emem",
  "5433": "emem",
  "5434": "emem",
  "5435": "emem",
  "5436": "emem",
  "5437": "emem",
  "5438": "emem",
  "5439": "emem",
  "5440": "emem",
  "5441": "emem",
  "5442": "emem",
  "5443": "emem",
  "5444": "emem",
  "5445": "emem",
  "5446": "emem",
  "5447": "emem",
  "5448": "emem",
  "5449": "emem",
  "5450": "emem",
  "5451": "emem",
  "5452": "emem",
  "5453": "emem",
  "5454": "emem",
  "5455": "emem",
  "5456": "emem",
  "5457": "emem",
  "5458": "emem",
  "5459": "emem",
  "5460": "emem",
  "5461": "emem",
  "5462": "emem",
  "5463": "emem",
  "5464": "emem",
  "5465": "emem",
  "5466": "emem",
  "5467": "emem",
  "5468": "emem",
  "5469": "emem",
  "5470": "emem",
  "5471": "emem",
  "5472": "emem",
  "5473": "emem",
  "5474": "emem",
  "5475": "emem",
  "5476": "emem",
  "5477": "emem",
  "5478": "emem",
  "5479": "emem",
  "5480": "emem",
  "5481": "emem",
  "5482": "emem",
  "5483": "emem",
  "5484": "emem",
  "5485": "emem",
  "5486": "emem",
  "5487": "emem",
  "5488": "emem",
  "5489": "emem",
  "5490": "emem",
  "5491": "emem",
  "5492": "emem",
  "5493": "emem",
  "5494": "emem",
  "5495": "emem",
  "5496": "emem",
  "5497": "emem",
  "5498": "emem",
  "5499": "emem",
  "5500": "emem",
  "5501": "emem",
  "5502": "emem",
  "5503": "emem",
  "5504": "emem",
  "5505": "emem",
  "5506": "emem",
  "5507": "emem",
  "5508": "emem",
  "5509": "emem",
  "5510": "emem",
  "5511": "emem",
  "5512": "emem",
  "5513": "emem",
  "5514": "emem",
  "5515": "emem",
  "5516": "emem",
  "5517": "emem",
  "5518": "emem",
  "5519": "emem",
  "5520": "emem",
  "5521": "emem",
  "5522": "emem",
  "5523": "emem",
  "5524": "emem",
  "5525": "emem",
  "5526": "emem",
  "5527": "emem",
  "5528": "emem",
  "5529": "emem",
  "5530": "emem",
  "5531": "emem",
  "5532": "emem",
  "5533": "emem",
  "5534": "emem",
  "5535": "emem",
  "5536": "emem",
  "5537": "emem",
  "5538": "emem",
  "5539": "emem",
  "5540": "emem",
  "5541": "emem",
  "5542": "emem",
  "5543": "emem",
  "5544": "emem",
  "5545": "emem",
  "5546": "emem",
  "5547": "emem",
  "5548": "emem",
  "5549": "emem",
  "5550": "emem",
  "5551": "emem",
  "5552": "emem",
  "5553": "emem",
  "5554": "emem",
  "5555": "emem",
  "5556": "emem",
  "5557": "emem",
  "5558": "emem",
  "5559": "emem",
  "5560": "emem",
  "5561": "emem",
  "5562": "emem",
  "5563": "emem",
  "5564": "emem",
  "5565": "emem",
  "5566": "emem",
  "5567": "emem",
  "5568": "emem",
  "5569": "emem",
  "5570": "emem",
  "5571": "emem",
  "5572": "emem",
  "5573": "emem",
  "5574": "emem",
  "5575": "emem",
  "5576": "emem",
  "5577": "emem",
  "5578": "emem",
  "5579": "emem",
  "5580": "emem",
  "5581": "emem",
  "5582": "emem",
  "5583": "emem",
  "5584": "emem",
  "5585": "emem",
  "5586": "emem",
  "5587": "emem",
  "5588": "emem",
  "5589": "emem",
  "5590": "emem",
  "5591": "emem",
  "5592": "emem",
  "5593": "emem",
  "5594": "emem",
  "5595": "emem",
  "5596": "emem",
  "5597": "emem",
  "5598": "emem",
  "5599": "emem",
  "5600": "emem",
  "5601": "emem",
  "5602": "emem",
  "5603": "emem",
  "5604": "emem",
  "5605": "emem",
  "5606": "emem",
  "5607": "emem",
  "5608": "emem",
  "5609": "emem",
  "5610": "emem",
  "5611": "emem",
  "5612": "emem",
  "5613": "emem",
  "5614": "emem",
  "5615": "emem",
  "5616": "emem",
  "5617": "emem",
  "5618": "emem",
  "5619": "emem",
  "5620": "emem",
  "5621": "emem",
  "5622": "emem",
  "5623": "emem",
  "5624": "emem",
  "5625": "emem",
  "5626": "emem",
  "5627": "emem",
  "5628": "emem",
  "5629": "emem",
  "5630": "emem",
  "5631": "emem",
  "5632": "emem",
  "5633": "emem",
  "5634": "emem",
  "5635": "emem",
  "5636": "emem",
  "5637": "emem",
  "5638": "emem",
  "5639": "emem",
  "5640": "emem",
  "5641": "emem",
  "5642": "emem",
  "5643": "emem",
  "5644": "emem",
  "5645": "emem",
  "5646": "emem",
  "5647": "emem",
  "5648": "emem",
  "5649": "emem",
  "5650": "emem",
  "5651": "emem",
  "5652": "emem",
  "5653": "emem",
  "5654": "emem",
  "5655": "emem",
  "5656": "emem",
  "5657": "emem",
  "5658": "emem",
  "5659": "emem",
  "5660": "emem",
  "5661": "emem",
  "5662": "emem",
  "5663": "emem",
  "5664": "emem",
  "5665": "emem",
  "5666": "emem",
  "5667": "emem",
  "5668": "emem",
  "5669": "emem",
  "5670": "emem",
  "5671": "emem",
  "5672": "emem",
  "5673": "emem",
  "5674": "emem",
  "5675": "emem",
  "5676": "emem",
  "5677": "emem",
  "5678": "emem",
  "5679": "emem",
  "5680": "emem",
  "5681": "emem",
  "5682": "emem",
  "5683": "emem",
  "5684": "emem",
  "5685": "emem",
  "5686": "emem",
  "5687": "emem",
  "5688": "emem",
  "5689": "emem",
  "5690": "emem",
  "5691": "emem",
  "5692": "emem",
  "5693": "emem",
  "5694": "emem",
  "5695": "emem",
  "5696": "emem",
  "5697": "emem",
  "5698": "emem",
  "5699": "emem",
  "5700": "emem",
  "5701": "emem",
  "5702": "emem",
  "5703": "emem",
  "5704": "emem",
  "5705": "emem",
  "5706": "emem",
  "5707": "emem",
  "5708": "emem",
  "5709": "emem",
  "5710": "emem",
  "5711": "emem",
  "5712": "emem",
  "5713": "emem",
  "5714": "emem",
  "5715": "emem",
  "5716": "emem",
  "5717": "emem",
  "5718": "emem",
  "5719": "emem",
  "5720": "emem",
  "5721": "emem",
  "5722": "emem",
  "5723": "emem",
  "5724": "emem",
  "5725": "emem",
  "5726": "emem",
  "5727": "emem",
  "5728": "emem",
  "5729": "emem",
  "5730": "emem",
  "5731": "emem",
  "5732": "emem",
  "5733": "emem",
  "5734": "emem",
  "5735": "emem",
  "5736": "emem",
  "5737": "emem",
  "5738": "emem",
  "5739": "emem",
  "5740": "emem",
  "5741": "emem",
  "5742": "emem",
  "5743": "emem",
  "5744": "emem",
  "5745": "emem",
  "5746": "emem",
  "5747": "emem",
  "5748": "emem",
  "5749": "emem",
  "5750": "emem",
  "5751": "emem",
  "5752": "emem",
  "5753": "emem",
  "5754": "emem",
  "5755": "emem",
  "5756": "emem",
  "5757": "emem",
  "5758": "emem",
  "5759": "emem",
  "5760": "emem",
  "5761": "emem",
  "5762": "emem",
  "5763": "emem",
  "5764": "emem",
  "5765": "emem",
  "5766": "emem",
  "5767": "emem",
  "5768": "emem",
  "5769": "emem",
  "5770": "emem",
  "5771": "emem",
  "5772": "emem",
  "5773": "emem",
  "5774": "emem",
  "5775": "emem",
  "5776": "emem",
  "5777": "emem",
  "5778": "emem",
  "5779": "emem",
  "5780": "emem",
  "5781": "emem",
  "5782": "emem",
  "5783": "emem",
  "5784": "emem",
  "5785": "emem",
  "5786": "emem",
  "5787": "emem",
  "5788": "emem",
  "5789": "emem",
  "5790": "emem",
  "5791": "emem",
  "5792": "emem",
  "5793": "emem",
  "5794": "emem",
  "5795": "emem",
  "5796": "emem",
  "5797": "emem",
  "5798": "emem",
  "5799": "emem",
  "5800": "emem",
  "5801": "emem",
  "5802": "emem",
  "5803": "emem",
  "5804": "emem",
  "5805": "emem",
  "5806": "emem",
  "5807": "emem",
  "5808": "emem",
  "5809": "emem",
  "5810": "emem",
  "5811": "emem",
  "5812": "emem",
  "5813": "emem",
  "5814": "emem",
  "5815": "emem",
  "5816": "emem",
  "5817": "emem",
  "5818": "emem",
  "5819": "emem",
  "5820": "emem",
  "5821": "emem",
  "5822": "emem",
  "5823": "emem",
  "5824": "emem",
  "5825": "emem",
  "5826": "emem",
  "5827": "emem",
  "5828": "emem",
  "5829": "emem",
  "5830": "emem",
  "5831": "emem",
  "5832": "emem",
  "5833": "emem",
  "5834": "emem",
  "5835": "emem",
  "5836": "emem",
  "5837": "emem",
  "5838": "emem",
  "5839": "emem",
  "5840": "emem",
  "5841": "emem",
  "5842": "emem",
  "5843": "emem",
  "5844": "emem",
  "5845": "emem",
  "5846": "emem",
  "5847": "emem",
  "5848": "emem",
  "5849": "emem",
  "5850": "emem",
  "5851": "emem",
  "5852": "emem",
  "5853": "emem",
  "5854": "emem",
  "5855": "emem",
  "5856": "emem",
  "5857": "emem",
  "5858": "emem",
  "5859": "emem",
  "5860": "emem",
  "5861": "emem",
  "5862": "emem",
  "5863": "emem",
  "5864": "emem",
  "5865": "emem",
  "5866": "emem",
  "5867": "emem",
  "5868": "emem",
  "5869": "emem",
  "5870": "emem",
  "5871": "emem",
  "5872": "emem",
  "5873": "emem",
  "5874": "emem",
  "5875": "emem",
  "5876": "emem",
  "5877": "emem",
  "5878": "emem",
  "5879": "emem",
  "5880": "emem",
  "5881": "emem",
  "5882": "emem",
  "5883": "emem",
  "5884": "emem",
  "5885": "emem",
  "5886": "emem",
  "5887": "emem",
  "5888": "emem",
  "5889": "emem",
  "5890": "emem",
  "5891": "emem",
  "5892": "emem",
  "5893": "emem",
  "5894": "emem",
  "5895": "emem",
  "5896": "emem",
  "5897": "emem",
  "5898": "emem",
  "5899": "emem",
  "5900": "emem",
  "5901": "emem",
  "5902": "emem",
  "5903": "emem",
  "5904": "emem",
  "5905": "emem",
  "5906": "emem",
  "5907": "emem",
  "5908": "emem",
  "5909": "emem",
  "5910": "emem",
  "5911": "emem",
  "5912": "emem",
  "5913": "emem",
  "5914": "emem",
  "5915": "emem",
  "5916": "emem",
  "5917": "emem",
  "5918": "emem",
  "5919": "emem",
  "5920": "emem",
  "5921": "emem",
  "5922": "emem",
  "5923": "emem",
  "5924": "emem",
  "5925": "emem",
  "5926": "emem",
  "5927": "emem",
  "5928": "emem",
  "5929": "emem",
  "5930": "emem",
  "5931": "emem",
  "5932": "emem",
  "5933": "emem",
  "5934": "emem",
  "5935": "emem",
  "5936": "emem",
  "5937": "emem",
  "5938": "emem",
  "5939": "emem",
  "5940": "emem",
  "5941": "emem",
  "5942": "emem",
  "5943": "emem",
  "5944": "emem",
  "5945": "emem",
  "5946": "emem",
  "5947": "emem",
  "5948": "emem",
  "5949": "emem",
  "5950": "emem",
  "5951": "emem",
  "5952": "emem",
  "5953": "emem",
  "5954": "emem",
  "5955": "emem",
  "5956": "emem",
  "5957": "emem",
  "5958": "emem",
  "5959": "emem",
  "5960": "emem",
  "5961": "emem",
  "5962": "emem",
  "5963": "emem",
  "5964": "emem",
  "5965": "emem",
  "5966": "emem",
  "5967": "emem",
  "5968": "emem",
  "5969": "emem",
  "5970": "emem",
  "5971": "emem",
  "5972": "emem",
  "5973": "emem",
  "5974": "emem",
  "5975": "emem",
  "5976": "emem",
  "5977": "emem",
  "5978": "emem",
  "5979": "emem",
  "5980": "emem",
  "5981": "emem",
  "5982": "emem",
  "5983": "emem",
  "5984": "emem",
  "5985": "emem",
  "5986": "emem",
  "5987": "emem",
  "5988": "emem",
  "5989": "emem",
  "5990": "emem",
  "5991": "emem",
  "5992": "emem",
  "5993": "emem",
  "5994": "emem",
  "5995": "emem",
  "5996": "emem",
  "5997": "emem",
  "5998": "emem",
  "5999": "emem",
  "6000": "emem",
  "6001": "emem",
  "6002": "emem",
  "6003": "emem",
  "6004": "emem",
  "6005": "emem",
  "6006": "emem",
  "6007": "emem",
  "6008": "emem",
  "6009": "emem",
  "6010": "emem",
  "6011": "emem",
  "6012": "emem",
  "6013": "emem",
  "6014": "emem",
  "6015": "emem",
  "6016": "emem",
  "6017": "emem",
  "6018": "emem",
  "6019": "emem",
  "6020": "emem",
  "6021": "emem",
  "6022": "emem",
  "6023": "emem",
  "6024": "emem",
  "6025": "emem",
  "6026": "emem",
  "6027": "emem",
  "6028": "emem",
  "6029": "emem",
  "6030": "emem",
  "6031": "emem",
  "6032": "emem",
  "6033": "emem",
  "6034": "emem",
  "6035": "emem",
  "6036": "emem",
  "6037": "emem",
  "6038": "emem",
  "6039": "emem",
  "6040": "emem",
  "6041": "emem",
  "6042": "emem",
  "6043": "emem",
  "6044": "emem",
  "6045": "emem",
  "6046": "emem",
  "6047": "emem",
  "6048": "emem",
  "6049": "emem",
  "6050": "emem",
  "6051": "emem",
  "6052": "emem",
  "6053": "emem",
  "6054": "emem",
  "6055": "emem",
  "6056": "emem",
  "6057": "emem",
  "6058": "emem",
  "6059": "emem",
  "6060": "emem",
  "6061": "emem",
  "6062": "emem",
  "6063": "emem",
  "6064": "emem",
  "6065": "emem",
  "6066": "emem",
  "6067": "emem",
  "6068": "emem",
  "6069": "emem",
  "6070": "emem",
  "6071": "emem",
  "6072": "emem",
  "6073": "emem",
  "6074": "emem",
  "6075": "emem",
  "6076": "emem",
  "6077": "emem",
  "6078": "emem",
  "6079": "emem",
  "6080": "emem",
  "6081": "emem",
  "6082": "emem",
  "6083": "emem",
  "6084": "emem",
  "6085": "emem",
  "6086": "emem",
  "6087": "emem",
  "6088": "emem",
  "6089": "emem",
  "6090": "emem",
  "6091": "emem",
  "6092": "emem",
  "6093": "emem",
  "6094": "emem",
  "6095": "emem",
  "6096": "emem",
  "6097": "emem",
  "6098": "emem",
  "6099": "emem",
  "6100": "emem",
  "6101": "emem",
  "6102": "emem",
  "6103": "emem",
  "6104": "emem",
  "6105": "emem",
  "6106": "emem",
  "6107": "emem",
  "6108": "emem",
  "6109": "emem",
  "6110": "emem",
  "6111": "emem",
  "6112": "emem",
  "6113": "emem",
  "6114": "emem",
  "6115": "emem",
  "6116": "emem",
  "6117": "emem",
  "6118": "emem",
  "6119": "emem",
  "6120": "emem",
  "6121": "emem",
  "6122": "emem",
  "6123": "emem",
  "6124": "emem",
  "6125": "emem",
  "6126": "emem",
  "6127": "emem",
  "6128": "emem",
  "6129": "emem",
  "6130": "emem",
  "6131": "emem",
  "6132": "emem",
  "6133": "emem",
  "6134": "emem",
  "6135": "emem",
  "6136": "emem",
  "6137": "emem",
  "6138": "emem",
  "6139": "emem",
  "6140": "emem",
  "6141": "emem",
  "6142": "emem",
  "6143": "emem",
  "6144": "emem",
  "6145": "emem",
  "6146": "emem",
  "6147": "emem",
  "6148": "emem",
  "6149": "emem",
  "6150": "emem",
  "6151": "emem",
  "6152": "emem",
  "6153": "emem",
  "6154": "emem",
  "6155": "emem",
  "6156": "emem",
  "6157": "emem",
  "6158": "emem",
  "6159": "emem",
  "6160": "emem",
  "6161": "emem",
  "6162": "emem",
  "6163": "emem",
  "6164": "emem",
  "6165": "emem",
  "6166": "emem",
  "6167": "emem",
  "6168": "emem",
  "6169": "emem",
  "6170": "emem",
  "6171": "emem",
  "6172": "emem",
  "6173": "emem",
  "6174": "emem",
  "6175": "emem",
  "6176": "emem",
  "6177": "emem",
  "6178": "emem",
  "6179": "emem",
  "6180": "emem",
  "6181": "emem",
  "6182": "emem",
  "6183": "emem",
  "6184": "emem",
  "6185": "emem",
  "6186": "emem",
  "6187": "emem",
  "6188": "emem",
  "6189": "emem",
  "6190": "emem",
  "6191": "emem",
  "6192": "emem",
  "6193": "emem",
  "6194": "emem",
  "6195": "emem",
  "6196": "emem",
  "6197": "emem",
  "6198": "emem",
  "6199": "emem",
  "6200": "emem",
  "6201": "emem",
  "6202": "emem",
  "6203": "emem",
  "6204": "emem",
  "6205": "emem",
  "6206": "emem",
  "6207": "emem",
  "6208": "emem",
  "6209": "emem",
  "6210": "emem",
  "6211": "emem",
  "6212": "emem",
  "6213": "emem",
  "6214": "emem",
  "6215": "emem",
  "6216": "emem",
  "6217": "emem",
  "6218": "emem",
  "6219": "emem",
  "6220": "emem",
  "6221": "emem",
  "6222": "emem",
  "6223": "emem",
  "6224": "emem",
  "6225": "emem",
  "6226": "emem",
  "6227": "emem",
  "6228": "emem",
  "6229": "emem",
  "6230": "emem",
  "6231": "emem",
  "6232": "emem",
  "6233": "emem",
  "6234": "emem",
  "6235": "emem",
  "6236": "emem",
  "6237": "emem",
  "6238": "emem",
  "6239": "emem",
  "6240": "emem",
  "6241": "emem",
  "6242": "emem",
  "6243": "emem",
  "6244": "emem",
  "6245": "emem",
  "6246": "emem",
  "6247": "emem",
  "6248": "emem",
  "6249": "emem",
  "6250": "emem",
  "6251": "emem",
  "6252": "emem",
  "6253": "emem",
  "6254": "emem",
  "6255": "emem",
  "6256": "emem",
  "6257": "emem",
  "6258": "emem",
  "6259": "emem",
  "6260": "emem",
  "6261": "emem",
  "6262": "emem",
  "6263": "emem",
  "6264": "emem",
  "6265": "emem",
  "6266": "emem",
  "6267": "emem",
  "6268": "emem",
  "6269": "emem",
  "6270": "emem",
  "6271": "emem",
  "6272": "emem",
  "6273": "emem",
  "6274": "emem",
  "6275": "emem",
  "6276": "emem",
  "6277": "emem",
  "6278": "emem",
  "6279": "emem",
  "6280": "emem",
  "6281": "emem",
  "6282": "emem",
  "6283": "emem",
  "6284": "emem",
  "6285": "emem",
  "6286": "emem",
  "6287": "emem",
  "6288": "emem",
  "6289": "emem",
  "6290": "emem",
  "6291": "emem",
  "6292": "emem",
  "6293": "emem",
  "6294": "emem",
  "6295": "emem",
  "6296": "emem",
  "6297": "emem",
  "6298": "emem",
  "6299": "emem",
  "6300": "emem",
  "6301": "emem",
  "6302": "emem",
  "6303": "emem",
  "6304": "emem",
  "6305": "emem",
  "6306": "emem",
  "6307": "emem",
  "6308": "emem",
  "6309": "emem",
  "6310": "emem",
  "6311": "emem",
  "6312": "emem",
  "6313": "emem",
  "6314": "emem",
  "6315": "emem",
  "6316": "emem",
  "6317": "emem",
  "6318": "emem",
  "6319": "emem",
  "6320": "emem",
  "6321": "emem",
  "6322": "emem",
  "6323": "emem",
  "6324": "emem",
  "6325": "emem",
  "6326": "emem",
  "6327": "emem",
  "6328": "emem",
  "6329": "emem",
  "6330": "emem",
  "6331": "emem",
  "6332": "emem",
  "6333": "emem",
  "6334": "emem",
  "6335": "emem",
  "6336": "emem",
  "6337": "emem",
  "6338": "emem",
  "6339": "emem",
  "6340": "emem",
  "6341": "emem",
  "6342": "emem",
  "6343": "emem",
  "6344": "emem",
  "6345": "emem",
  "6346": "emem",
  "6347": "emem",
  "6348": "emem",
  "6349": "emem",
  "6350": "emem",
  "6351": "emem",
  "6352": "emem",
  "6353": "emem",
  "6354": "emem",
  "6355": "emem",
  "6356": "emem",
  "6357": "emem",
  "6358": "emem",
  "6359": "emem",
  "6360": "emem",
  "6361": "emem",
  "6362": "emem",
  "6363": "emem",
  "6364": "emem",
  "6365": "emem",
  "6366": "emem",
  "6367": "emem",
  "6368": "emem",
  "6369": "emem",
  "6370": "emem",
  "6371": "emem",
  "6372": "emem",
  "6373": "emem",
  "6374": "emem",
  "6375": "emem",
  "6376": "emem",
  "6377": "emem",
  "6378": "emem",
  "6379": "emem",
  "6380": "emem",
  "6381": "emem",
  "6382": "emem",
  "6383": "emem",
  "6384": "emem",
  "6385": "emem",
  "6386": "emem",
  "6387": "emem",
  "6388": "emem",
  "6389": "emem",
  "6390": "emem",
  "6391": "emem",
  "6392": "emem",
  "6393": "emem",
  "6394": "emem",
  "6395": "emem",
  "6396": "emem",
  "6397": "emem",
  "6398": "emem",
  "6399": "emem",
  "6400": "emem",
  "6401": "emem",
  "6402": "emem",
  "6403": "emem",
  "6404": "emem",
  "6405": "emem",
  "6406": "emem",
  "6407": "emem",
  "6408": "emem",
  "6409": "emem",
  "6410": "emem",
  "6411": "emem",
  "6412": "emem",
  "6413": "emem",
  "6414": "emem",
  "6415": "emem",
  "6416": "emem",
  "6417": "emem",
  "6418": "emem",
  "6419": "emem",
  "6420": "emem",
  "6421": "emem",
  "6422": "emem",
  "6423": "emem",
  "6424": "emem",
  "6425": "emem",
  "6426": "emem",
  "6427": "emem",
  "6428": "emem",
  "6429": "emem",
  "6430": "emem",
  "6431": "emem",
  "6432": "emem",
  "6433": "emem",
  "6434": "emem",
  "6435": "emem",
  "6436": "emem",
  "6437": "emem",
  "6438": "emem",
  "6439": "emem",
  "6440": "emem",
  "6441": "emem",
  "6442": "emem",
  "6443": "emem",
  "6444": "emem",
  "6445": "emem",
  "6446": "emem",
  "6447": "emem",
  "6448": "emem",
  "6449": "emem",
  "6450": "emem",
  "6451": "emem",
  "6452": "emem",
  "6453": "emem",
  "6454": "emem",
  "6455": "emem",
  "6456": "emem",
  "6457": "emem",
  "6458": "emem",
  "6459": "emem",
  "6460": "emem",
  "6461": "emem",
  "6462": "emem",
  "6463": "emem",
  "6464": "emem",
  "6465": "emem",
  "6466": "emem",
  "6467": "emem",
  "6468": "emem",
  "6469": "emem",
  "6470": "emem",
  "6471": "emem",
  "6472": "emem",
  "6473": "emem",
  "6474": "emem",
  "6475": "emem",
  "6476": "emem",
  "6477": "emem",
  "6478": "emem",
  "6479": "emem",
  "6480": "emem",
  "6481": "emem",
  "6482": "emem",
  "6483": "emem",
  "6484": "emem",
  "6485": "emem",
  "6486": "emem",
  "6487": "emem",
  "6488": "emem",
  "6489": "emem",
  "6490": "emem",
  "6491": "emem",
  "6492": "emem",
  "6493": "emem",
  "6494": "emem",
  "6495": "emem",
  "6496": "emem",
  "6497": "emem",
  "6498": "emem",
  "6499": "emem",
  "6500": "emem",
  "6501": "emem",
  "6502": "emem",
  "6503": "emem",
  "6504": "emem",
  "6505": "emem",
  "6506": "emem",
  "6507": "emem",
  "6508": "emem",
  "6509": "emem",
  "6510": "emem",
  "6511": "emem",
  "6512": "emem",
  "6513": "emem",
  "6514": "emem",
  "6515": "emem",
  "6516": "emem",
  "6517": "emem",
  "6518": "emem",
  "6519": "emem",
  "6520": "emem",
  "6521": "emem",
  "6522": "emem",
  "6523": "emem",
  "6524": "emem",
  "6525": "emem",
  "6526": "emem",
  "6527": "emem",
  "6528": "emem",
  "6529": "emem",
  "6530": "emem",
  "6531": "emem",
  "6532": "emem",
  "6533": "emem",
  "6534": "emem",
  "6535": "emem",
  "6536": "emem",
  "6537": "emem",
  "6538": "emem",
  "6539": "emem",
  "6540": "emem",
  "6541": "emem",
  "6542": "emem",
  "6543": "emem",
  "6544": "emem",
  "6545": "emem",
  "6546": "emem",
  "6547": "emem",
  "6548": "emem",
  "6549": "emem",
  "6550": "emem",
  "6551": "emem",
  "6552": "emem",
  "6553": "emem",
  "6554": "emem",
  "6555": "emem",
  "6556": "emem",
  "6557": "emem",
  "6558": "emem",
  "6559": "emem",
  "6560": "emem",
  "6561": "emem",
  "6562": "emem",
  "6563": "emem",
  "6564": "emem",
  "6565": "emem",
  "6566": "emem",
  "6567": "emem",
  "6568": "emem",
  "6569": "emem",
  "6570": "emem",
  "6571": "emem",
  "6572": "emem",
  "6573": "emem",
  "6574": "emem",
  "6575": "emem",
  "6576": "emem",
  "6577": "emem",
  "6578": "emem",
  "6579": "emem",
  "6580": "emem",
  "6581": "emem",
  "6582": "emem",
  "6583": "emem",
  "6584": "emem",
  "6585": "emem",
  "6586": "emem",
  "6587": "emem",
  "6588": "emem",
  "6589": "emem",
  "6590": "emem",
  "6591": "emem",
  "6592": "emem",
  "6593": "emem",
  "6594": "emem",
  "6595": "emem",
  "6596": "emem",
  "6597": "emem",
  "6598": "emem",
  "6599": "emem",
  "6600": "emem",
  "6601": "emem",
  "6602": "emem",
  "6603": "emem",
  "6604": "emem",
  "6605": "emem",
  "6606": "emem",
  "6607": "emem",
  "6608": "emem",
  "6609": "emem",
  "6610": "emem",
  "6611": "emem",
  "6612": "emem",
  "6613": "emem",
  "6614": "emem",
  "6615": "emem",
  "6616": "emem",
  "6617": "emem",
  "6618": "emem",
  "6619": "emem",
  "6620": "emem",
  "6621": "emem",
  "6622": "emem",
  "6623": "emem",
  "6624": "emem",
  "6625": "emem",
  "6626": "emem",
  "6627": "emem",
  "6628": "emem",
  "6629": "emem",
  "6630": "emem",
  "6631": "emem",
  "6632": "emem",
  "6633": "emem",
  "6634": "emem",
  "6635": "emem",
  "6636": "emem",
  "6637": "emem",
  "6638": "emem",
  "6639": "emem",
  "6640": "emem",
  "6641": "emem",
  "6642": "emem",
  "6643": "emem",
  "6644": "emem",
  "6645": "emem",
  "6646": "emem",
  "6647": "emem",
  "6648": "emem",
  "6649": "emem",
  "6650": "emem",
  "6651": "emem",
  "6652": "emem",
  "6653": "emem",
  "6654": "emem",
  "6655": "emem",
  "6656": "emem",
  "6657": "emem",
  "6658": "emem",
  "6659": "emem",
  "6660": "emem",
  "6661": "emem",
  "6662": "emem",
  "6663": "emem",
  "6664": "emem",
  "6665": "emem",
  "6666": "emem",
  "6667": "emem",
  "6668": "emem",
  "6669": "emem",
  "6670": "emem",
  "6671": "emem",
  "6672": "emem",
  "6673": "emem",
  "6674": "emem",
  "6675": "emem",
  "6676": "emem",
  "6677": "emem",
  "6678": "emem",
  "6679": "emem",
  "6680": "emem",
  "6681": "emem",
  "6682": "emem",
  "6683": "emem",
  "6684": "emem",
  "6685": "emem",
  "6686": "emem",
  "6687": "emem",
  "6688": "emem",
  "6689": "emem",
  "6690": "emem",
  "6691": "emem",
  "6692": "emem",
  "6693": "emem",
  "6694": "emem",
  "6695": "emem",
  "6696": "emem",
  "6697": "emem",
  "6698": "emem",
  "6699": "emem",
  "6700": "emem",
  "6701": "emem",
  "6702": "emem",
  "6703": "emem",
  "6704": "emem",
  "6705": "emem",
  "6706": "emem",
  "6707": "emem",
  "6708": "emem",
  "6709": "emem",
  "6710": "emem",
  "6711": "emem",
  "6712": "emem",
  "6713": "emem",
  "6714": "emem",
  "6715": "emem",
  "6716": "emem",
  "6717": "emem",
  "6718": "emem",
  "6719": "emem",
  "6720": "emem",
  "6721": "emem",
  "6722": "emem",
  "6723": "emem",
  "6724": "emem",
  "6725": "emem",
  "6726": "emem",
  "6727": "emem",
  "6728": "emem",
  "6729": "emem",
  "6730": "emem",
  "6731": "emem",
  "6732": "emem",
  "6733": "emem",
  "6734": "emem",
  "6735": "emem",
  "6736": "emem",
  "6737": "emem",
  "6738": "emem",
  "6739": "emem",
  "6740": "emem",
  "6741": "emem",
  "6742": "emem",
  "6743": "emem",
  "6744": "emem",
  "6745": "emem",
  "6746": "emem",
  "6747": "emem",
  "6748": "emem",
  "6749": "emem",
  "6750": "emem",
  "6751": "emem",
  "6752": "emem",
  "6753": "emem",
  "6754": "emem",
  "6755": "emem",
  "6756": "emem",
  "6757": "emem",
  "6758": "emem",
  "6759": "emem",
  "6760": "emem",
  "6761": "emem",
  "6762": "emem",
  "6763": "emem",
  "6764": "emem",
  "6765": "emem",
  "6766": "emem",
  "6767": "emem",
  "6768": "emem",
  "6769": "emem",
  "6770": "emem",
  "6771": "emem",
  "6772": "emem",
  "6773": "emem",
  "6774": "emem",
  "6775": "emem",
  "6776": "emem",
  "6777": "emem",
  "6778": "emem",
  "6779": "emem",
  "6780": "emem",
  "6781": "emem",
  "6782": "emem",
  "6783": "emem",
  "6784": "emem",
  "6785": "emem",
  "6786": "emem",
  "6787": "emem",
  "6788": "emem",
  "6789": "emem",
  "6790": "emem",
  "6791": "emem",
  "6792": "emem",
  "6793": "emem",
  "6794": "emem",
  "6795": "emem",
  "6796": "emem",
  "6797": "emem",
  "6798": "emem",
  "6799": "emem",
  "6800": "emem",
  "6801": "emem",
  "6802": "emem",
  "6803": "emem",
  "6804": "emem",
  "6805": "emem",
  "6806": "emem",
  "6807": "emem",
  "6808": "emem",
  "6809": "emem",
  "6810": "emem",
  "6811": "emem",
  "6812": "emem",
  "6813": "emem",
  "6814": "emem",
  "6815": "emem",
  "6816": "emem",
  "6817": "emem",
  "6818": "emem",
  "6819": "emem",
  "6820": "emem",
  "6821": "emem",
  "6822": "emem",
  "6823": "emem",
  "6824": "emem",
  "6825": "emem",
  "6826": "emem",
  "6827": "emem",
  "6828": "emem",
  "6829": "emem",
  "6830": "emem",
  "6831": "emem",
  "6832": "emem",
  "6833": "emem",
  "6834": "emem",
  "6835": "emem",
  "6836": "emem",
  "6837": "emem",
  "6838": "emem",
  "6839": "emem",
  "6840": "emem",
  "6841": "emem",
  "6842": "emem",
  "6843": "emem",
  "6844": "emem",
  "6845": "emem",
  "6846": "emem",
  "6847": "emem",
  "6848": "emem",
  "6849": "emem",
  "6850": "emem",
  "6851": "emem",
  "6852": "emem",
  "6853": "emem",
  "6854": "emem",
  "6855": "emem",
  "6856": "emem",
  "6857": "emem",
  "6858": "emem",
  "6859": "emem",
  "6860": "emem",
  "6861": "emem",
  "6862": "emem",
  "6863": "emem",
  "6864": "emem",
  "6865": "emem",
  "6866": "emem",
  "6867": "emem",
  "6868": "emem",
  "6869": "emem",
  "6870": "emem",
  "6871": "emem",
  "6872": "emem",
  "6873": "emem",
  "6874": "emem",
  "6875": "emem",
  "6876": "emem",
  "6877": "emem",
  "6878": "emem",
  "6879": "emem",
  "6880": "emem",
  "6881": "emem",
  "6882": "emem",
  "6883": "emem",
  "6884": "emem",
  "6885": "emem",
  "6886": "emem",
  "6887": "emem",
  "6888": "emem",
  "6889": "emem",
  "6890": "emem",
  "6891": "emem",
  "6892": "emem",
  "6893": "emem",
  "6894": "emem",
  "6895": "emem",
  "6896": "emem",
  "6897": "emem",
  "6898": "emem",
  "6899": "emem",
  "6900": "emem",
  "6901": "emem",
  "6902": "emem",
  "6903": "emem",
  "6904": "emem",
  "6905": "emem",
  "6906": "emem",
  "6907": "emem",
  "6908": "emem",
  "6909": "emem",
  "6910": "emem",
  "6911": "emem",
  "6912": "emem",
  "6913": "emem",
  "6914": "emem",
  "6915": "emem",
  "6916": "emem",
  "6917": "emem",
  "6918": "emem",
  "6919": "emem",
  "6920": "emem",
  "6921": "emem",
  "6922": "emem",
  "6923": "emem",
  "6924": "emem",
  "6925": "emem",
  "6926": "emem",
  "6927": "emem",
  "6928": "emem",
  "6929": "emem",
  "6930": "emem",
  "6931": "emem",
  "6932": "emem",
  "6933": "emem",
  "6934": "emem",
  "6935": "emem",
  "6936": "emem",
  "6937": "emem",
  "6938": "emem",
  "6939": "emem",
  "6940": "emem",
  "6941": "emem",
  "6942": "emem",
  "6943": "emem",
  "6944": "emem",
  "6945": "emem",
  "6946": "emem",
  "6947": "emem",
  "6948": "emem",
  "6949": "emem",
  "6950": "emem",
  "6951": "emem",
  "6952": "emem",
  "6953": "emem",
  "6954": "emem",
  "6955": "emem",
  "6956": "emem",
  "6957": "emem",
  "6958": "emem",
  "6959": "emem",
  "6960": "emem",
  "6961": "emem",
  "6962": "emem",
  "6963": "emem",
  "6964": "emem",
  "6965": "emem",
  "6966": "emem",
  "6967": "emem",
  "6968": "emem",
  "6969": "emem",
  "6970": "emem",
  "6971": "emem",
  "6972": "emem",
  "6973": "emem",
  "6974": "emem",
  "6975": "emem",
  "6976": "emem",
  "6977": "emem",
  "6978": "emem",
  "6979": "emem",
  "6980": "emem",
  "6981": "emem",
  "6982": "emem",
  "6983": "emem",
  "6984": "emem",
  "6985": "emem",
  "6986": "emem",
  "6987": "emem",
  "6988": "emem",
  "6989": "emem",
  "6990": "emem",
  "6991": "emem",
  "6992": "emem",
  "6993": "emem",
  "6994": "emem",
  "6995": "emem",
  "6996": "emem",
  "6997": "emem",
  "6998": "emem",
  "6999": "emem",
  "7000": "emem",
  "7001": "emem",
  "7002": "emem",
  "7003": "emem",
  "7004": "emem",
  "7005": "emem",
  "7006": "emem",
  "7007": "emem",
  "7008": "emem",
  "7009": "emem",
  "7010": "emem",
  "7011": "emem",
  "7012": "emem",
  "7013": "emem",
  "7014": "emem",
  "7015": "emem",
  "7016": "emem",
  "7017": "emem",
  "7018": "emem",
  "7019": "emem",
  "7020": "emem",
  "7021": "emem",
  "7022": "emem",
  "7023": "emem",
  "7024": "emem",
  "7025": "emem",
  "7026": "emem",
  "7027": "emem",
  "7028": "emem",
  "7029": "emem",
  "7030": "emem",
  "7031": "emem",
  "7032": "emem",
  "7033": "emem",
  "7034": "emem",
  "7035": "emem",
  "7036": "emem",
  "7037": "emem",
  "7038": "emem",
  "7039": "emem",
  "7040": "emem",
  "7041": "emem",
  "7042": "emem",
  "7043": "emem",
  "7044": "emem",
  "7045": "emem",
  "7046": "emem",
  "7047": "emem",
  "7048": "emem",
  "7049": "emem",
  "7050": "emem",
  "7051": "emem",
  "7052": "emem",
  "7053": "emem",
  "7054": "emem",
  "7055": "emem",
  "7056": "emem",
  "7057": "emem",
  "7058": "emem",
  "7059": "emem",
  "7060": "emem",
  "7061": "emem",
  "7062": "emem",
  "7063": "emem",
  "7064": "emem",
  "7065": "emem",
  "7066": "emem",
  "7067": "emem",
  "7068": "emem",
  "7069": "emem",
  "7070": "emem",
  "7071": "emem",
  "7072": "emem",
  "7073": "emem",
  "7074": "emem",
  "7075": "emem",
  "7076": "emem",
  "7077": "emem",
  "7078": "emem",
  "7079": "emem",
  "7080": "emem",
  "7081": "emem",
  "7082": "emem",
  "7083": "emem",
  "7084": "emem",
  "7085": "emem",
  "7086": "emem",
  "7087": "emem",
  "7088": "emem",
  "7089": "emem",
  "7090": "emem",
  "7091": "emem",
  "7092": "emem",
  "7093": "emem",
  "7094": "emem",
  "7095": "emem",
  "7096": "emem",
  "7097": "emem",
  "7098": "emem",
  "7099": "emem",
  "7100": "emem",
  "7101": "emem",
  "7102": "emem",
  "7103": "emem",
  "7104": "emem",
  "7105": "emem",
  "7106": "emem",
  "7107": "emem",
  "7108": "emem",
  "7109": "emem",
  "7110": "emem",
  "7111": "emem",
  "7112": "emem",
  "7113": "emem",
  "7114": "emem",
  "7115": "emem",
  "7116": "emem",
  "7117": "emem",
  "7118": "emem",
  "7119": "emem",
  "7120": "emem",
  "7121": "emem",
  "7122": "emem",
  "7123": "emem",
  "7124": "emem",
  "7125": "emem",
  "7126": "emem",
  "7127": "emem",
  "7128": "emem",
  "7129": "emem",
  "7130": "emem",
  "7131": "emem",
  "7132": "emem",
  "7133": "emem",
  "7134": "emem",
  "7135": "emem",
  "7136": "emem",
  "7137": "emem",
  "7138": "emem",
  "7139": "emem",
  "7140": "emem",
  "7141": "emem",
  "7142": "emem",
  "7143": "emem",
  "7144": "emem",
  "7145": "emem",
  "7146": "emem",
  "7147": "emem",
  "7148": "emem",
  "7149": "emem",
  "7150": "emem",
  "7151": "emem",
  "7152": "emem",
  "7153": "emem",
  "7154": "emem",
  "7155": "emem",
  "7156": "emem",
  "7157": "emem",
  "7158": "emem",
  "7159": "emem",
  "7160": "emem",
  "7161": "emem",
  "7162": "emem",
  "7163": "emem",
  "7164": "emem",
  "7165": "emem",
  "7166": "emem",
  "7167": "emem",
  "7168": "emem",
  "7169": "emem",
  "7170": "emem",
  "7171": "emem",
  "7172": "emem",
  "7173": "emem",
  "7174": "emem",
  "7175": "emem",
  "7176": "emem",
  "7177": "emem",
  "7178": "emem",
  "7179": "emem",
  "7180": "emem",
  "7181": "emem",
  "7182": "emem",
  "7183": "emem",
  "7184": "emem",
  "7185": "emem",
  "7186": "emem",
  "7187": "emem",
  "7188": "emem",
  "7189": "emem",
  "7190": "emem",
  "7191": "emem",
  "7192": "emem",
  "7193": "emem",
  "7194": "emem",
  "7195": "emem",
  "7196": "emem",
  "7197": "emem",
  "7198": "emem",
  "7199": "emem",
  "7200": "emem",
  "7201": "emem",
  "7202": "emem",
  "7203": "emem",
  "7204": "emem",
  "7205": "emem",
  "7206": "emem",
  "7207": "emem",
  "7208": "emem",
  "7209": "emem",
  "7210": "emem",
  "7211": "emem",
  "7212": "emem",
  "7213": "emem",
  "7214": "emem",
  "7215": "emem",
  "7216": "emem",
  "7217": "emem",
  "7218": "emem",
  "7219": "emem",
  "7220": "emem",
  "7221": "emem",
  "7222": "emem",
  "7223": "emem",
  "7224": "emem",
  "7225": "emem",
  "7226": "emem",
  "7227": "emem",
  "7228": "emem",
  "7229": "emem",
  "7230": "emem",
  "7231": "emem",
  "7232": "emem",
  "7233": "emem",
  "7234": "emem",
  "7235": "emem",
  "7236": "emem",
  "7237": "emem",
  "7238": "emem",
  "7239": "emem",
  "7240": "emem",
  "7241": "emem",
  "7242": "emem",
  "7243": "emem",
  "7244": "emem",
  "7245": "emem",
  "7246": "emem",
  "7247": "emem",
  "7248": "emem",
  "7249": "emem",
  "7250": "emem",
  "7251": "emem",
  "7252": "emem",
  "7253": "emem",
  "7254": "emem",
  "7255": "emem",
  "7256": "emem",
  "7257": "emem",
  "7258": "emem",
  "7259": "emem",
  "7260": "emem",
  "7261": "emem",
  "7262": "emem",
  "7263": "emem",
  "7264": "emem",
  "7265": "emem",
  "7266": "emem",
  "7267": "emem",
  "7268": "emem",
  "7269": "emem",
  "7270": "emem",
  "7271": "emem",
  "7272": "emem",
  "7273": "emem",
  "7274": "emem",
  "7275": "emem",
  "7276": "emem",
  "7277": "emem",
  "7278": "emem",
  "7279": "emem",
  "7280": "emem",
  "7281": "emem",
  "7282": "emem",
  "7283": "emem",
  "7284": "emem",
  "7285": "emem",
  "7286": "emem",
  "7287": "emem",
  "7288": "emem",
  "7289": "emem",
  "7290": "emem",
  "7291": "emem",
  "7292": "emem",
  "7293": "emem",
  "7294": "emem",
  "7295": "emem",
  "7296": "emem",
  "7297": "emem",
  "7298": "emem",
  "7299": "emem",
  "7300": "emem",
  "7301": "emem",
  "7302": "emem",
  "7303": "emem",
  "7304": "emem",
  "7305": "emem",
  "7306": "emem",
  "7307": "emem",
  "7308": "emem",
  "7309": "emem",
  "7310": "emem",
  "7311": "emem",
  "7312": "emem",
  "7313": "emem",
  "7314": "emem",
  "7315": "emem",
  "7316": "emem",
  "7317": "emem",
  "7318": "emem",
  "7319": "emem",
  "7320": "emem",
  "7321": "emem",
  "7322": "emem",
  "7323": "emem",
  "7324": "emem",
  "7325": "emem",
  "7326": "emem",
  "7327": "emem",
  "7328": "emem",
  "7329": "emem",
  "7330": "emem",
  "7331": "emem",
  "7332": "emem",
  "7333": "emem",
  "7334": "emem",
  "7335": "emem",
  "7336": "emem",
  "7337": "emem",
  "7338": "emem",
  "7339": "emem",
  "7340": "emem",
  "7341": "emem",
  "7342": "emem",
  "7343": "emem",
  "7344": "emem",
  "7345": "emem",
  "7346": "emem",
  "7347": "emem",
  "7348": "emem",
  "7349": "emem",
  "7350": "emem",
  "7351": "emem",
  "7352": "emem",
  "7353": "emem",
  "7354": "emem",
  "7355": "emem",
  "7356": "emem",
  "7357": "emem",
  "7358": "emem",
  "7359": "emem",
  "7360": "emem",
  "7361": "emem",
  "7362": "emem",
  "7363": "emem",
  "7364": "emem",
  "7365": "emem",
  "7366": "emem",
  "7367": "emem",
  "7368": "emem",
  "7369": "emem",
  "7370": "emem",
  "7371": "emem",
  "7372": "emem",
  "7373": "emem",
  "7374": "emem",
  "7375": "emem",
  "7376": "emem",
  "7377": "emem",
  "7378": "emem",
  "7379": "emem",
  "7380": "emem",
  "7381": "emem",
  "7382": "emem",
  "7383": "emem",
  "7384": "emem",
  "7385": "emem",
  "7386": "emem",
  "7387": "emem",
  "7388": "emem",
  "7389": "emem",
  "7390": "emem",
  "7391": "emem",
  "7392": "emem",
  "7393": "emem",
  "7394": "emem",
  "7395": "emem",
  "7396": "emem",
  "7397": "emem",
  "7398": "emem",
  "7399": "emem",
  "7400": "emem",
  "7401": "emem",
  "7402": "emem",
  "7403": "emem",
  "7404": "emem",
  "7405": "emem",
  "7406": "emem",
  "7407": "emem",
  "7408": "emem",
  "7409": "emem",
  "7410": "emem",
  "7411": "emem",
  "7412": "emem",
  "7413": "emem",
  "7414": "emem",
  "7415": "emem",
  "7416": "emem",
  "7417": "emem",
  "7418": "emem",
  "7419": "emem",
  "7420": "emem",
  "7421": "emem",
  "7422": "emem",
  "7423": "emem",
  "7424": "emem",
  "7425": "emem",
  "7426": "emem",
  "7427": "emem",
  "7428": "emem",
  "7429": "emem",
  "7430": "emem",
  "7431": "emem",
  "7432": "emem",
  "7433": "emem",
  "7434": "emem",
  "7435": "emem",
  "7436": "emem",
  "7437": "emem",
  "7438": "emem",
  "7439": "emem",
  "7440": "emem",
  "7441": "emem",
  "7442": "emem",
  "7443": "emem",
  "7444": "emem",
  "7445": "emem",
  "7446": "emem",
  "7447": "emem",
  "7448": "emem",
  "7449": "emem",
  "7450": "emem",
  "7451": "emem",
  "7452": "emem",
  "7453": "emem",
  "7454": "emem",
  "7455": "emem",
  "7456": "emem",
  "7457": "emem",
  "7458": "emem",
  "7459": "emem",
  "7460": "emem",
  "7461": "emem",
  "7462": "emem",
  "7463": "emem",
  "7464": "emem",
  "7465": "emem",
  "7466": "emem",
  "7467": "emem",
  "7468": "emem",
  "7469": "emem",
  "7470": "emem",
  "7471": "emem",
  "7472": "emem",
  "7473": "emem",
  "7474": "emem",
  "7475": "emem",
  "7476": "emem",
  "7477": "emem",
  "7478": "emem",
  "7479": "emem",
  "7480": "emem",
  "7481": "emem",
  "7482": "emem",
  "7483": "emem",
  "7484": "emem",
  "7485": "emem",
  "7486": "emem",
  "7487": "emem",
  "7488": "emem",
  "7489": "emem",
  "7490": "emem",
  "7491": "emem",
  "7492": "emem",
  "7493": "emem",
  "7494": "emem",
  "7495": "emem",
  "7496": "emem",
  "7497": "emem",
  "7498": "emem",
  "7499": "emem",
  "7500": "emem",
  "7501": "emem",
  "7502": "emem",
  "7503": "emem",
  "7504": "emem",
  "7505": "emem",
  "7506": "emem",
  "7507": "emem",
  "7508": "emem",
  "7509": "emem",
  "7510": "emem",
  "7511": "emem",
  "7512": "emem",
  "7513": "emem",
  "7514": "emem",
  "7515": "emem",
  "7516": "emem",
  "7517": "emem",
  "7518": "emem",
  "7519": "emem",
  "7520": "emem",
  "7521": "emem",
  "7522": "emem",
  "7523": "emem",
  "7524": "emem",
  "7525": "emem",
  "7526": "emem",
  "7527": "emem",
  "7528": "emem",
  "7529": "emem",
  "7530": "emem",
  "7531": "emem",
  "7532": "emem",
  "7533": "emem",
  "7534": "emem",
  "7535": "emem",
  "7536": "emem",
  "7537": "emem",
  "7538": "emem",
  "7539": "emem",
  "7540": "emem",
  "7541": "emem",
  "7542": "emem",
  "7543": "emem",
  "7544": "emem",
  "7545": "emem",
  "7546": "emem",
  "7547": "emem",
  "7548": "emem",
  "7549": "emem",
  "7550": "emem",
  "7551": "emem",
  "7552": "emem",
  "7553": "emem",
  "7554": "emem",
  "7555": "emem",
  "7556": "emem",
  "7557": "emem",
  "7558": "emem",
  "7559": "emem",
  "7560": "emem",
  "7561": "emem",
  "7562": "emem",
  "7563": "emem",
  "7564": "emem",
  "7565": "emem",
  "7566": "emem",
  "7567": "emem",
  "7568": "emem",
  "7569": "emem",
  "7570": "emem",
  "7571": "emem",
  "7572": "emem",
  "7573": "emem",
  "7574": "emem",
  "7575": "emem",
  "7576": "emem",
  "7577": "emem",
  "7578": "emem",
  "7579": "emem",
  "7580": "emem",
  "7581": "emem",
  "7582": "emem",
  "7583": "emem",
  "7584": "emem",
  "7585": "emem",
  "7586": "emem",
  "7587": "emem",
  "7588": "emem",
  "7589": "emem",
  "7590": "emem",
  "7591": "emem",
  "7592": "emem",
  "7593": "emem",
  "7594": "emem",
  "7595": "emem",
  "7596": "emem",
  "7597": "emem",
  "7598": "emem",
  "7599": "emem",
  "7600": "emem",
  "7601": "emem",
  "7602": "emem",
  "7603": "emem",
  "7604": "emem",
  "7605": "emem",
  "7606": "emem",
  "7607": "emem",
  "7608": "emem",
  "7609": "emem",
  "7610": "emem",
  "7611": "emem",
  "7612": "emem",
  "7613": "emem",
  "7614": "emem",
  "7615": "emem",
  "7616": "emem",
  "7617": "emem",
  "7618": "emem",
  "7619": "emem",
  "7620": "emem",
  "7621": "emem",
  "7622": "emem",
  "7623": "emem",
  "7624": "emem",
  "7625": "emem",
  "7626": "emem",
  "7627": "emem",
  "7628": "emem",
  "7629": "emem",
  "7630": "emem",
  "7631": "emem",
  "7632": "emem",
  "7633": "emem",
  "7634": "emem",
  "7635": "emem",
  "7636": "emem",
  "7637": "emem",
  "7638": "emem",
  "7639": "emem",
  "7640": "emem",
  "7641": "emem",
  "7642": "emem",
  "7643": "emem",
  "7644": "emem",
  "7645": "emem",
  "7646": "emem",
  "7647": "emem",
  "7648": "emem",
  "7649": "emem",
  "7650": "emem",
  "7651": "emem",
  "7652": "emem",
  "7653": "emem",
  "7654": "emem",
  "7655": "emem",
  "7656": "emem",
  "7657": "emem",
  "7658": "emem",
  "7659": "emem",
  "7660": "emem",
  "7661": "emem",
  "7662": "emem",
  "7663": "emem",
  "7664": "emem",
  "7665": "emem",
  "7666": "emem",
  "7667": "emem",
  "7668": "emem",
  "7669": "emem",
  "7670": "emem",
  "7671": "emem",
  "7672": "emem",
  "7673": "emem",
  "7674": "emem",
  "7675": "emem",
  "7676": "emem",
  "7677": "emem",
  "7678": "emem",
  "7679": "emem",
  "7680": "emem",
  "7681": "emem",
  "7682": "emem",
  "7683": "emem",
  "7684": "emem",
  "7685": "emem",
  "7686": "emem",
  "7687": "emem",
  "7688": "emem",
  "7689": "emem",
  "7690": "emem",
  "7691": "emem",
  "7692": "emem",
  "7693": "emem",
  "7694": "emem",
  "7695": "emem",
  "7696": "emem",
  "7697": "emem",
  "7698": "emem",
  "7699": "emem",
  "7700": "emem",
  "7701": "emem",
  "7702": "emem",
  "7703": "emem",
  "7704": "emem",
  "7705": "emem",
  "7706": "emem",
  "7707": "emem",
  "7708": "emem",
  "7709": "emem",
  "7710": "emem",
  "7711": "emem",
  "7712": "emem",
  "7713": "emem",
  "7714": "emem",
  "7715": "emem",
  "7716": "emem",
  "7717": "emem",
  "7718": "emem",
  "7719": "emem",
  "7720": "emem",
  "7721": "emem",
  "7722": "emem",
  "7723": "emem",
  "7724": "emem",
  "7725": "emem",
  "7726": "emem",
  "7727": "emem",
  "7728": "emem",
  "7729": "emem",
  "7730": "emem",
  "7731": "emem",
  "7732": "emem",
  "7733": "emem",
  "7734": "emem",
  "7735": "emem",
  "7736": "emem",
  "7737": "emem",
  "7738": "emem",
  "7739": "emem",
  "7740": "emem",
  "7741": "emem",
  "7742": "emem",
  "7743": "emem",
  "7744": "emem",
  "7745": "emem",
  "7746": "emem",
  "7747": "emem",
  "7748": "emem",
  "7749": "emem",
  "7750": "emem",
  "7751": "emem",
  "7752": "emem",
  "7753": "emem",
  "7754": "emem",
  "7755": "emem",
  "7756": "emem",
  "7757": "emem",
  "7758": "emem",
  "7759": "emem",
  "7760": "emem",
  "7761": "emem",
  "7762": "emem",
  "7763": "emem",
  "7764": "emem",
  "7765": "emem",
  "7766": "emem",
  "7767": "emem",
  "7768": "emem",
  "7769": "emem",
  "7770": "emem",
  "7771": "emem",
  "7772": "emem",
  "7773": "emem",
  "7774": "emem",
  "7775": "emem",
  "7776": "emem",
  "7777": "emem",
  "7778": "emem",
  "7779": "emem",
  "7780": "emem",
  "7781": "emem",
  "7782": "emem",
  "7783": "emem",
  "7784": "emem",
  "7785": "emem",
  "7786": "emem",
  "7787": "emem",
  "7788": "emem",
  "7789": "emem",
  "7790": "emem",
  "7791": "emem",
  "7792": "emem",
  "7793": "emem",
  "7794": "emem",
  "7795": "emem",
  "7796": "emem",
  "7797": "emem",
  "7798": "emem",
  "7799": "emem",
  "7800": "emem",
  "7801": "emem",
  "7802": "emem",
  "7803": "emem",
  "7804": "emem",
  "7805": "emem",
  "7806": "emem",
  "7807": "emem",
  "7808": "emem",
  "7809": "emem",
  "7810": "emem",
  "7811": "emem",
  "7812": "emem",
  "7813": "emem",
  "7814": "emem",
  "7815": "emem",
  "7816": "emem",
  "7817": "emem",
  "7818": "emem",
  "7819": "emem",
  "7820": "emem",
  "7821": "emem",
  "7822": "emem",
  "7823": "emem",
  "7824": "emem",
  "7825": "emem",
  "7826": "emem",
  "7827": "emem",
  "7828": "emem",
  "7829": "emem",
  "7830": "emem",
  "7831": "emem",
  "7832": "emem",
  "7833": "emem",
  "7834": "emem",
  "7835": "emem",
  "7836": "emem",
  "7837": "emem",
  "7838": "emem",
  "7839": "emem",
  "7840": "emem",
  "7841": "emem",
  "7842": "emem",
  "7843": "emem",
  "7844": "emem",
  "7845": "emem",
  "7846": "emem",
  "7847": "emem",
  "7848": "emem",
  "7849": "emem",
  "7850": "emem",
  "7851": "emem",
  "7852": "emem",
  "7853": "emem",
  "7854": "emem",
  "7855": "emem",
  "7856": "emem",
  "7857": "emem",
  "7858": "emem",
  "7859": "emem",
  "7860": "emem",
  "7861": "emem",
  "7862": "emem",
  "7863": "emem",
  "7864": "emem",
  "7865": "emem",
  "7866": "emem",
  "7867": "emem",
  "7868": "emem",
  "7869": "emem",
  "7870": "emem",
  "7871": "emem",
  "7872": "emem",
  "7873": "emem",
  "7874": "emem",
  "7875": "emem",
  "7876": "emem",
  "7877": "emem",
  "7878": "emem",
  "7879": "emem",
  "7880": "emem",
  "7881": "emem",
  "7882": "emem",
  "7883": "emem",
  "7884": "emem",
  "7885": "emem",
  "7886": "emem",
  "7887": "emem",
  "7888": "emem",
  "7889": "emem",
  "7890": "emem",
  "7891": "emem",
  "7892": "emem",
  "7893": "emem",
  "7894": "emem",
  "7895": "emem",
  "7896": "emem",
  "7897": "emem",
  "7898": "emem",
  "7899": "emem",
  "7900": "emem",
  "7901": "emem",
  "7902": "emem",
  "7903": "emem",
  "7904": "emem",
  "7905": "emem",
  "7906": "emem",
  "7907": "emem",
  "7908": "emem",
  "7909": "emem",
  "7910": "emem",
  "7911": "emem",
  "7912": "emem",
  "7913": "emem",
  "7914": "emem",
  "7915": "emem",
  "7916": "emem",
  "7917": "emem",
  "7918": "emem",
  "7919": "emem",
  "7920": "emem",
  "7921": "emem",
  "7922": "emem",
  "7923": "emem",
  "7924": "emem",
  "7925": "emem",
  "7926": "emem",
  "7927": "emem",
  "7928": "emem",
  "7929": "emem",
  "7930": "emem",
  "7931": "emem",
  "7932": "emem",
  "7933": "emem",
  "7934": "emem",
  "7935": "emem",
  "7936": "emem",
  "7937": "emem",
  "7938": "emem",
  "7939": "emem",
  "7940": "emem",
  "7941": "emem",
  "7942": "emem",
  "7943": "emem",
  "7944": "emem",
  "7945": "emem",
  "7946": "emem",
  "7947": "emem",
  "7948": "emem",
  "7949": "emem",
  "7950": "emem",
  "7951": "emem",
  "7952": "emem",
  "7953": "emem",
  "7954": "emem",
  "7955": "emem",
  "7956": "emem",
  "7957": "emem",
  "7958": "emem",
  "7959": "emem",
  "7960": "emem",
  "7961": "emem",
  "7962": "emem",
  "7963": "emem",
  "7964": "emem",
  "7965": "emem",
  "7966": "emem",
  "7967": "emem",
  "7968": "emem",
  "7969": "emem",
  "7970": "emem",
  "7971": "emem",
  "7972": "emem",
  "7973": "emem",
  "7974": "emem",
  "7975": "emem",
  "7976": "emem",
  "7977": "emem",
  "7978": "emem",
  "7979": "emem",
  "7980": "emem",
  "7981": "emem",
  "7982": "emem",
  "7983": "emem",
  "7984": "emem",
  "7985": "emem",
  "7986": "emem",
  "7987": "emem",
  "7988": "emem",
  "7989": "emem",
  "7990": "emem",
  "7991": "emem",
  "7992": "emem",
  "7993": "emem",
  "7994": "emem",
  "7995": "emem",
  "7996": "emem",
  "7997": "emem",
  "7998": "emem",
  "7999": "emem",
  "8000": "emem",
  "8001": "emem",
  "8002": "emem",
  "8003": "emem",
  "8004": "emem",
  "8005": "emem",
  "8006": "emem",
  "8007": "emem",
  "8008": "emem",
  "8009": "emem",
  "8010": "emem",
  "8011": "emem",
  "8012": "emem",
  "8013": "emem",
  "8014": "emem",
  "8015": "emem",
  "8016": "emem",
  "8017": "emem",
  "8018": "emem",
  "8019": "emem",
  "8020": "emem",
  "8021": "emem",
  "8022": "emem",
  "8023": "emem",
  "8024": "emem",
  "8025": "emem",
  "8026": "emem",
  "8027": "emem",
  "8028": "emem",
  "8029": "emem",
  "8030": "emem",
  "8031": "emem",
  "8032": "emem",
  "8033": "emem",
  "8034": "emem",
  "8035": "emem",
  "8036": "emem",
  "8037": "emem",
  "8038": "emem",
  "8039": "emem",
  "8040": "emem",
  "8041": "emem",
  "8042": "emem",
  "8043": "emem",
  "8044": "emem",
  "8045": "emem",
  "8046": "emem",
  "8047": "emem",
  "8048": "emem",
  "8049": "emem",
  "8050": "emem",
  "8051": "emem",
  "8052": "emem",
  "8053": "emem",
  "8054": "emem",
  "8055": "emem",
  "8056": "emem",
  "8057": "emem",
  "8058": "emem",
  "8059": "emem",
  "8060": "emem",
  "8061": "emem",
  "8062": "emem",
  "8063": "emem",
  "8064": "emem",
  "8065": "emem",
  "8066": "emem",
  "8067": "emem",
  "8068": "emem",
  "8069": "emem",
  "8070": "emem",
  "8071": "emem",
  "8072": "emem",
  "8073": "emem",
  "8074": "emem",
  "8075": "emem",
  "8076": "emem",
  "8077": "emem",
  "8078": "emem",
  "8079": "emem",
  "8080": "emem",
  "8081": "emem",
  "8082": "emem",
  "8083": "emem",
  "8084": "emem",
  "8085": "emem",
  "8086": "emem",
  "8087": "emem",
  "8088": "emem",
  "8089": "emem",
  "8090": "emem",
  "8091": "emem",
  "8092": "emem",
  "8093": "emem",
  "8094": "emem",
  "8095": "emem",
  "8096": "emem",
  "8097": "emem",
  "8098": "emem",
  "8099": "emem",
  "8100": "emem",
  "8101": "emem",
  "8102": "emem",
  "8103": "emem",
  "8104": "emem",
  "8105": "emem",
  "8106": "emem",
  "8107": "emem",
  "8108": "emem",
  "8109": "emem",
  "8110": "emem",
  "8111": "emem",
  "8112": "emem",
  "8113": "emem",
  "8114": "emem",
  "8115": "emem",
  "8116": "emem",
  "8117": "emem",
  "8118": "emem",
  "8119": "emem",
  "8120": "emem",
  "8121": "emem",
  "8122": "emem",
  "8123": "emem",
  "8124": "emem",
  "8125": "emem",
  "8126": "emem",
  "8127": "emem",
  "8128": "emem",
  "8129": "emem",
  "8130": "emem",
  "8131": "emem",
  "8132": "emem",
  "8133": "emem",
  "8134": "emem",
  "8135": "emem",
  "8136": "emem",
  "8137": "emem",
  "8138": "emem",
  "8139": "emem",
  "8140": "emem",
  "8141": "emem",
  "8142": "emem",
  "8143": "emem",
  "8144": "emem",
  "8145": "emem",
  "8146": "emem",
  "8147": "emem",
  "8148": "emem",
  "8149": "emem",
  "8150": "emem",
  "8151": "emem",
  "8152": "emem",
  "8153": "emem",
  "8154": "emem",
  "8155": "emem",
  "8156": "emem",
  "8157": "emem",
  "8158": "emem",
  "8159": "emem",
  "8160": "emem",
  "8161": "emem",
  "8162": "emem",
  "8163": "emem",
  "8164": "emem",
  "8165": "emem",
  "8166": "emem",
  "8167": "emem",
  "8168": "emem",
  "8169": "emem",
  "8170": "emem",
  "8171": "emem",
  "8172": "emem",
  "8173": "emem",
  "8174": "emem",
  "8175": "emem",
  "8176": "emem",
  "8177": "emem",
  "8178": "emem",
  "8179": "emem",
  "8180": "emem",
  "8181": "emem",
  "8182": "emem",
  "8183": "emem",
  "8184": "emem",
  "8185": "emem",
  "8186": "emem",
  "8187": "emem",
  "8188": "emem",
  "8189": "emem",
  "8190": "emem",
  "8191": "emem",
  "8192": "emem",
  "8193": "emem",
  "8194": "emem",
  "8195": "emem",
  "8196": "emem",
  "8197": "emem",
  "8198": "emem",
  "8199": "emem",
  "8200": "emem",
  "8201": "emem",
  "8202": "emem",
  "8203": "emem",
  "8204": "emem",
  "8205": "emem",
  "8206": "emem",
  "8207": "emem",
  "8208": "emem",
  "8209": "emem",
  "8210": "emem",
  "8211": "emem",
  "8212": "emem",
  "8213": "emem",
  "8214": "emem",
  "8215": "emem",
  "8216": "emem",
  "8217": "emem",
  "8218": "emem",
  "8219": "emem",
  "8220": "emem",
  "8221": "emem",
  "8222": "emem",
  "8223": "emem",
  "8224": "emem",
  "8225": "emem",
  "8226": "emem",
  "8227": "emem",
  "8228": "emem",
  "8229": "emem",
  "8230": "emem",
  "8231": "emem",
  "8232": "emem",
  "8233": "emem",
  "8234": "emem",
  "8235": "emem",
  "8236": "emem",
  "8237": "emem",
  "8238": "emem",
  "8239": "emem",
  "8240": "emem",
  "8241": "emem",
  "8242": "emem",
  "8243": "emem",
  "8244": "emem",
  "8245": "emem",
  "8246": "emem",
  "8247": "emem",
  "8248": "emem",
  "8249": "emem",
  "8250": "emem",
  "8251": "emem",
  "8252": "emem",
  "8253": "emem",
  "8254": "emem",
  "8255": "emem",
  "8256": "emem",
  "8257": "emem",
  "8258": "emem",
  "8259": "emem",
  "8260": "emem",
  "8261": "emem",
  "8262": "emem",
  "8263": "emem",
  "8264": "emem",
  "8265": "emem",
  "8266": "emem",
  "8267": "emem",
  "8268": "emem",
  "8269": "emem",
  "8270": "emem",
  "8271": "emem",
  "8272": "emem",
  "8273": "emem",
  "8274": "emem",
  "8275": "emem",
  "8276": "emem",
  "8277": "emem",
  "8278": "emem",
  "8279": "emem",
  "8280": "emem",
  "8281": "emem",
  "8282": "emem",
  "8283": "emem",
  "8284": "emem",
  "8285": "emem",
  "8286": "emem",
  "8287": "emem",
  "8288": "emem",
  "8289": "emem",
  "8290": "emem",
  "8291": "emem",
  "8292": "emem",
  "8293": "emem",
  "8294": "emem",
  "8295": "emem",
  "8296": "emem",
  "8297": "emem",
  "8298": "emem",
  "8299": "emem",
  "8300": "emem",
  "8301": "emem",
  "8302": "emem",
  "8303": "emem",
  "8304": "emem",
  "8305": "emem",
  "8306": "emem",
  "8307": "emem",
  "8308": "emem",
  "8309": "emem",
  "8310": "emem",
  "8311": "emem",
  "8312": "emem",
  "8313": "emem",
  "8314": "emem",
  "8315": "emem",
  "8316": "emem",
  "8317": "emem",
  "8318": "emem",
  "8319": "emem",
  "8320": "emem",
  "8321": "emem",
  "8322": "emem",
  "8323": "emem",
  "8324": "emem",
  "8325": "emem",
  "8326": "emem",
  "8327": "emem",
  "8328": "emem",
  "8329": "emem",
  "8330": "emem",
  "8331": "emem",
  "8332": "emem",
  "8333": "emem",
  "8334": "emem",
  "8335": "emem",
  "8336": "emem",
  "8337": "emem",
  "8338": "emem",
  "8339": "emem",
  "8340": "emem",
  "8341": "emem",
  "8342": "emem",
  "8343": "emem",
  "8344": "emem",
  "8345": "emem",
  "8346": "emem",
  "8347": "emem",
  "8348": "emem",
  "8349": "emem",
  "8350": "emem",
  "8351": "emem",
  "8352": "emem",
  "8353": "emem",
  "8354": "emem",
  "8355": "emem",
  "8356": "emem",
  "8357": "emem",
  "8358": "emem",
  "8359": "emem",
  "8360": "emem",
  "8361": "emem",
  "8362": "emem",
  "8363": "emem",
  "8364": "emem",
  "8365": "emem",
  "8366": "emem",
  "8367": "emem",
  "8368": "emem",
  "8369": "emem",
  "8370": "emem",
  "8371": "emem",
  "8372": "emem",
  "8373": "emem",
  "8374": "emem",
  "8375": "emem",
  "8376": "emem",
  "8377": "emem",
  "8378": "emem",
  "8379": "emem",
  "8380": "emem",
  "8381": "emem",
  "8382": "emem",
  "8383": "emem",
  "8384": "emem",
  "8385": "emem",
  "8386": "emem",
  "8387": "emem",
  "8388": "emem",
  "8389": "emem",
  "8390": "emem",
  "8391": "emem",
  "8392": "emem",
  "8393": "emem",
  "8394": "emem",
  "8395": "emem",
  "8396": "emem",
  "8397": "emem",
  "8398": "emem",
  "8399": "emem",
  "8400": "emem",
  "8401": "emem",
  "8402": "emem",
  "8403": "emem",
  "8404": "emem",
  "8405": "emem",
  "8406": "emem",
  "8407": "emem",
  "8408": "emem",
  "8409": "emem",
  "8410": "emem",
  "8411": "emem",
  "8412": "emem",
  "8413": "emem",
  "8414": "emem",
  "8415": "emem",
  "8416": "emem",
  "8417": "emem",
  "8418": "emem",
  "8419": "emem",
  "8420": "emem",
  "8421": "emem",
  "8422": "emem",
  "8423": "emem",
  "8424": "emem",
  "8425": "emem",
  "8426": "emem",
  "8427": "emem",
  "8428": "emem",
  "8429": "emem",
  "8430": "emem",
  "8431": "emem",
  "8432": "emem",
  "8433": "emem",
  "8434": "emem",
  "8435": "emem",
  "8436": "emem",
  "8437": "emem",
  "8438": "emem",
  "8439": "emem",
  "8440": "emem",
  "8441": "emem",
  "8442": "emem",
  "8443": "emem",
  "8444": "emem",
  "8445": "emem",
  "8446": "emem",
  "8447": "emem",
  "8448": "emem",
  "8449": "emem",
  "8450": "emem",
  "8451": "emem",
  "8452": "emem",
  "8453": "emem",
  "8454": "emem",
  "8455": "emem",
  "8456": "emem",
  "8457": "emem",
  "8458": "emem",
  "8459": "emem",
  "8460": "emem",
  "8461": "emem",
  "8462": "emem",
  "8463": "emem",
  "8464": "emem",
  "8465": "emem",
  "8466": "emem",
  "8467": "emem",
  "8468": "emem",
  "8469": "emem",
  "8470": "emem",
  "8471": "emem",
  "8472": "emem",
  "8473": "emem",
  "8474": "emem",
  "8475": "emem",
  "8476": "emem",
  "8477": "emem",
  "8478": "emem",
  "8479": "emem",
  "8480": "emem",
  "8481": "emem",
  "8482": "emem",
  "8483": "emem",
  "8484": "emem",
  "8485": "emem",
  "8486": "emem",
  "8487": "emem",
  "8488": "emem",
  "8489": "emem",
  "8490": "emem",
  "8491": "emem",
  "8492": "emem",
  "8493": "emem",
  "8494": "emem",
  "8495": "emem",
  "8496": "emem",
  "8497": "emem",
  "8498": "emem",
  "8499": "emem",
  "8500": "emem",
  "8501": "emem",
  "8502": "emem",
  "8503": "emem",
  "8504": "emem",
  "8505": "emem",
  "8506": "emem",
  "8507": "emem",
  "8508": "emem",
  "8509": "emem",
  "8510": "emem",
  "8511": "emem",
  "8512": "emem",
  "8513": "emem",
  "8514": "emem",
  "8515": "emem",
  "8516": "emem",
  "8517": "emem",
  "8518": "emem",
  "8519": "emem",
  "8520": "emem",
  "8521": "emem",
  "8522": "emem",
  "8523": "emem",
  "8524": "emem",
  "8525": "emem",
  "8526": "emem",
  "8527": "emem",
  "8528": "emem",
  "8529": "emem",
  "8530": "emem",
  "8531": "emem",
  "8532": "emem",
  "8533": "emem",
  "8534": "emem",
  "8535": "emem",
  "8536": "emem",
  "8537": "emem",
  "8538": "emem",
  "8539": "emem",
  "8540": "emem",
  "8541": "emem",
  "8542": "emem",
  "8543": "emem",
  "8544": "emem",
  "8545": "emem",
  "8546": "emem",
  "8547": "emem",
  "8548": "emem",
  "8549": "emem",
  "8550": "emem",
  "8551": "emem",
  "8552": "emem",
  "8553": "emem",
  "8554": "emem",
  "8555": "emem",
  "8556": "emem",
  "8557": "emem",
  "8558": "emem",
  "8559": "emem",
  "8560": "emem",
  "8561": "emem",
  "8562": "emem",
  "8563": "emem",
  "8564": "emem",
  "8565": "emem",
  "8566": "emem",
  "8567": "emem",
  "8568": "emem",
  "8569": "emem",
  "8570": "emem",
  "8571": "emem",
  "8572": "emem",
  "8573": "emem",
  "8574": "emem",
  "8575": "emem",
  "8576": "emem",
  "8577": "emem",
  "8578": "emem",
  "8579": "emem",
  "8580": "emem",
  "8581": "emem",
  "8582": "emem",
  "8583": "emem",
  "8584": "emem",
  "8585": "emem",
  "8586": "emem",
  "8587": "emem",
  "8588": "emem",
  "8589": "emem",
  "8590": "emem",
  "8591": "emem",
  "8592": "emem",
  "8593": "emem",
  "8594": "emem",
  "8595": "emem",
  "8596": "emem",
  "8597": "emem",
  "8598": "emem",
  "8599": "emem",
  "8600": "emem",
  "8601": "emem",
  "8602": "emem",
  "8603": "emem",
  "8604": "emem",
  "8605": "emem",
  "8606": "emem",
  "8607": "emem",
  "8608": "emem",
  "8609": "emem",
  "8610": "emem",
  "8611": "emem",
  "8612": "emem",
  "8613": "emem",
  "8614": "emem",
  "8615": "emem",
  "8616": "emem",
  "8617": "emem",
  "8618": "emem",
  "8619": "emem",
  "8620": "emem",
  "8621": "emem",
  "8622": "emem",
  "8623": "emem",
  "8624": "emem",
  "8625": "emem",
  "8626": "emem",
  "8627": "emem",
  "8628": "emem",
  "8629": "emem",
  "8630": "emem",
  "8631": "emem",
  "8632": "emem",
  "8633": "emem",
  "8634": "emem",
  "8635": "emem",
  "8636": "emem",
  "8637": "emem",
  "8638": "emem",
  "8639": "emem",
  "8640": "emem",
  "8641": "emem",
  "8642": "emem",
  "8643": "emem",
  "8644": "emem",
  "8645": "emem",
  "8646": "emem",
  "8647": "emem",
  "8648": "emem",
  "8649": "emem",
  "8650": "emem",
  "8651": "emem",
  "8652": "emem",
  "8653": "emem",
  "8654": "emem",
  "8655": "emem",
  "8656": "emem",
  "8657": "emem",
  "8658": "emem",
  "8659": "emem",
  "8660": "emem",
  "8661": "emem",
  "8662": "emem",
  "8663": "emem",
  "8664": "emem",
  "8665": "emem",
  "8666": "emem",
  "8667": "emem",
  "8668": "emem",
  "8669": "emem",
  "8670": "emem",
  "8671": "emem",
  "8672": "emem",
  "8673": "emem",
  "8674": "emem",
  "8675": "emem",
  "8676": "emem",
  "8677": "emem",
  "8678": "emem",
  "8679": "emem",
  "8680": "emem",
  "8681": "emem",
  "8682": "emem",
  "8683": "emem",
  "8684": "emem",
  "8685": "emem",
  "8686": "emem",
  "8687": "emem",
  "8688": "emem",
  "8689": "emem",
  "8690": "emem",
  "8691": "emem",
  "8692": "emem",
  "8693": "emem",
  "8694": "emem",
  "8695": "emem",
  "8696": "emem",
  "8697": "emem",
  "8698": "emem",
  "8699": "emem",
  "8700": "emem",
  "8701": "emem",
  "8702": "emem",
  "8703": "emem",
  "8704": "emem",
  "8705": "emem",
  "8706": "emem",
  "8707": "emem",
  "8708": "emem",
  "8709": "emem",
  "8710": "emem",
  "8711": "emem",
  "8712": "emem",
  "8713": "emem",
  "8714": "emem",
  "8715": "emem",
  "8716": "emem",
  "8717": "emem",
  "8718": "emem",
  "8719": "emem",
  "8720": "emem",
  "8721": "emem",
  "8722": "emem",
  "8723": "emem",
  "8724": "emem",
  "8725": "emem",
  "8726": "emem",
  "8727": "emem",
  "8728": "emem",
  "8729": "emem",
  "8730": "emem",
  "8731": "emem",
  "8732": "emem",
  "8733": "emem",
  "8734": "emem",
  "8735": "emem",
  "8736": "emem",
  "8737": "emem",
  "8738": "emem",
  "8739": "emem",
  "8740": "emem",
  "8741": "emem",
  "8742": "emem",
  "8743": "emem",
  "8744": "emem",
  "8745": "emem",
  "8746": "emem",
  "8747": "emem",
  "8748": "emem",
  "8749": "emem",
  "8750": "emem",
  "8751": "emem",
  "8752": "emem",
  "8753": "emem",
  "8754": "emem",
  "8755": "emem",
  "8756": "emem",
  "8757": "emem",
  "8758": "emem",
  "8759": "emem",
  "8760": "emem",
  "8761": "emem",
  "8762": "emem",
  "8763": "emem",
  "8764": "emem",
  "8765": "emem",
  "8766": "emem",
  "8767": "emem",
  "8768": "emem",
  "8769": "emem",
  "8770": "emem",
  "8771": "emem",
  "8772": "emem",
  "8773": "emem",
  "8774": "emem",
  "8775": "emem",
  "8776": "emem",
  "8777": "emem",
  "8778": "emem",
  "8779": "emem",
  "8780": "emem",
  "8781": "emem",
  "8782": "emem",
  "8783": "emem",
  "8784": "emem",
  "8785": "emem",
  "8786": "emem",
  "8787": "emem",
  "8788": "emem",
  "8789": "emem",
  "8790": "emem",
  "8791": "emem",
  "8792": "emem",
  "8793": "emem",
  "8794": "emem",
  "8795": "emem",
  "8796": "emem",
  "8797": "emem",
  "8798": "emem",
  "8799": "emem",
  "8800": "emem",
  "8801": "emem",
  "8802": "emem",
  "8803": "emem",
  "8804": "emem",
  "8805": "emem",
  "8806": "emem",
  "8807": "emem",
  "8808": "emem",
  "8809": "emem",
  "8810": "emem",
  "8811": "emem",
  "8812": "emem",
  "8813": "emem",
  "8814": "emem",
  "8815": "emem",
  "8816": "emem",
  "8817": "emem",
  "8818": "emem",
  "8819": "emem",
  "8820": "emem",
  "8821": "emem",
  "8822": "emem",
  "8823": "emem",
  "8824": "emem",
  "8825": "emem",
  "8826": "emem",
  "8827": "emem",
  "8828": "emem",
  "8829": "emem",
  "8830": "emem",
  "8831": "emem",
  "8832": "emem",
  "8833": "emem",
  "8834": "emem",
  "8835": "emem",
  "8836": "emem",
  "8837": "emem",
  "8838": "emem",
  "8839": "emem",
  "8840": "emem",
  "8841": "emem",
  "8842": "emem",
  "8843": "emem",
  "8844": "emem",
  "8845": "emem",
  "8846": "emem",
  "8847": "emem",
  "8848": "emem",
  "8849": "emem",
  "8850": "emem",
  "8851": "emem",
  "8852": "emem",
  "8853": "emem",
  "8854": "emem",
  "8855": "emem",
  "8856": "emem",
  "8857": "emem",
  "8858": "emem",
  "8859": "emem",
  "8860": "emem",
  "8861": "emem",
  "8862": "emem",
  "8863": "emem",
  "8864": "emem",
  "8865": "emem",
  "8866": "emem",
  "8867": "emem",
  "8868": "emem",
  "8869": "emem",
  "8870": "emem",
  "8871": "emem",
  "8872": "emem",
  "8873": "emem",
  "8874": "emem",
  "8875": "emem",
  "8876": "emem",
  "8877": "emem",
  "8878": "emem",
  "8879": "emem",
  "8880": "emem",
  "8881": "emem",
  "8882": "emem",
  "8883": "emem",
  "8884": "emem",
  "8885": "emem",
  "8886": "emem",
  "8887": "emem",
  "8888": "emem",
  "8889": "emem",
  "8890": "emem",
  "8891": "emem",
  "8892": "emem",
  "8893": "emem",
  "8894": "emem",
  "8895": "emem",
  "8896": "emem",
  "8897": "emem",
  "8898": "emem",
  "8899": "emem",
  "8900": "emem",
  "8901": "emem",
  "8902": "emem",
  "8903": "emem",
  "8904": "emem",
  "8905": "emem",
  "8906": "emem",
  "8907": "emem",
  "8908": "emem",
  "8909": "emem",
  "8910": "emem",
  "8911": "emem",
  "8912": "emem",
  "8913": "emem",
  "8914": "emem",
  "8915": "emem",
  "8916": "emem",
  "8917": "emem",
  "8918": "emem",
  "8919": "emem",
  "8920": "emem",
  "8921": "emem",
  "8922": "emem",
  "8923": "emem",
  "8924": "emem",
  "8925": "emem",
  "8926": "emem",
  "8927": "emem",
  "8928": "emem",
  "8929": "emem",
  "8930": "emem",
  "8931": "emem",
  "8932": "emem",
  "8933": "emem",
  "8934": "emem",
  "8935": "emem",
  "8936": "emem",
  "8937": "emem",
  "8938": "emem",
  "8939": "emem",
  "8940": "emem",
  "8941": "emem",
  "8942": "emem",
  "8943": "emem",
  "8944": "emem",
  "8945": "emem",
  "8946": "emem",
  "8947": "emem",
  "8948": "emem",
  "8949": "emem",
  "8950": "emem",
  "8951": "emem",
  "8952": "emem",
  "8953": "emem",
  "8954": "emem",
  "8955": "emem",
  "8956": "emem",
  "8957": "emem",
  "8958": "emem",
  "8959": "emem",
  "8960": "emem",
  "8961": "emem",
  "8962": "emem",
  "8963": "emem",
  "8964": "emem",
  "8965": "emem",
  "8966": "emem",
  "8967": "emem",
  "8968": "emem",
  "8969": "emem",
  "8970": "emem",
  "8971": "emem",
  "8972": "emem",
  "8973": "emem",
  "8974": "emem",
  "8975": "emem",
  "8976": "emem",
  "8977": "emem",
  "8978": "emem",
  "8979": "emem",
  "8980": "emem",
  "8981": "emem",
  "8982": "emem",
  "8983": "emem",
  "8984": "emem",
  "8985": "emem",
  "8986": "emem",
  "8987": "emem",
  "8988": "emem",
  "8989": "emem",
  "8990": "emem",
  "8991": "emem",
  "8992": "emem",
  "8993": "emem",
  "8994": "emem",
  "8995": "emem",
  "8996": "emem",
  "8997": "emem",
  "8998": "emem",
  "8999": "emem",
  "9000": "emem",
  "9001": "emem",
  "9002": "emem",
  "9003": "emem",
  "9004": "emem",
  "9005": "emem",
  "9006": "emem",
  "9007": "emem",
  "9008": "emem",
  "9009": "emem",
  "9010": "emem",
  "9011": "emem",
  "9012": "emem",
  "9013": "emem",
  "9014": "emem",
  "9015": "emem",
  "9016": "emem",
  "9017": "emem",
  "9018": "emem",
  "9019": "emem",
  "9020": "emem",
  "9021": "emem",
  "9022": "emem",
  "9023": "emem",
  "9024": "emem",
  "9025": "emem",
  "9026": "emem",
  "9027": "emem",
  "9028": "emem",
  "9029": "emem",
  "9030": "emem",
  "9031": "emem",
  "9032": "emem",
  "9033": "emem",
  "9034": "emem",
  "9035": "emem",
  "9036": "emem",
  "9037": "emem",
  "9038": "emem",
  "9039": "emem",
  "9040": "emem",
  "9041": "emem",
  "9042": "emem",
  "9043": "emem",
  "9044": "emem",
  "9045": "emem",
  "9046": "emem",
  "9047": "emem",
  "9048": "emem",
  "9049": "emem",
  "9050": "emem",
  "9051": "emem",
  "9052": "emem",
  "9053": "emem",
  "9054": "emem",
  "9055": "emem",
  "9056": "emem",
  "9057": "emem",
  "9058": "emem",
  "9059": "emem",
  "9060": "emem",
  "9061": "emem",
  "9062": "emem",
  "9063": "emem",
  "9064": "emem",
  "9065": "emem",
  "9066": "emem",
  "9067": "emem",
  "9068": "emem",
  "9069": "emem",
  "9070": "emem",
  "9071": "emem",
  "9072": "emem",
  "9073": "emem",
  "9074": "emem",
  "9075": "emem",
  "9076": "emem",
  "9077": "emem",
  "9078": "emem",
  "9079": "emem",
  "9080": "emem",
  "9081": "emem",
  "9082": "emem",
  "9083": "emem",
  "9084": "emem",
  "9085": "emem",
  "9086": "emem",
  "9087": "emem",
  "9088": "emem",
  "9089": "emem",
  "9090": "emem",
  "9091": "emem",
  "9092": "emem",
  "9093": "emem",
  "9094": "emem",
  "9095": "emem",
  "9096": "emem",
  "9097": "emem",
  "9098": "emem",
  "9099": "emem",
  "9100": "emem",
  "9101": "emem",
  "9102": "emem",
  "9103": "emem",
  "9104": "emem",
  "9105": "emem",
  "9106": "emem",
  "9107": "emem",
  "9108": "emem",
  "9109": "emem",
  "9110": "emem",
  "9111": "emem",
  "9112": "emem",
  "9113": "emem",
  "9114": "emem",
  "9115": "emem",
  "9116": "emem",
  "9117": "emem",
  "9118": "emem",
  "9119": "emem",
  "9120": "emem",
  "9121": "emem",
  "9122": "emem",
  "9123": "emem",
  "9124": "emem",
  "9125": "emem",
  "9126": "emem",
  "9127": "emem",
  "9128": "emem",
  "9129": "emem",
  "9130": "emem",
  "9131": "emem",
  "9132": "emem",
  "9133": "emem",
  "9134": "emem",
  "9135": "emem",
  "9136": "emem",
  "9137": "emem",
  "9138": "emem",
  "9139": "emem",
  "9140": "emem",
  "9141": "emem",
  "9142": "emem",
  "9143": "emem",
  "9144": "emem",
  "9145": "emem",
  "9146": "emem",
  "9147": "emem",
  "9148": "emem",
  "9149": "emem",
  "9150": "emem",
  "9151": "emem",
  "9152": "emem",
  "9153": "emem",
  "9154": "emem",
  "9155": "emem",
  "9156": "emem",
  "9157": "emem",
  "9158": "emem",
  "9159": "emem",
  "9160": "emem",
  "9161": "emem",
  "9162": "emem",
  "9163": "emem",
  "9164": "emem",
  "9165": "emem",
  "9166": "emem",
  "9167": "emem",
  "9168": "emem",
  "9169": "emem",
  "9170": "emem",
  "9171": "emem",
  "9172": "emem",
  "9173": "emem",
  "9174": "emem",
  "9175": "emem",
  "9176": "emem",
  "9177": "emem",
  "9178": "emem",
  "9179": "emem",
  "9180": "emem",
  "9181": "emem",
  "9182": "emem",
  "9183": "emem",
  "9184": "emem",
  "9185": "emem",
  "9186": "emem",
  "9187": "emem",
  "9188": "emem",
  "9189": "emem",
  "9190": "emem",
  "9191": "emem",
  "9192": "emem",
  "9193": "emem",
  "9194": "emem",
  "9195": "emem",
  "9196": "emem",
  "9197": "emem",
  "9198": "emem",
  "9199": "emem",
  "9200": "emem",
  "9201": "emem",
  "9202": "emem",
  "9203": "emem",
  "9204": "emem",
  "9205": "emem",
  "9206": "emem",
  "9207": "emem",
  "9208": "emem",
  "9209": "emem",
  "9210": "emem",
  "9211": "emem",
  "9212": "emem",
  "9213": "emem",
  "9214": "emem",
  "9215": "emem",
  "9216": "emem",
  "9217": "emem",
  "9218": "emem",
  "9219": "emem",
  "9220": "emem",
  "9221": "emem",
  "9222": "emem",
  "9223": "emem",
  "9224": "emem",
  "9225": "emem",
  "9226": "emem",
  "9227": "emem",
  "9228": "emem",
  "9229": "emem",
  "9230": "emem",
  "9231": "emem",
  "9232": "emem",
  "9233": "emem",
  "9234": "emem",
  "9235": "emem",
  "9236": "emem",
  "9237": "emem",
  "9238": "emem",
  "9239": "emem",
  "9240": "emem",
  "9241": "emem",
  "9242": "emem",
  "9243": "emem",
  "9244": "emem",
  "9245": "emem",
  "9246": "emem",
  "9247": "emem",
  "9248": "emem",
  "9249": "emem",
  "9250": "emem",
  "9251": "emem",
  "9252": "emem",
  "9253": "emem",
  "9254": "emem",
  "9255": "emem",
  "9256": "emem",
  "9257": "emem",
  "9258": "emem",
  "9259": "emem",
  "9260": "emem",
  "9261": "emem",
  "9262": "emem",
  "9263": "emem",
  "9264": "emem",
  "9265": "emem",
  "9266": "emem",
  "9267": "emem",
  "9268": "emem",
  "9269": "emem",
  "9270": "emem",
  "9271": "emem",
  "9272": "emem",
  "9273": "emem",
  "9274": "emem",
  "9275": "emem",
  "9276": "emem",
  "9277": "emem",
  "9278": "emem",
  "9279": "emem",
  "9280": "emem",
  "9281": "emem",
  "9282": "emem",
  "9283": "emem",
  "9284": "emem",
  "9285": "emem",
  "9286": "emem",
  "9287": "emem",
  "9288": "emem",
  "9289": "emem",
  "9290": "emem",
  "9291": "emem",
  "9292": "emem",
  "9293": "emem",
  "9294": "emem",
  "9295": "emem",
  "9296": "emem",
  "9297": "emem",
  "9298": "emem",
  "9299": "emem",
  "9300": "emem",
  "9301": "emem",
  "9302": "emem",
  "9303": "emem",
  "9304": "emem",
  "9305": "emem",
  "9306": "emem",
  "9307": "emem",
  "9308": "emem",
  "9309": "emem",
  "9310": "emem",
  "9311": "emem",
  "9312": "emem",
  "9313": "emem",
  "9314": "emem",
  "9315": "emem",
  "9316": "emem",
  "9317": "emem",
  "9318": "emem",
  "9319": "emem",
  "9320": "emem",
  "9321": "emem",
  "9322": "emem",
  "9323": "emem",
  "9324": "emem",
  "9325": "emem",
  "9326": "emem",
  "9327": "emem",
  "9328": "emem",
  "9329": "emem",
  "9330": "emem",
  "9331": "emem",
  "9332": "emem",
  "9333": "emem",
  "9334": "emem",
  "9335": "emem",
  "9336": "emem",
  "9337": "emem",
  "9338": "emem",
  "9339": "emem",
  "9340": "emem",
  "9341": "emem",
  "9342": "emem",
  "9343": "emem",
  "9344": "emem",
  "9345": "emem",
  "9346": "emem",
  "9347": "emem",
  "9348": "emem",
  "9349": "emem",
  "9350": "emem",
  "9351": "emem",
  "9352": "emem",
  "9353": "emem",
  "9354": "emem",
  "9355": "emem",
  "9356": "emem",
  "9357": "emem",
  "9358": "emem",
  "9359": "emem",
  "9360": "emem",
  "9361": "emem",
  "9362": "emem",
  "9363": "emem",
  "9364": "emem",
  "9365": "emem",
  "9366": "emem",
  "9367": "emem",
  "9368": "emem",
  "9369": "emem",
  "9370": "emem",
  "9371": "emem",
  "9372": "emem",
  "9373": "emem",
  "9374": "emem",
  "9375": "emem",
  "9376": "emem",
  "9377": "emem",
  "9378": "emem",
  "9379": "emem",
  "9380": "emem",
  "9381": "emem",
  "9382": "emem",
  "9383": "emem",
  "9384": "emem",
  "9385": "emem",
  "9386": "emem",
  "9387": "emem",
  "9388": "emem",
  "9389": "emem",
  "9390": "emem",
  "9391": "emem",
  "9392": "emem",
  "9393": "emem",
  "9394": "emem",
  "9395": "emem",
  "9396": "emem",
  "9397": "emem",
  "9398": "emem",
  "9399": "emem",
  "9400": "emem",
  "9401": "emem",
  "9402": "emem",
  "9403": "emem",
  "9404": "emem",
  "9405": "emem",
  "9406": "emem",
  "9407": "emem",
  "9408": "emem",
  "9409": "emem",
  "9410": "emem",
  "9411": "emem",
  "9412": "emem",
  "9413": "emem",
  "9414": "emem",
  "9415": "emem",
  "9416": "emem",
  "9417": "emem",
  "9418": "emem",
  "9419": "emem",
  "9420": "emem",
  "9421": "emem",
  "9422": "emem",
  "9423": "emem",
  "9424": "emem",
  "9425": "emem",
  "9426": "emem",
  "9427": "emem",
  "9428": "emem",
  "9429": "emem",
  "9430": "emem",
  "9431": "emem",
  "9432": "emem",
  "9433": "emem",
  "9434": "emem",
  "9435": "emem",
  "9436": "emem",
  "9437": "emem",
  "9438": "emem",
  "9439": "emem",
  "9440": "emem",
  "9441": "emem",
  "9442": "emem",
  "9443": "emem",
  "9444": "emem",
  "9445": "emem",
  "9446": "emem",
  "9447": "emem",
  "9448": "emem",
  "9449": "emem",
  "9450": "emem",
  "9451": "emem",
  "9452": "emem",
  "9453": "emem",
  "9454": "emem",
  "9455": "emem",
  "9456": "emem",
  "9457": "emem",
  "9458": "emem",
  "9459": "emem",
  "9460": "emem",
  "9461": "emem",
  "9462": "emem",
  "9463": "emem",
  "9464": "emem",
  "9465": "emem",
  "9466": "emem",
  "9467": "emem",
  "9468": "emem",
  "9469": "emem",
  "9470": "emem",
  "9471": "emem",
  "9472": "emem",
  "9473": "emem",
  "9474": "emem",
  "9475": "emem",
  "9476": "emem",
  "9477": "emem",
  "9478": "emem",
  "9479": "emem",
  "9480": "emem",
  "9481": "emem",
  "9482": "emem",
  "9483": "emem",
  "9484": "emem",
  "9485": "emem",
  "9486": "emem",
  "9487": "emem",
  "9488": "emem",
  "9489": "emem",
  "9490": "emem",
  "9491": "emem",
  "9492": "emem",
  "9493": "emem",
  "9494": "emem",
  "9495": "emem",
  "9496": "emem",
  "9497": "emem",
  "9498": "emem",
  "9499": "emem",
  "9500": "emem",
  "9501": "emem",
  "9502": "emem",
  "9503": "emem",
  "9504": "emem",
  "9505": "emem",
  "9506": "emem",
  "9507": "emem",
  "9508": "emem",
  "9509": "emem",
  "9510": "emem",
  "9511": "emem",
  "9512": "emem",
  "9513": "emem",
  "9514": "emem",
  "9515": "emem",
  "9516": "emem",
  "9517": "emem",
  "9518": "emem",
  "9519": "emem",
  "9520": "emem",
  "9521": "emem",
  "9522": "emem",
  "9523": "emem",
  "9524": "emem",
  "9525": "emem",
  "9526": "emem",
  "9527": "emem",
  "9528": "emem",
  "9529": "emem",
  "9530": "emem",
  "9531": "emem",
  "9532": "emem",
  "9533": "emem",
  "9534": "emem",
  "9535": "emem",
  "9536": "emem",
  "9537": "emem",
  "9538": "emem",
  "9539": "emem",
  "9540": "emem",
  "9541": "emem",
  "9542": "emem",
  "9543": "emem",
  "9544": "emem",
  "9545": "emem",
  "9546": "emem",
  "9547": "emem",
  "9548": "emem",
  "9549": "emem",
  "9550": "emem",
  "9551": "emem",
  "9552": "emem",
  "9553": "emem",
  "9554": "emem",
  "9555": "emem",
  "9556": "emem",
  "9557": "emem",
  "9558": "emem",
  "9559": "emem",
  "9560": "emem",
  "9561": "emem",
  "9562": "emem",
  "9563": "emem",
  "9564": "emem",
  "9565": "emem",
  "9566": "emem",
  "9567": "emem",
  "9568": "emem",
  "9569": "emem",
  "9570": "emem",
  "9571": "emem",
  "9572": "emem",
  "9573": "emem",
  "9574": "emem",
  "9575": "emem",
  "9576": "emem",
  "9577": "emem",
  "9578": "emem",
  "9579": "emem",
  "9580": "emem",
  "9581": "emem",
  "9582": "emem",
  "9583": "emem",
  "9584": "emem",
  "9585": "emem",
  "9586": "emem",
  "9587": "emem",
  "9588": "emem",
  "9589": "emem",
  "9590": "emem",
  "9591": "emem",
  "9592": "emem",
  "9593": "emem",
  "9594": "emem",
  "9595": "emem",
  "9596": "emem",
  "9597": "emem",
  "9598": "emem",
  "9599": "emem",
  "9600": "emem",
  "9601": "emem",
  "9602": "emem",
  "9603": "emem",
  "9604": "emem",
  "9605": "emem",
  "9606": "emem",
  "9607": "emem",
  "9608": "emem",
  "9609": "emem",
  "9610": "emem",
  "9611": "emem",
  "9612": "emem",
  "9613": "emem",
  "9614": "emem",
  "9615": "emem",
  "9616": "emem",
  "9617": "emem",
  "9618": "emem",
  "9619": "emem",
  "9620": "emem",
  "9621": "emem",
  "9622": "emem",
  "9623": "emem",
  "9624": "emem",
  "9625": "emem",
  "9626": "emem",
  "9627": "emem",
  "9628": "emem",
  "9629": "emem",
  "9630": "emem",
  "9631": "emem",
  "9632": "emem",
  "9633": "emem",
  "9634": "emem",
  "9635": "emem",
  "9636": "emem",
  "9637": "emem",
  "9638": "emem",
  "9639": "emem",
  "9640": "emem",
  "9641": "emem",
  "9642": "emem",
  "9643": "emem",
  "9644": "emem",
  "9645": "emem",
  "9646": "emem",
  "9647": "emem",
  "9648": "emem",
  "9649": "emem",
  "9650": "emem",
  "9651": "emem",
  "9652": "emem",
  "9653": "emem",
  "9654": "emem",
  "9655": "emem",
  "9656": "emem",
  "9657": "emem",
  "9658": "emem",
  "9659": "emem",
  "9660": "emem",
  "9661": "emem",
  "9662": "emem",
  "9663": "emem",
  "9664": "emem",
  "9665": "emem",
  "9666": "emem",
  "9667": "emem",
  "9668": "emem",
  "9669": "emem",
  "9670": "emem",
  "9671": "emem",
  "9672": "emem",
  "9673": "emem",
  "9674": "emem",
  "9675": "emem",
  "9676": "emem",
  "9677": "emem",
  "9678": "emem",
  "9679": "emem",
  "9680": "emem",
  "9681": "emem",
  "9682": "emem",
  "9683": "emem",
  "9684": "emem",
  "9685": "emem",
  "9686": "emem",
  "9687": "emem",
  "9688": "emem",
  "9689": "emem",
  "9690": "emem",
  "9691": "emem",
  "9692": "emem",
  "9693": "emem",
  "9694": "emem",
  "9695": "emem",
  "9696": "emem",
  "9697": "emem",
  "9698": "emem",
  "9699": "emem",
  "9700": "emem",
  "9701": "emem",
  "9702": "emem",
  "9703": "emem",
  "9704": "emem",
  "9705": "emem",
  "9706": "emem",
  "9707": "emem",
  "9708": "emem",
  "9709": "emem",
  "9710": "emem",
  "9711": "emem",
  "9712": "emem",
  "9713": "emem",
  "9714": "emem",
  "9715": "emem",
  "9716": "emem",
  "9717": "emem",
  "9718": "emem",
  "9719": "emem",
  "9720": "emem",
  "9721": "emem",
  "9722": "emem",
  "9723": "emem",
  "9724": "emem",
  "9725": "emem",
  "9726": "emem",
  "9727": "emem",
  "9728": "emem",
  "9729": "emem",
  "9730": "emem",
  "9731": "emem",
  "9732": "emem",
  "9733": "emem",
  "9734": "emem",
  "9735": "emem",
  "9736": "emem",
  "9737": "emem",
  "9738": "emem",
  "9739": "emem",
  "9740": "emem",
  "9741": "emem",
  "9742": "emem",
  "9743": "emem",
  "9744": "emem",
  "9745": "emem",
  "9746": "emem",
  "9747": "emem",
  "9748": "emem",
  "9749": "emem",
  "9750": "emem",
  "9751": "emem",
  "9752": "emem",
  "9753": "emem",
  "9754": "emem",
  "9755": "emem",
  "9756": "emem",
  "9757": "emem",
  "9758": "emem",
  "9759": "emem",
  "9760": "emem",
  "9761": "emem",
  "9762": "emem",
  "9763": "emem",
  "9764": "emem",
  "9765": "emem",
  "9766": "emem",
  "9767": "emem",
  "9768": "emem",
  "9769": "emem",
  "9770": "emem",
  "9771": "emem",
  "9772": "emem",
  "9773": "emem",
  "9774": "emem",
  "9775": "emem",
  "9776": "emem",
  "9777": "emem",
  "9778": "emem",
  "9779": "emem",
  "9780": "emem",
  "9781": "emem",
  "9782": "emem",
  "9783": "emem",
  "9784": "emem",
  "9785": "emem",
  "9786": "emem",
  "9787": "emem",
  "9788": "emem",
  "9789": "emem",
  "9790": "emem",
  "9791": "emem",
  "9792": "emem",
  "9793": "emem",
  "9794": "emem",
  "9795": "emem",
  "9796": "emem",
  "9797": "emem",
  "9798": "emem",
  "9799": "emem",
  "9800": "emem",
  "9801": "emem",
  "9802": "emem",
  "9803": "emem",
  "9804": "emem",
  "9805": "emem",
  "9806": "emem",
  "9807": "emem",
  "9808": "emem",
  "9809": "emem",
  "9810": "emem",
  "9811": "emem",
  "9812": "emem",
  "9813": "emem",
  "9814": "emem",
  "9815": "emem",
  "9816": "emem",
  "9817": "emem",
  "9818": "emem",
  "9819": "emem",
  "9820": "emem",
  "9821": "emem",
  "9822": "emem",
  "9823": "emem",
  "9824": "emem",
  "9825": "emem",
  "9826": "emem",
  "9827": "emem",
  "9828": "emem",
  "9829": "emem",
  "9830": "emem",
  "9831": "emem",
  "9832": "emem",
  "9833": "emem",
  "9834": "emem",
  "9835": "emem",
  "9836": "emem",
  "9837": "emem",
  "9838": "emem",
  "9839": "emem",
  "9840": "emem",
  "9841": "emem",
  "9842": "emem",
  "9843": "emem",
  "9844": "emem",
  "9845": "emem",
  "9846": "emem",
  "9847": "emem",
  "9848": "emem",
  "9849": "emem",
  "9850": "emem",
  "9851": "emem",
  "9852": "emem",
  "9853": "emem",
  "9854": "emem",
  "9855": "emem",
  "9856": "emem",
  "9857": "emem",
  "9858": "emem",
  "9859": "emem",
  "9860": "emem",
  "9861": "emem",
  "9862": "emem",
  "9863": "emem",
  "9864": "emem",
  "9865": "emem",
  "9866": "emem",
  "9867": "emem",
  "9868": "emem",
  "9869": "emem",
  "9870": "emem",
  "9871": "emem",
  "9872": "emem",
  "9873": "emem",
  "9874": "emem",
  "9875": "emem",
  "9876": "emem",
  "9877": "emem",
  "9878": "emem",
  "9879": "emem",
  "9880": "emem",
  "9881": "emem",
  "9882": "emem",
  "9883": "emem",
  "9884": "emem",
  "9885": "emem",
  "9886": "emem",
  "9887": "emem",
  "9888": "emem",
  "9889": "emem",
  "9890": "emem",
  "9891": "emem",
  "9892": "emem",
  "9893": "emem",
  "9894": "emem",
  "9895": "emem",
  "9896": "emem",
  "9897": "emem",
  "9898": "emem",
  "9899": "emem",
  "9900": "emem",
  "9901": "emem",
  "9902": "emem",
  "9903": "emem",
  "9904": "emem",
  "9905": "emem",
  "9906": "emem",
  "9907": "emem",
  "9908": "emem",
  "9909": "emem",
  "9910": "emem",
  "9911": "emem",
  "9912": "emem",
  "9913": "emem",
  "9914": "emem",
  "9915": "emem",
  "9916": "emem",
  "9917": "emem",
  "9918": "emem",
  "9919": "emem",
  "9920": "emem",
  "9921": "emem",
  "9922": "emem",
  "9923": "emem",
  "9924": "emem",
  "9925": "emem",
  "9926": "emem",
  "9927": "emem",
  "9928": "emem",
  "9929": "emem",
  "9930": "emem",
  "9931": "emem",
  "9932": "emem",
  "9933": "emem",
  "9934": "emem",
  "9935": "emem",
  "9936": "emem",
  "9937": "emem",
  "9938": "emem",
  "9939": "emem",
  "9940": "emem",
  "9941": "emem",
  "9942": "emem",
  "9943": "emem",
  "9944": "emem",
  "9945": "emem",
  "9946": "emem",
  "9947": "emem",
  "9948": "emem",
  "9949": "emem",
  "9950": "emem",
  "9951": "emem",
  "9952": "emem",
  "9953": "emem",
  "9954": "emem",
  "9955": "emem",
  "9956": "emem",
  "9957": "emem",
  "9958": "emem",
  "9959": "emem",
  "9960": "emem",
  "9961": "emem",
  "9962": "emem",
  "9963": "emem",
  "9964": "emem",
  "9965": "emem",
  "9966": "emem",
  "9967": "emem",
  "9968": "emem",
  "9969": "emem",
  "9970": "emem",
  "9971": "emem",
  "9972": "emem",
  "9973": "emem",
  "9974": "emem",
  "9975": "emem",
  "9976": "emem",
  "9977": "emem",
  "9978": "emem",
  "9979": "emem",
  "9980": "emem",
  "9981": "emem",
  "9982": "emem",
  "9983": "emem",
  "9984": "emem",
  "9985": "emem",
  "9986": "emem",
  "9987": "emem",
  "9988": "emem",
  "9989": "emem",
  "9990": "emem",
  "9991": "emem",
  "9992": "emem",
  "9993": "emem",
  "9994": "emem",
  "9995": "emem",
  "9996": "emem",
  "9997": "emem",
  "9998": "emem",
  "9999": "emem"
}