{
  "0": "\u0000",
  "1": "\u0001",
  "2": "\u0002",
  "3": "\u0003",
  "4": "\u0004",
  "5": "\u0005",
  "6": "\u0006",
  "7": "\u0007",
  "8": "\b",
  "9": "\t",
  "10": "\n",
  "11": "\u000b",
  "12": "\f",
  "13": "\r",
  "14": "\u000e",
  "15": "\u000f",
  "16": "\u0010",
  "17": "\u0011",
  "18": "\u0012",
  "19": "\u0013",
  "20": "\u0014",
  "21": "\u0015",
  "22": "\u0016",
  "23": "\u0017",
  "24": "\u0018",
  "25": "\u0019",
  "26": "\u001a",
  "27": "\u001b",
  "28": "\u001c",
  "29": "\u001d",
  "30": "\u001e",
  "31": "\u001f",
  "32": " ",
  "33": "!",
  "34": "\"",
  "35": "#",
  "36": "$",
  "37": "%",
  "38": "&",
  "39": "'",
  "40": "(",
  "41": ")",
  "42": "*",
  "43": "+",
  "44": ",",
  "45": "-",
  "46": ".",
  "47": "/",
  "48": "0",
  "49": "1",
  "50": "2",
  "51": "3",
  "52": "4",
  "53": "5",
  "54": "6",
  "55": "7",
  "56": "8",
  "57": "9",
  "58": ":",
  "59": ";",
  "60": "<",
  "61": "=",
  "62": ">",
  "63": "?",
  "64": "@",
  "65": "A",
  "66": "B",
  "67": "C",
  "68": "D",
  "69": "E",
  "70": "F",
  "71": "G",
  "72": "H",
  "73": "I",
  "74": "J",
  "75": "K",
  "76": "L",
  "77": "M",
  "78": "N",
  "79": "O",
  "80": "P",
  "81": "Q",
  "82": "R",
  "83": "S",
  "84": "T",
  "85": "U",
  "86": "V",
  "87": "W",
  "88": "X",
  "89": "Y",
  "90": "Z",
  "91": "[",
  "92": "\\",
  "93": "]",
  "94": "^",
  "95": "_",
  "96": "`",
  "97": "a",
  "98": "b",
  "99": "c",
  "100": "d",
  "101": "e",
  "102": "f",
  "103": "g",
  "104": "h",
  "105": "i",
  "106": "j",
  "107": "k",
  "108": "l",
  "109": "m",
  "110": "n",
  "111": "o",
  "112": "p",
  "113": "q",
  "114": "r",
  "115": "s",
  "116": "t",
  "117": "u",
  "118": "v",
  "119": "w",
  "120": "x",
  "121": "y",
  "122": "z",
  "123": "{",
  "124": "|",
  "125": "}",
  "126": "~",
  "127": "",
  "128": "b'\\x80'",
  "129": "b'\\x81'",
  "130": "b'\\x82'",
  "131": "b'\\x83'",
  "132": "b'\\x84'",
  "133": "b'\\x85'",
  "134": "b'\\x86'",
  "135": "b'\\x87'",
  "136": "b'\\x88'",
  "137": "b'\\x89'",
  "138": "b'\\x8a'",
  "139": "b'\\x8b'",
  "140": "b'\\x8c'",
  "141": "b'\\x8d'",
  "142": "b'\\x8e'",
  "143": "b'\\x8f'",
  "144": "b'\\x90'",
  "145": "b'\\x91'",
  "146": "b'\\x92'",
  "147": "b'\\x93'",
  "148": "b'\\x94'",
  "149": "b'\\x95'",
  "150": "b'\\x96'",
  "151": "b'\\x97'",
  "152": "b'\\x98'",
  "153": "b'\\x99'",
  "154": "b'\\x9a'",
  "155": "b'\\x9b'",
  "156": "b'\\x9c'",
  "157": "b'\\x9d'",
  "158": "b'\\x9e'",
  "159": "b'\\x9f'",
  "160": "b'\\xa0'",
  "161": "b'\\xa1'",
  "162": "b'\\xa2'",
  "163": "b'\\xa3'",
  "164": "b'\\xa4'",
  "165": "b'\\xa5'",
  "166": "b'\\xa6'",
  "167": "b'\\xa7'",
  "168": "b'\\xa8'",
  "169": "b'\\xa9'",
  "170": "b'\\xaa'",
  "171": "b'\\xab'",
  "172": "b'\\xac'",
  "173": "b'\\xad'",
  "174": "b'\\xae'",
  "175": "b'\\xaf'",
  "176": "b'\\xb0'",
  "177": "b'\\xb1'",
  "178": "b'\\xb2'",
  "179": "b'\\xb3'",
  "180": "b'\\xb4'",
  "181": "b'\\xb5'",
  "182": "b'\\xb6'",
  "183": "b'\\xb7'",
  "184": "b'\\xb8'",
  "185": "b'\\xb9'",
  "186": "b'\\xba'",
  "187": "b'\\xbb'",
  "188": "b'\\xbc'",
  "189": "b'\\xbd'",
  "190": "b'\\xbe'",
  "191": "b'\\xbf'",
  "192": "b'\\xc0'",
  "193": "b'\\xc1'",
  "194": "b'\\xc2'",
  "195": "b'\\xc3'",
  "196": "b'\\xc4'",
  "197": "b'\\xc5'",
  "198": "b'\\xc6'",
  "199": "b'\\xc7'",
  "200": "b'\\xc8'",
  "201": "b'\\xc9'",
  "202": "b'\\xca'",
  "203": "b'\\xcb'",
  "204": "b'\\xcc'",
  "205": "b'\\xcd'",
  "206": "b'\\xce'",
  "207": "b'\\xcf'",
  "208": "b'\\xd0'",
  "209": "b'\\xd1'",
  "210": "b'\\xd2'",
  "211": "b'\\xd3'",
  "212": "b'\\xd4'",
  "213": "b'\\xd5'",
  "214": "b'\\xd6'",
  "215": "b'\\xd7'",
  "216": "b'\\xd8'",
  "217": "b'\\xd9'",
  "218": "b'\\xda'",
  "219": "b'\\xdb'",
  "220": "b'\\xdc'",
  "221": "b'\\xdd'",
  "222": "b'\\xde'",
  "223": "b'\\xdf'",
  "224": "b'\\xe0'",
  "225": "b'\\xe1'",
  "226": "b'\\xe2'",
  "227": "b'\\xe3'",
  "228": "b'\\xe4'",
  "229": "b'\\xe5'",
  "230": "b'\\xe6'",
  "231": "b'\\xe7'",
  "232": "b'\\xe8'",
  "233": "b'\\xe9'",
  "234": "b'\\xea'",
  "235": "b'\\xeb'",
  "236": "b'\\xec'",
  "237": "b'\\xed'",
  "238": "b'\\xee'",
  "239": "b'\\xef'",
  "240": "b'\\xf0'",
  "241": "b'\\xf1'",
  "242": "b'\\xf2'",
  "243": "b'\\xf3'",
  "244": "b'\\xf4'",
  "245": "b'\\xf5'",
  "246": "b'\\xf6'",
  "247": "b'\\xf7'",
  "248": "b'\\xf8'",
  "249": "b'\\xf9'",
  "250": "b'\\xfa'",
  "251": "b'\\xfb'",
  "252": "b'\\xfc'",
  "253": "b'\\xfd'",
  "254": "b'\\xfe'",
  "255": "b'\\xff'",
  "256": "<|endoftext|>",
  "257": "in",
  "258": "er",
  "259": "an",
  "260": " s",
  "261": "ar",
  "262": "es",
  "263": "ed",
  "264": "ing",
  "265": "en",
  "266": "on",
  "267": " t",
  "268": "at",
  "269": "ll",
  "270": " c",
  "271": " S",
  "272": "or",
  "273": "le",
  "274": " p",
  "275": " b",
  "276": "is",
  "277": "re",
  "278": "oo",
  "279": " T",
  "280": " B",
  "281": "as",
  "282": "he",
  "283": "ou",
  "284": "ie",
  "285": "it",
  "286": "ck",
  "287": " M",
  "288": " C",
  "289": " w",
  "290": " f",
  "291": " m",
  "292": " d",
  "293": "ra",
  "294": "el",
  "295": " P",
  "296": "al",
  "297": " h",
  "298": "ch",
  "299": "ri",
  "300": "et",
  "301": " R",
  "302": "ro",
  "303": "il",
  "304": "un",
  "305": "and",
  "306": " L",
  "307": "am",
  "308": " F",
  "309": "om",
  "310": "ad",
  "311": " A",
  "312": " g",
  "313": "pp",
  "314": " J",
  "315": " D",
  "316": "ow",
  "317": "ly",
  "318": " l",
  "319": "ig",
  "320": "ur",
  "321": "ic",
  "322": "ers",
  "323": " H",
  "324": "ay",
  "325": "ir",
  "326": " a",
  "327": "us",
  "328": " G",
  "329": "im",
  "330": "ee",
  "331": "ent",
  "332": "id",
  "333": "um",
  "334": "ol",
  "335": "ot",
  "336": "ess",
  "337": "ter",
  "338": "ey",
  "339": " W",
  "340": "ion",
  "341": "ak",
  "342": "ag",
  "343": "ty",
  "344": "os",
  "345": "ce",
  "346": " st",
  "347": " n",
  "348": "ut",
  "349": "ab",
  "350": "op",
  "351": "lly",
  "352": " E",
  "353": "ul",
  "354": "est",
  "355": " the",
  "356": "ff",
  "357": "iv",
  "358": " re",
  "359": "ct",
  "360": " K",
  "361": " e",
  "362": " N",
  "363": "ug",
  "364": "ick",
  "365": "ry",
  "366": "qu",
  "367": "bb",
  "368": "ell",
  "369": "la",
  "370": " r",
  "371": "ard",
  "372": "ip",
  "373": "ill",
  "374": "her",
  "375": " in",
  "376": "ant",
  "377": " to",
  "378": "all",
  "379": " sp",
  "380": "ver",
  "381": "ap",
  "382": "ny",
  "383": "ht",
  "384": " and",
  "385": "ist",
  "386": " sh",
  "387": " un",
  "388": "ous",
  "389": "zz",
  "390": "dy",
  "391": "les",
  "392": "av",
  "393": "ia",
  "394": "ppy",
  "395": "th",
  "396": "ish",
  "397": "ine",
  "398": " I",
  "399": "ack",
  "400": "st",
  "401": " St",
  "402": " j",
  "403": "end",
  "404": "em",
  "405": "ink",
  "406": "ear",
  "407": " O",
  "408": "ang",
  "409": "ac",
  "410": "aw",
  "411": " o",
  "412": " v",
  "413": "oun",
  "414": "ud",
  "415": " Ch",
  "416": "ts",
  "417": "ies",
  "418": " he",
  "419": "up",
  "420": "og",
  "421": " th",
  "422": "ook",
  "423": " Sp",
  "424": "uck",
  "425": " sc",
  "426": "ock",
  "427": " k",
  "428": " ch",
  "429": "ber",
  "430": "bo",
  "431": "ik",
  "432": "ate",
  "433": "ast",
  "434": " Z",
  "435": "ight",
  "436": "ass",
  "437": "od",
  "438": "my",
  "439": " was",
  "440": "uff",
  "441": "ark",
  "442": "our",
  "443": "ain",
  "444": "ep",
  "445": "ina",
  "446": "row",
  "447": "art",
  "448": "ind",
  "449": " y",
  "450": "ea",
  "451": "ail",
  "452": " pl",
  "453": "ew",
  "454": "der",
  "455": "ec",
  "456": "iz",
  "457": "ation",
  "458": "ting",
  "459": " Sh",
  "460": "ling",
  "461": "ash",
  "462": "sh",
  "463": " Mar",
  "464": "led",
  "465": " An",
  "466": "by",
  "467": " The",
  "468": " Fl",
  "469": "ov",
  "470": "ian",
  "471": "arm",
  "472": "oll",
  "473": "if",
  "474": "ump",
  "475": "ood",
  "476": "oom",
  "477": " cl",
  "478": "gy",
  "479": "ley",
  "480": "ect",
  "481": "ub",
  "482": " Y",
  "483": "air",
  "484": " V",
  "485": " le",
  "486": "oy",
  "487": "ake",
  "488": " con",
  "489": "ank",
  "490": "ted",
  "491": " fl",
  "492": "sy",
  "493": "per",
  "494": "omp",
  "495": "ful",
  "496": " ra",
  "497": "ive",
  "498": "ith",
  "499": " wh",
  "500": " ex",
  "501": "ork",
  "502": " gr",
  "503": "ely",
  "504": "age",
  "505": "ire",
  "506": "eg",
  "507": "ann",
  "508": " sn",
  "509": "umb",
  "510": "eat",
  "511": "able",
  "512": "one",
  "513": "ily",
  "514": "old",
  "515": "ge",
  "516": "ness",
  "517": "are",
  "518": "ax",
  "519": "ipp",
  "520": "oon",
  "521": "ah",
  "522": "ph",
  "523": " bl",
  "524": "ue",
  "525": "ok",
  "526": " Car",
  "527": "man",
  "528": "ier",
  "529": " ro",
  "530": "ure",
  "531": "ort",
  "532": " sw",
  "533": "ree",
  "534": "atch",
  "535": "orn",
  "536": "ush",
  "537": "ise",
  "538": "rr",
  "539": "ob",
  "540": " sm",
  "541": "ubb",
  "542": "ors",
  "543": "att",
  "544": "ma",
  "545": "out",
  "546": "oc",
  "547": "ird",
  "548": "ound",
  "549": "oug",
  "550": " for",
  "551": " sa",
  "552": "ity",
  "553": " Sc",
  "554": "ull",
  "555": "ix",
  "556": "ens",
  "557": "ary",
  "558": "anc",
  "559": " be",
  "560": "ve",
  "561": "ray",
  "562": "ath",
  "563": "uc",
  "564": "ky",
  "565": "ome",
  "566": " it",
  "567": "iss",
  "568": "ust",
  "569": "izz",
  "570": " Fr",
  "571": "low",
  "572": " Sn",
  "573": " dis",
  "574": "ets",
  "575": "eep",
  "576": "ach",
  "577": "nie",
  "578": "ents",
  "579": "ost",
  "580": "oh",
  "581": "itt",
  "582": "ated",
  "583": "ld",
  "584": " U",
  "585": "ase",
  "586": "ret",
  "587": "ings",
  "588": " qu",
  "589": "ool",
  "590": "ne",
  "591": "ime",
  "592": "ide",
  "593": "ss",
  "594": "ong",
  "595": "obb",
  "596": "ild",
  "597": "ouse",
  "598": "olly",
  "599": "ble",
  "600": " Gr",
  "601": "oop",
  "602": "ile",
  "603": "ara",
  "604": "ally",
  "605": " Tim",
  "606": " Al",
  "607": "rig",
  "608": "itch",
  "609": "St",
  "610": " \"",
  "611": "oot",
  "612": "ins",
  "613": " her",
  "614": " Tr",
  "615": " Tom",
  "616": "own",
  "617": "ippy",
  "618": "illy",
  "619": "als",
  "620": " pr",
  "621": "pl",
  "622": "ore",
  "623": "ice",
  "624": " He",
  "625": " El",
  "626": "ons",
  "627": " play",
  "628": "b'\\xe2\\x80'",
  "629": "ord",
  "630": "opp",
  "631": "ev",
  "632": "mm",
  "633": "eed",
  "634": "eb",
  "635": " pro",
  "636": " Th",
  "637": "eet",
  "638": "ave",
  "639": "Ch",
  "640": " cr",
  "641": " z",
  "642": "very",
  "643": "uffy",
  "644": " sl",
  "645": " ad",
  "646": "ress",
  "647": "ean",
  "648": " Cl",
  "649": "app",
  "650": " sk",
  "651": "uzz",
  "652": " She",
  "653": "ris",
  "654": "igg",
  "655": "aa",
  "656": "ox",
  "657": "ite",
  "658": "ater",
  "659": "ane",
  "660": "ana",
  "661": " In",
  "662": "rid",
  "663": "amp",
  "664": " with",
  "665": " tra",
  "666": " gl",
  "667": "az",
  "668": " Wh",
  "669": " en",
  "670": "orm",
  "671": "inn",
  "672": "ance",
  "673": "igh",
  "674": " They",
  "675": "uit",
  "676": "ious",
  "677": "ence",
  "678": " tr",
  "679": " day",
  "680": "na",
  "681": "lex",
  "682": "ions",
  "683": "eal",
  "684": " she",
  "685": " said",
  "686": "oof",
  "687": "ond",
  "688": "ole",
  "689": "ert",
  "690": " Squ",
  "691": "unk",
  "692": "riend",
  "693": "els",
  "694": "ough",
  "695": "oth",
  "696": "mp",
  "697": "less",
  "698": "imp",
  "699": "gie",
  "700": "ef",
  "701": "An",
  "702": " Br",
  "703": "int",
  "704": "ena",
  "705": "ask",
  "706": "appy",
  "707": " squ",
  "708": "  ",
  "709": "ged",
  "710": "eak",
  "711": "aya",
  "712": "andy",
  "713": " Am",
  "714": "reat",
  "715": "isa",
  "716": " Gra",
  "717": " on",
  "718": " ar",
  "719": "ered",
  "720": "cy",
  "721": "ball",
  "722": " com",
  "723": " Q",
  "724": "zy",
  "725": "ully",
  "726": "ory",
  "727": "ops",
  "728": "oe",
  "729": "inny",
  "730": "eas",
  "731": "ans",
  "732": " tw",
  "733": " Bl",
  "734": "urt",
  "735": "oos",
  "736": "ign",
  "737": "ira",
  "738": "iff",
  "739": " so",
  "740": " mar",
  "741": "Mar",
  "742": " res",
  "743": " che",
  "744": "ott",
  "745": "ony",
  "746": "eth",
  "747": "ele",
  "748": " not",
  "749": " kn",
  "750": " up",
  "751": "ards",
  "752": " comp",
  "753": "ugh",
  "754": "red",
  "755": "oat",
  "756": "mb",
  "757": "ett",
  "758": "atter",
  "759": "Sh",
  "760": " mom",
  "761": " \n",
  "762": " \n \n",
  "763": "way",
  "764": "ied",
  "765": "arn",
  "766": " hel",
  "767": " his",
  "768": " app",
  "769": " So",
  "770": "oooo",
  "771": "iest",
  "772": "ib",
  "773": "elly",
  "774": " Tw",
  "775": " an",
  "776": "ugg",
  "777": "ream",
  "778": "alk",
  "779": "urn",
  "780": "sp",
  "781": "ries",
  "782": "ery",
  "783": "cle",
  "784": " gu",
  "785": " but",
  "786": " Un",
  "787": "ys",
  "788": "land",
  "789": "ating",
  "790": " you",
  "791": " par",
  "792": "raw",
  "793": "inky",
  "794": "co",
  "795": "anny",
  "796": " tri",
  "797": " str",
  "798": " ac",
  "799": "reen",
  "800": "ower",
  "801": "oppy",
  "802": "ike",
  "803": "here",
  "804": "ened",
  "805": "ale",
  "806": " Ra",
  "807": "urp",
  "808": "ung",
  "809": "udd",
  "810": "ict",
  "811": "ft",
  "812": "berry",
  "813": "anger",
  "814": ".\"",
  "815": " bird",
  "816": "mer",
  "817": "ment",
  "818": "bs",
  "819": "aur",
  "820": " pe",
  "821": " big",
  "822": "rog",
  "823": "ler",
  "824": "ame",
  "825": "ai",
  "826": " hair",
  "827": " bar",
  "828": "oss",
  "829": "ingly",
  "830": "icky",
  "831": "erry",
  "832": " saw",
  "833": " had",
  "834": " out",
  "835": " al",
  "836": "unch",
  "837": "ric",
  "838": "ino",
  "839": "eek",
  "840": "cl",
  "841": "atty",
  "842": "ady",
  "843": "Sp",
  "844": " friend",
  "845": "son",
  "846": "ich",
  "847": "amed",
  "848": " Ad",
  "849": "upp",
  "850": "rav",
  "851": "ose",
  "852": "io",
  "853": "each",
  "854": "board",
  "855": "act",
  "856": " Lily",
  "857": "ze",
  "858": "ows",
  "859": "ould",
  "860": "oud",
  "861": "ooth",
  "862": "erv",
  "863": "ex",
  "864": "ari",
  "865": "Th",
  "866": " over",
  "867": " co",
  "868": " Sm",
  "869": "ucky",
  "870": "tt",
  "871": "rrrr",
  "872": "rag",
  "873": "hh",
  "874": "enny",
  "875": "ade",
  "876": " car",
  "877": "vent",
  "878": "rip",
  "879": "oes",
  "880": "ittle",
  "881": "iness",
  "882": "ayla",
  "883": "aul",
  "884": " sun",
  "885": " int",
  "886": " fire",
  "887": " Qu",
  "888": " Jo",
  "889": "org",
  "890": "lo",
  "891": "eter",
  "892": "ere",
  "893": "elle",
  "894": "Al",
  "895": "'s",
  "896": " happy",
  "897": " Che",
  "898": "    ",
  "899": "uggy",
  "900": "sc",
  "901": "ract",
  "902": "rist",
  "903": "ring",
  "904": "ora",
  "905": "ope",
  "906": "izzy",
  "907": "itter",
  "908": "ats",
  "909": "acky",
  "910": "augh",
  "911": " rec",
  "912": " cont",
  "913": " all",
  "914": "utter",
  "915": "rain",
  "916": "lack",
  "917": "iver",
  "918": "ead",
  "919": "add",
  "920": "The",
  "921": " can",
  "922": " Ma",
  "923": " Jul",
  "924": "uts",
  "925": "rown",
  "926": "ron",
  "927": "ove",
  "928": "ola",
  "929": "ke",
  "930": "get",
  "931": " want",
  "932": " rep",
  "933": " of",
  "934": " Ro",
  "935": "work",
  "936": "ude",
  "937": "rew",
  "938": "rink",
  "939": "ella",
  "940": "ations",
  "941": "ather",
  "942": " they",
  "943": " per",
  "944": " mag",
  "945": " ball",
  "946": " ag",
  "947": "ya",
  "948": "room",
  "949": "lla",
  "950": "fy",
  "951": "bie",
  "952": "ates",
  "953": "arry",
  "954": "ared",
  "955": "akes",
  "956": "!\"",
  "957": " grand",
  "958": "rick",
  "959": "ones",
  "960": "let",
  "961": "be",
  "962": " \n \n \n \n",
  "963": "ton",
  "964": "right",
  "965": "ls",
  "966": "ips",
  "967": "illa",
  "968": "eeper",
  "969": "aster",
  "970": "af",
  "971": "Wh",
  "972": " sur",
  "973": " help",
  "974": " des",
  "975": " Mon",
  "976": "pt",
  "977": "inc",
  "978": "ebb",
  "979": "ars",
  "980": "ants",
  "981": "..",
  "982": " little",
  "983": " fun",
  "984": " boy",
  "985": " back",
  "986": " Max",
  "987": " Joh",
  "988": " Ar",
  "989": "ven",
  "990": "use",
  "991": "ures",
  "992": "rot",
  "993": "oor",
  "994": "itty",
  "995": "bird",
  "996": "ator",
  "997": " ne",
  "998": " Mel",
  "999": " very",
  "1000": " am",
  "1001": "umpy",
  "1002": "outs",
  "1003": "fully",
  "1004": "eng",
  "1005": "ched",
  "1006": " new",
  "1007": " cro",
  "1008": " Sl",
  "1009": " Pl",
  "1010": " ri",
  "1011": "umble",
  "1012": "rap",
  "1013": "ica",
  "1014": "enn",
  "1015": "bert",
  "1016": "arr",
  "1017": "anna",
  "1018": "aker",
  "1019": "ace",
  "1020": " we",
  "1021": " book",
  "1022": " Her",
  "1023": "und",
  "1024": "read",
  "1025": "obby",
  "1026": "ila",
  "1027": "iam",
  "1028": "amm",
  "1029": " that",
  "1030": " time",
  "1031": " rem",
  "1032": " mot",
  "1033": " Grand",
  "1034": " Del",
  "1035": " is",
  "1036": "”",
  "1037": "urs",
  "1038": "unt",
  "1039": "umber",
  "1040": "ount",
  "1041": "olph",
  "1042": "key",
  "1043": "ield",
  "1044": "ief",
  "1045": "ient",
  "1046": "house",
  "1047": "fl",
  "1048": "da",
  "1049": "box",
  "1050": "ages",
  "1051": "azz",
  "1052": " friends",
  "1053": " dec",
  "1054": " Sw",
  "1055": " Mag",
  "1056": " Lu",
  "1057": " It",
  "1058": " Hel",
  "1059": " imp",
  "1060": "ummy",
  "1061": "rey",
  "1062": "ram",
  "1063": "ollie",
  "1064": "inin",
  "1065": "iles",
  "1066": "anie",
  "1067": " hand",
  "1068": " bo",
  "1069": " Sam",
  "1070": " Mad",
  "1071": " Co",
  "1072": " att",
  "1073": "umm",
  "1074": "uct",
  "1075": "oin",
  "1076": "its",
  "1077": "iki",
  "1078": "ider",
  "1079": "icro",
  "1080": "aff",
  "1081": "Cl",
  "1082": " pass",
  "1083": " ins",
  "1084": " Sk",
  "1085": " Bear",
  "1086": " And",
  "1087": "udy",
  "1088": "reak",
  "1089": "rad",
  "1090": "lee",
  "1091": "ivers",
  "1092": "ison",
  "1093": "ingo",
  "1094": "ilda",
  "1095": "eer",
  "1096": "chy",
  "1097": " rh",
  "1098": " del",
  "1099": " Ron",
  "1100": " Ed",
  "1101": "rom",
  "1102": "rit",
  "1103": "res",
  "1104": "osh",
  "1105": "opper",
  "1106": "ooked",
  "1107": "ines",
  "1108": "ial",
  "1109": "eph",
  "1110": "eam",
  "1111": "ching",
  "1112": "ches",
  "1113": "awn",
  "1114": "aser",
  "1115": "anda",
  "1116": "acy",
  "1117": "On",
  "1118": "?\"",
  "1119": " went",
  "1120": " water",
  "1121": " named",
  "1122": " br",
  "1123": "urry",
  "1124": "roll",
  "1125": "rel",
  "1126": "pect",
  "1127": "nn",
  "1128": "lie",
  "1129": "imm",
  "1130": "avy",
  "1131": "arb",
  "1132": "ani",
  "1133": " me",
  "1134": " dri",
  "1135": " ab",
  "1136": " Ex",
  "1137": " Ben",
  "1138": " Bark",
  "1139": " Ag",
  "1140": "uss",
  "1141": "rop",
  "1142": "rin",
  "1143": "idd",
  "1144": "ible",
  "1145": "ener",
  "1146": "elt",
  "1147": "eather",
  "1148": "ears",
  "1149": "ba",
  "1150": "arted",
  "1151": "arp",
  "1152": "aps",
  "1153": "ald",
  "1154": " them",
  "1155": " snow",
  "1156": " ph",
  "1157": " man",
  "1158": " did",
  "1159": " Is",
  "1160": "urr",
  "1161": "ssss",
  "1162": "other",
  "1163": "olphin",
  "1164": "oke",
  "1165": "men",
  "1166": "light",
  "1167": "inging",
  "1168": "iggy",
  "1169": "gr",
  "1170": "aring",
  "1171": "au",
  "1172": "OO",
  "1173": " wanted",
  "1174": " tree",
  "1175": " spl",
  "1176": " Gl",
  "1177": " But",
  "1178": "uri",
  "1179": "ought",
  "1180": "ized",
  "1181": "ised",
  "1182": "irp",
  "1183": "icks",
  "1184": "go",
  "1185": "bed",
  "1186": "ays",
  "1187": "ait",
  "1188": "Fl",
  "1189": " sand",
  "1190": " sal",
  "1191": " ref",
  "1192": " pre",
  "1193": " pol",
  "1194": " inv",
  "1195": " don",
  "1196": " Spot",
  "1197": " Pip",
  "1198": " Ab",
  "1199": "ubby",
  "1200": "reck",
  "1201": "ours",
  "1202": "ject",
  "1203": "ished",
  "1204": "irt",
  "1205": "inger",
  "1206": "icy",
  "1207": "ging",
  "1208": "ene",
  "1209": "ammy",
  "1210": "ags",
  "1211": "abby",
  "1212": "Un",
  "1213": "Tim",
  "1214": " whe",
  "1215": " there",
  "1216": " post",
  "1217": " mis",
  "1218": " frog",
  "1219": " acc",
  "1220": " op",
  "1221": " are",
  "1222": "ves",
  "1223": "usty",
  "1224": "owing",
  "1225": "osaur",
  "1226": "oose",
  "1227": "ney",
  "1228": "ids",
  "1229": "ical",
  "1230": "een",
  "1231": "ces",
  "1232": "cer",
  "1233": "cc",
  "1234": "ately",
  "1235": "acey",
  "1236": "abelle",
  "1237": "ael",
  "1238": "Sc",
  "1239": "Jo",
  "1240": " wood",
  "1241": " were",
  "1242": " med",
  "1243": " cra",
  "1244": " coll",
  "1245": " Luc",
  "1246": " En",
  "1247": " Bo",
  "1248": " Ash",
  "1249": " or",
  "1250": "ute",
  "1251": "unny",
  "1252": "riv",
  "1253": "pped",
  "1254": "leep",
  "1255": "kin",
  "1256": "ives",
  "1257": "irl",
  "1258": "iled",
  "1259": "fish",
  "1260": "com",
  "1261": "ami",
  "1262": "airy",
  "1263": "Gr",
  "1264": " pers",
  "1265": " do",
  "1266": " bull",
  "1267": " black",
  "1268": " Min",
  "1269": " Em",
  "1270": " at",
  "1271": "uzzy",
  "1272": "ushy",
  "1273": "unn",
  "1274": "ugs",
  "1275": "ube",
  "1276": "par",
  "1277": "oup",
  "1278": "lace",
  "1279": "jo",
  "1280": "ibb",
  "1281": "enty",
  "1282": "ellow",
  "1283": "aking",
  "1284": "aint",
  "1285": "ads",
  "1286": "addy",
  "1287": "Once",
  "1288": "Joh",
  "1289": "AA",
  "1290": " som",
  "1291": " park",
  "1292": " ele",
  "1293": " dr",
  "1294": " dolphin",
  "1295": " Jon",
  "1296": " rid",
  "1297": " ant",
  "1298": "yl",
  "1299": "wh",
  "1300": "vis",
  "1301": "ury",
  "1302": "rina",
  "1303": "pping",
  "1304": "pie",
  "1305": "iving",
  "1306": "iet",
  "1307": "iana",
  "1308": "hel",
  "1309": "gus",
  "1310": "ger",
  "1311": "enna",
  "1312": "ening",
  "1313": "ells",
  "1314": "eggie",
  "1315": "awk",
  "1316": "amb",
  "1317": "alia",
  "1318": "ails",
  "1319": "abel",
  "1320": "NG",
  "1321": " work",
  "1322": " wor",
  "1323": " upon",
  "1324": " toy",
  "1325": " se",
  "1326": " rock",
  "1327": " rest",
  "1328": " po",
  "1329": " past",
  "1330": " magn",
  "1331": " di",
  "1332": " cle",
  "1333": " Le",
  "1334": " Cel",
  "1335": " ent",
  "1336": "vie",
  "1337": "under",
  "1338": "ular",
  "1339": "ues",
  "1340": "rill",
  "1341": "ots",
  "1342": "organ",
  "1343": "ored",
  "1344": "oney",
  "1345": "odd",
  "1346": "oco",
  "1347": "ize",
  "1348": "ition",
  "1349": "ited",
  "1350": "ita",
  "1351": "isy",
  "1352": "ipper",
  "1353": "inda",
  "1354": "iney",
  "1355": "iley",
  "1356": "hell",
  "1357": "ewel",
  "1358": "ester",
  "1359": "ently",
  "1360": "ending",
  "1361": "eddy",
  "1362": "atie",
  "1363": "alm",
  "1364": "ains",
  "1365": "aley",
  "1366": "Tom",
  "1367": "Bl",
  "1368": " sub",
  "1369": " rel",
  "1370": " lov",
  "1371": " duck",
  "1372": " aw",
  "1373": " Whist",
  "1374": " Mom",
  "1375": " Mo",
  "1376": " Franc",
  "1377": " Flex",
  "1378": "ured",
  "1379": "uppy",
  "1380": "time",
  "1381": "pol",
  "1382": "oopy",
  "1383": "ister",
  "1384": "ically",
  "1385": "edd",
  "1386": "day",
  "1387": "ala",
  "1388": "acks",
  "1389": "Sn",
  "1390": "HH",
  "1391": "Fr",
  "1392": "'t",
  "1393": " sad",
  "1394": " have",
  "1395": " exp",
  "1396": " dep",
  "1397": " conf",
  "1398": " Pat",
  "1399": " Mix",
  "1400": " Ly",
  "1401": " Har",
  "1402": " Cla",
  "1403": " Bee",
  "1404": " Be",
  "1405": "vers",
  "1406": "str",
  "1407": "ried",
  "1408": "oxy",
  "1409": "owed",
  "1410": "oons",
  "1411": "ooks",
  "1412": "oofy",
  "1413": "ona",
  "1414": "olf",
  "1415": "leas",
  "1416": "ka",
  "1417": "ishing",
  "1418": "ipping",
  "1419": "ined",
  "1420": "ift",
  "1421": "ges",
  "1422": "gar",
  "1423": "etty",
  "1424": "ests",
  "1425": "asked",
  "1426": "arming",
  "1427": "arth",
  "1428": "In",
  "1429": "Car",
  "1430": " will",
  "1431": " tre",
  "1432": " sy",
  "1433": " inter",
  "1434": " fr",
  "1435": " bur",
  "1436": " Peep",
  "1437": " Paul",
  "1438": " Jam",
  "1439": " Ell",
  "1440": " Cra",
  "1441": " Comp",
  "1442": " Com",
  "1443": " Abb",
  "1444": "yster",
  "1445": "worm",
  "1446": "vin",
  "1447": "ved",
  "1448": "owy",
  "1449": "ourn",
  "1450": "onder",
  "1451": "ipped",
  "1452": "inch",
  "1453": "iling",
  "1454": "icker",
  "1455": "ffic",
  "1456": "esc",
  "1457": "elling",
  "1458": "ellie",
  "1459": "cky",
  "1460": "cess",
  "1461": "ced",
  "1462": "berries",
  "1463": "aws",
  "1464": "asket",
  "1465": "any",
  "1466": "Tr",
  "1467": "Pl",
  "1468": "One",
  "1469": " sor",
  "1470": " ob",
  "1471": " make",
  "1472": " know",
  "1473": " gra",
  "1474": " go",
  "1475": " dist",
  "1476": " bu",
  "1477": " bra",
  "1478": " Zoom",
  "1479": " To",
  "1480": " Ph",
  "1481": " Pet",
  "1482": " Pe",
  "1483": " No",
  "1484": " Lil",
  "1485": " Jen",
  "1486": " Cro",
  "1487": " ow",
  "1488": " er",
  "1489": "uth",
  "1490": "uper",
  "1491": "ucker",
  "1492": "uce",
  "1493": "thy",
  "1494": "ta",
  "1495": "ously",
  "1496": "ounce",
  "1497": "oring",
  "1498": "ooly",
  "1499": "onny",
  "1500": "ki",
  "1501": "itting",
  "1502": "ito",
  "1503": "issy",
  "1504": "iny",
  "1505": "ining",
  "1506": "ilk",
  "1507": "ics",
  "1508": "iri",
  "1509": "ement",
  "1510": "eff",
  "1511": "die",
  "1512": "can",
  "1513": "br",
  "1514": "ands",
  "1515": "ama",
  "1516": ",\"",
  "1517": " unf",
  "1518": " toget",
  "1519": " too",
  "1520": " mail",
  "1521": " light",
  "1522": " la",
  "1523": " house",
  "1524": " him",
  "1525": " col",
  "1526": " Ros",
  "1527": " Rh",
  "1528": " Ow",
  "1529": " Lou",
  "1530": " Kar",
  "1531": " Cle",
  "1532": " Ann",
  "1533": "zie",
  "1534": "ym",
  "1535": "ying",
  "1536": "ward",
  "1537": "ving",
  "1538": "uto",
  "1539": "uel",
  "1540": "sty",
  "1541": "rying",
  "1542": "reed",
  "1543": "ouch",
  "1544": "orty",
  "1545": "opsy",
  "1546": "ooky",
  "1547": "okey",
  "1548": "ocks",
  "1549": "obble",
  "1550": "over",
  "1551": "mo",
  "1552": "ishy",
  "1553": "hhhh",
  "1554": "form",
  "1555": "essy",
  "1556": "ese",
  "1557": "elie",
  "1558": "eaf",
  "1559": "cept",
  "1560": "apt",
  "1561": "ape",
  "1562": "angle",
  "1563": "ander",
  "1564": "aky",
  "1565": "aded",
  "1566": "Sw",
  "1567": "HHHH",
  "1568": " under",
  "1569": " together",
  "1570": " their",
  "1571": " plant",
  "1572": " oat",
  "1573": " met",
  "1574": " match",
  "1575": " learn",
  "1576": " looked",
  "1577": " lif",
  "1578": " good",
  "1579": " fil",
  "1580": " farm",
  "1581": " Ter",
  "1582": " Sue",
  "1583": " Ne",
  "1584": " Lill",
  "1585": " John",
  "1586": " Alex",
  "1587": " \n \n \n \n \n \n \n \n",
  "1588": " 1",
  "1589": "’",
  "1590": "utt",
  "1591": "used",
  "1592": "udge",
  "1593": "ubs",
  "1594": "pper",
  "1595": "port",
  "1596": "outh",
  "1597": "oots",
  "1598": "ments",
  "1599": "kn",
  "1600": "ists",
  "1601": "innie",
  "1602": "immy",
  "1603": "iffer",
  "1604": "idi",
  "1605": "flow",
  "1606": "ern",
  "1607": "easp",
  "1608": "dom",
  "1609": "ases",
  "1610": "arky",
  "1611": "ao",
  "1612": "Tw",
  "1613": "Ar",
  "1614": "Am",
  "1615": "Ag",
  "1616": " und",
  "1617": " thought",
  "1618": " sign",
  "1619": " pick",
  "1620": " pan",
  "1621": " no",
  "1622": " leop",
  "1623": " hot",
  "1624": " foot",
  "1625": " dog",
  "1626": " dish",
  "1627": " could",
  "1628": " bro",
  "1629": " bec",
  "1630": " bat",
  "1631": " Rob",
  "1632": " Rain",
  "1633": " Marc",
  "1634": " Mid",
  "1635": " Mart",
  "1636": " Hopp",
  "1637": " Ge",
  "1638": " Dav",
  "1639": " Bea",
  "1640": " As",
  "1641": "zzzz",
  "1642": "vel",
  "1643": "usage",
  "1644": "umbly",
  "1645": "ult",
  "1646": "rrr",
  "1647": "rows",
  "1648": "rup",
  "1649": "ps",
  "1650": "ooty",
  "1651": "oldy",
  "1652": "lock",
  "1653": "keeper",
  "1654": "ja",
  "1655": "ively",
  "1656": "itten",
  "1657": "ities",
  "1658": "ired",
  "1659": "irate",
  "1660": "inds",
  "1661": "iked",
  "1662": "idey",
  "1663": "ictor",
  "1664": "gl",
  "1665": "essie",
  "1666": "emp",
  "1667": "ebby",
  "1668": "ei",
  "1669": "eel",
  "1670": "cing",
  "1671": "boat",
  "1672": "bee",
  "1673": "azzy",
  "1674": "asketball",
  "1675": "ashy",
  "1676": "andas",
  "1677": "akey",
  "1678": "Mom",
  "1679": "Mel",
  "1680": "El",
  "1681": " what",
  "1682": " unt",
  "1683": " star",
  "1684": " sail",
  "1685": " played",
  "1686": " motor",
  "1687": " min",
  "1688": " mess",
  "1689": " inc",
  "1690": " fla",
  "1691": " doll",
  "1692": " def",
  "1693": " cab",
  "1694": " Tick",
  "1695": " Sock",
  "1696": " Purp",
  "1697": " Pr",
  "1698": " Nor",
  "1699": " Mill",
  "1700": " Kn",
  "1701": " Jan",
  "1702": " Jack",
  "1703": " Green",
  "1704": " Bar",
  "1705": " outs",
  "1706": " im",
  "1707": " el",
  "1708": " asked",
  "1709": " as",
  "1710": " arm",
  "1711": "yer",
  "1712": "vy",
  "1713": "ums",
  "1714": "uckie",
  "1715": "uf",
  "1716": "ual",
  "1717": "rimp",
  "1718": "reet",
  "1719": "rie",
  "1720": "pe",
  "1721": "owers",
  "1722": "oub",
  "1723": "mon",
  "1724": "izing",
  "1725": "iti",
  "1726": "ising",
  "1727": "irc",
  "1728": "ipe",
  "1729": "iously",
  "1730": "inter",
  "1731": "ills",
  "1732": "ided",
  "1733": "iddy",
  "1734": "iction",
  "1735": "ibr",
  "1736": "iya",
  "1737": "iqu",
  "1738": "iant",
  "1739": "fly",
  "1740": "erst",
  "1741": "erc",
  "1742": "ention",
  "1743": "ember",
  "1744": "ello",
  "1745": "atherine",
  "1746": "ata",
  "1747": "ashing",
  "1748": "annie",
  "1749": "anne",
  "1750": "Mik",
  "1751": " yach",
  "1752": " ter",
  "1753": " spark",
  "1754": " small",
  "1755": " supp",
  "1756": " reg",
  "1757": " pret",
  "1758": " pean",
  "1759": " mus",
  "1760": " mix",
  "1761": " lad",
  "1762": " ind",
  "1763": " heart",
  "1764": " head",
  "1765": " hard",
  "1766": " find",
  "1767": " exc",
  "1768": " every",
  "1769": " cur",
  "1770": " coun",
  "1771": " bus",
  "1772": " bell",
  "1773": " Wil",
  "1774": " Wall",
  "1775": " Soap",
  "1776": " Su",
  "1777": " Sky",
  "1778": " Rod",
  "1779": " Pick",
  "1780": " Pass",
  "1781": " Mit",
  "1782": " Kay",
  "1783": " Ev",
  "1784": " Er",
  "1785": " Cor",
  "1786": " Cal",
  "1787": " Blue",
  "1788": " Bubb",
  "1789": " ir",
  "1790": "zo",
  "1791": "wood",
  "1792": "uccess",
  "1793": "sm",
  "1794": "ryst",
  "1795": "reez",
  "1796": "pa",
  "1797": "ori",
  "1798": "oodles",
  "1799": "oomy",
  "1800": "isk",
  "1801": "ingy",
  "1802": "ighb",
  "1803": "ickie",
  "1804": "ience",
  "1805": "iara",
  "1806": "gs",
  "1807": "fter",
  "1808": "ender",
  "1809": "eness",
  "1810": "edge",
  "1811": "earing",
  "1812": "chool",
  "1813": "chie",
  "1814": "ceful",
  "1815": "bug",
  "1816": "aying",
  "1817": "asty",
  "1818": "anky",
  "1819": "aked",
  "1820": "ada",
  "1821": "ably",
  "1822": "aun",
  "1823": "ae",
  "1824": "So",
  "1825": "Sm",
  "1826": "Ex",
  "1827": "Che",
  "1828": "Bear",
  "1829": " wr",
  "1830": " watch",
  "1831": " wag",
  "1832": " thunder",
  "1833": " te",
  "1834": " see",
  "1835": " ret",
  "1836": " read",
  "1837": " ring",
  "1838": " mon",
  "1839": " laugh",
  "1840": " hum",
  "1841": " harm",
  "1842": " found",
  "1843": " cons",
  "1844": " cent",
  "1845": " av",
  "1846": " act",
  "1847": " Squee",
  "1848": " Sim",
  "1849": " One",
  "1850": " Ol",
  "1851": " Marsh",
  "1852": " Mik",
  "1853": " Micro",
  "1854": " Glow",
  "1855": " Fig",
  "1856": " Emm",
  "1857": " Dog",
  "1858": " Char",
  "1859": " Bra",
  "1860": "za",
  "1861": "ye",
  "1862": "we",
  "1863": "uring",
  "1864": "upil",
  "1865": "ule",
  "1866": "sn",
  "1867": "rigg",
  "1868": "phone",
  "1869": "orts",
  "1870": "ores",
  "1871": "oony",
  "1872": "oosh",
  "1873": "onya",
  "1874": "night",
  "1875": "mbol",
  "1876": "izard",
  "1877": "ival",
  "1878": "iting",
  "1879": "ites",
  "1880": "istol",
  "1881": "isc",
  "1882": "irr",
  "1883": "inks",
  "1884": "ighty",
  "1885": "iggles",
  "1886": "ician",
  "1887": "iamond",
  "1888": "fort",
  "1889": "erve",
  "1890": "ended",
  "1891": "eless",
  "1892": "chief",
  "1893": "cher",
  "1894": "aving",
  "1895": "aty",
  "1896": "anes",
  "1897": "addie",
  "1898": "ado",
  "1899": "aby",
  "1900": "aj",
  "1901": "En",
  "1902": "Baa",
  "1903": "Ad",
  "1904": " scr",
  "1905": " sol",
  "1906": " seat",
  "1907": " part",
  "1908": " pack",
  "1909": " mod",
  "1910": " mac",
  "1911": " lock",
  "1912": " jelly",
  "1913": " fir",
  "1914": " ext",
  "1915": " expl",
  "1916": " emb",
  "1917": " disc",
  "1918": " diary",
  "1919": " down",
  "1920": " dev",
  "1921": " comm",
  "1922": " cup",
  "1923": " cre",
  "1924": " cal",
  "1925": " bul",
  "1926": " bill",
  "1927": " ben",
  "1928": " adm",
  "1929": " Wor",
  "1930": " Wip",
  "1931": " Turt",
  "1932": " Tig",
  "1933": " Strip",
  "1934": " Star",
  "1935": " Sil",
  "1936": " Sel",
  "1937": " Rich",
  "1938": " Reg",
  "1939": " Ig",
  "1940": " Fire",
  "1941": " Chris",
  "1942": " Chomp",
  "1943": " Col",
  "1944": " ass",
  "1945": "é",
  "1946": "ways",
  "1947": "wee",
  "1948": "urf",
  "1949": "une",
  "1950": "umps",
  "1951": "ubber",
  "1952": "rix",
  "1953": "rep",
  "1954": "reg",
  "1955": "phy",
  "1956": "otion",
  "1957": "osaurus",
  "1958": "orse",
  "1959": "orch",
  "1960": "ooter",
  "1961": "lynn",
  "1962": "ks",
  "1963": "issa",
  "1964": "isty",
  "1965": "inking",
  "1966": "inker",
  "1967": "ini",
  "1968": "inet",
  "1969": "ife",
  "1970": "iding",
  "1971": "ides",
  "1972": "esting",
  "1973": "ense",
  "1974": "elled",
  "1975": "elic",
  "1976": "eded",
  "1977": "cover",
  "1978": "cker",
  "1979": "boy",
  "1980": "bow",
  "1981": "asting",
  "1982": "ashes",
  "1983": "asc",
  "1984": "aper",
  "1985": "antly",
  "1986": "anks",
  "1987": "ancy",
  "1988": "alu",
  "1989": "ales",
  "1990": "airs",
  "1991": "ais",
  "1992": "Sk",
  "1993": "Max",
  "1994": "Gra",
  "1995": "Bee",
  "1996": " zoom",
  "1997": " unc",
  "1998": " train",
  "1999": " tick",
  "2000": " scared",
  "2001": " sleep",
  "2002": " ride",
  "2003": " prot",
  "2004": " pos",
  "2005": " my",
  "2006": " mill",
  "2007": " mer",
  "2008": " men",
  "2009": " kind",
  "2010": " hur",
  "2011": " fle",
  "2012": " earth",
  "2013": " cop",
  "2014": " cer",
  "2015": " barrel",
  "2016": " bubb",
  "2017": " away",
  "2018": " You",
  "2019": " We",
  "2020": " Tucky",
  "2021": " Tu",
  "2022": " Spl",
  "2023": " Rad",
  "2024": " Pep",
  "2025": " Or",
  "2026": " Mod",
  "2027": " Jay",
  "2028": " Gret",
  "2029": " Ele",
  "2030": " Danie",
  "2031": " Cudd",
  "2032": " Con",
  "2033": " Ber",
  "2034": " All",
  "2035": "        ",
  "2036": " organ",
  "2037": " ey",
  "2038": " 3",
  "2039": "yla",
  "2040": "urpris",
  "2041": "umped",
  "2042": "ulls",
  "2043": "ula",
  "2044": "ship",
  "2045": "se",
  "2046": "rizz",
  "2047": "rud",
  "2048": "polog",
  "2049": "ounds",
  "2050": "orky",
  "2051": "ords",
  "2052": "ories",
  "2053": "opher",
  "2054": "oph",
  "2055": "oops",
  "2056": "oni",
  "2057": "oman",
  "2058": "odie",
  "2059": "lings",
  "2060": "kins",
  "2061": "joy",
  "2062": "ivia",
  "2063": "ived",
  "2064": "iser",
  "2065": "inoc",
  "2066": "ilt",
  "2067": "iggle",
  "2068": "ific",
  "2069": "ices",
  "2070": "ffee",
  "2071": "evin",
  "2072": "etting",
  "2073": "ested",
  "2074": "esp",
  "2075": "esh",
  "2076": "ept",
  "2077": "ends",
  "2078": "emy",
  "2079": "elyn",
  "2080": "eeee",
  "2081": "do",
  "2082": "chor",
  "2083": "case",
  "2084": "bing",
  "2085": "aves",
  "2086": "aughter",
  "2087": "ato",
  "2088": "aste",
  "2089": "asher",
  "2090": "alt",
  "2091": "Squ",
  "2092": "Luc",
  "2093": "Hel",
  "2094": " warm",
  "2095": " van",
  "2096": " thank",
  "2097": " sweet",
  "2098": " surf",
  "2099": " soft",
  "2100": " sharp",
  "2101": " scar",
  "2102": " pres",
  "2103": " pract",
  "2104": " pie",
  "2105": " pat",
  "2106": " pain",
  "2107": " mouse",
  "2108": " mel",
  "2109": " loved",
  "2110": " jok",
  "2111": " hops",
  "2112": " happ",
  "2113": " guppy",
  "2114": " fox",
  "2115": " fav",
  "2116": " eng",
  "2117": " dent",
  "2118": " creat",
  "2119": " cook",
  "2120": " blue",
  "2121": " buck",
  "2122": " box",
  "2123": " best",
  "2124": " Woo",
  "2125": " Tal",
  "2126": " Spinny",
  "2127": " Scr",
  "2128": " Sus",
  "2129": " Sand",
  "2130": " Rock",
  "2131": " Pipo",
  "2132": " Past",
  "2133": " On",
  "2134": " Nan",
  "2135": " Log",
  "2136": " Josh",
  "2137": " Jos",
  "2138": " Jess",
  "2139": " Jeff",
  "2140": " Grow",
  "2141": " Finn",
  "2142": " Fee",
  "2143": " Bro",
  "2144": " Bill",
  "2145": " Beth",
  "2146": " App",
  "2147": " ann",
  "2148": "yth",
  "2149": "yah",
  "2150": "ww",
  "2151": "ustr",
  "2152": "urch",
  "2153": "umbers",
  "2154": "ume",
  "2155": "uits",
  "2156": "uitar",
  "2157": "uter",
  "2158": "ued",
  "2159": "tock",
  "2160": "sters",
  "2161": "sw",
  "2162": "roy",
  "2163": "ridge",
  "2164": "rim",
  "2165": "oura",
  "2166": "otter",
  "2167": "oses",
  "2168": "orns",
  "2169": "orge",
  "2170": "oolie",
  "2171": "oodle",
  "2172": "ooper",
  "2173": "ooey",
  "2174": "older",
  "2175": "nuts",
  "2176": "mmmm",
  "2177": "mar",
  "2178": "lect",
  "2179": "iza",
  "2180": "ishes",
  "2181": "inal",
  "2182": "imes",
  "2183": "illed",
  "2184": "ights",
  "2185": "ige",
  "2186": "ident",
  "2187": "ictionary",
  "2188": "icking",
  "2189": "icop",
  "2190": "ico",
  "2191": "ibi",
  "2192": "htray",
  "2193": "ham",
  "2194": "ething",
  "2195": "essa",
  "2196": "erer",
  "2197": "erer",
  "2198": "erer",
  "2199": "erer",
  "2200": "erer",
  "2201": "erer",
  "2202": "erer",
  "2203": "erer",
  "2204": "erer",
  "2205": "erer",
  "2206": "erer",
  "2207": "erer",
  "2208": "erer",
  "2209": "erer",
  "2210": "erer",
  "2211": "erer",
  "2212": "erer",
  "2213": "erer",
  "2214": "erer",
  "2215": "erer",
  "2216": "erer",
  "2217": "erer",
  "2218": "erer",
  "2219": "erer",
  "2220": "erer",
  "2221": "erer",
  "2222": "erer",
  "2223": "erer",
  "2224": "erer",
  "2225": "erer",
  "2226": "erer",
  "2227": "erer",
  "2228": "erer",
  "2229": "erer",
  "2230": "erer",
  "2231": "erer",
  "2232": "erer",
  "2233": "erer",
  "2234": "erer",
  "2235": "erer",
  "2236": "erer",
  "2237": "erer",
  "2238": "erer",
  "2239": "erer",
  "2240": "erer",
  "2241": "erer",
  "2242": "erer",
  "2243": "erer",
  "2244": "erer",
  "2245": "erer",
  "2246": "erer",
  "2247": "erer",
  "2248": "erer",
  "2249": "erer",
  "2250": "erer",
  "2251": "erer",
  "2252": "erer",
  "2253": "erer",
  "2254": "erer",
  "2255": "erer",
  "2256": "erer",
  "2257": "erer",
  "2258": "erer",
  "2259": "erer",
  "2260": "erer",
  "2261": "erer",
  "2262": "erer",
  "2263": "erer",
  "2264": "erer",
  "2265": "erer",
  "2266": "erer",
  "2267": "erer",
  "2268": "erer",
  "2269": "erer",
  "2270": "erer",
  "2271": "erer",
  "2272": "erer",
  "2273": "erer",
  "2274": "erer",
  "2275": "erer",
  "2276": "erer",
  "2277": "erer",
  "2278": "erer",
  "2279": "erer",
  "2280": "erer",
  "2281": "erer",
  "2282": "erer",
  "2283": "erer",
  "2284": "erer",
  "2285": "erer",
  "2286": "erer",
  "2287": "erer",
  "2288": "erer",
  "2289": "erer",
  "2290": "erer",
  "2291": "erer",
  "2292": "erer",
  "2293": "erer",
  "2294": "erer",
  "2295": "erer",
  "2296": "erer",
  "2297": "erer",
  "2298": "erer",
  "2299": "erer",
  "2300": "erer",
  "2301": "erer",
  "2302": "erer",
  "2303": "erer",
  "2304": "erer",
  "2305": "erer",
  "2306": "erer",
  "2307": "erer",
  "2308": "erer",
  "2309": "erer",
  "2310": "erer",
  "2311": "erer",
  "2312": "erer",
  "2313": "erer",
  "2314": "erer",
  "2315": "erer",
  "2316": "erer",
  "2317": "erer",
  "2318": "erer",
  "2319": "erer",
  "2320": "erer",
  "2321": "erer",
  "2322": "erer",
  "2323": "erer",
  "2324": "erer",
  "2325": "erer",
  "2326": "erer",
  "2327": "erer",
  "2328": "erer",
  "2329": "erer",
  "2330": "erer",
  "2331": "erer",
  "2332": "erer",
  "2333": "erer",
  "2334": "erer",
  "2335": "erer",
  "2336": "erer",
  "2337": "erer",
  "2338": "erer",
  "2339": "erer",
  "2340": "erer",
  "2341": "erer",
  "2342": "erer",
  "2343": "erer",
  "2344": "erer",
  "2345": "erer",
  "2346": "erer",
  "2347": "erer",
  "2348": "erer",
  "2349": "erer",
  "2350": "erer",
  "2351": "erer",
  "2352": "erer",
  "2353": "erer",
  "2354": "erer",
  "2355": "erer",
  "2356": "erer",
  "2357": "erer",
  "2358": "erer",
  "2359": "erer",
  "2360": "erer",
  "2361": "erer",
  "2362": "erer",
  "2363": "erer",
  "2364": "erer",
  "2365": "erer",
  "2366": "erer",
  "2367": "erer",
  "2368": "erer",
  "2369": "erer",
  "2370": "erer",
  "2371": "erer",
  "2372": "erer",
  "2373": "erer",
  "2374": "erer",
  "2375": "erer",
  "2376": "erer",
  "2377": "erer",
  "2378": "erer",
  "2379": "erer",
  "2380": "erer",
  "2381": "erer",
  "2382": "erer",
  "2383": "erer",
  "2384": "erer",
  "2385": "erer",
  "2386": "erer",
  "2387": "erer",
  "2388": "erer",
  "2389": "erer",
  "2390": "erer",
  "2391": "erer",
  "2392": "erer",
  "2393": "erer",
  "2394": "erer",
  "2395": "erer",
  "2396": "erer",
  "2397": "erer",
  "2398": "erer",
  "2399": "erer",
  "2400": "erer",
  "2401": "erer",
  "2402": "erer",
  "2403": "erer",
  "2404": "erer",
  "2405": "erer",
  "2406": "erer",
  "2407": "erer",
  "2408": "erer",
  "2409": "erer",
  "2410": "erer",
  "2411": "erer",
  "2412": "erer",
  "2413": "erer",
  "2414": "erer",
  "2415": "erer",
  "2416": "erer",
  "2417": "erer",
  "2418": "erer",
  "2419": "erer",
  "2420": "erer",
  "2421": "erer",
  "2422": "erer",
  "2423": "erer",
  "2424": "erer",
  "2425": "erer",
  "2426": "erer",
  "2427": "erer",
  "2428": "erer",
  "2429": "erer",
  "2430": "erer",
  "2431": "erer",
  "2432": "erer",
  "2433": "erer",
  "2434": "erer",
  "2435": "erer",
  "2436": "erer",
  "2437": "erer",
  "2438": "erer",
  "2439": "erer",
  "2440": "erer",
  "2441": "erer",
  "2442": "erer",
  "2443": "erer",
  "2444": "erer",
  "2445": "erer",
  "2446": "erer",
  "2447": "erer",
  "2448": "erer",
  "2449": "erer",
  "2450": "erer",
  "2451": "erer",
  "2452": "erer",
  "2453": "erer",
  "2454": "erer",
  "2455": "erer",
  "2456": "erer",
  "2457": "erer",
  "2458": "erer",
  "2459": "erer",
  "2460": "erer",
  "2461": "erer",
  "2462": "erer",
  "2463": "erer",
  "2464": "erer",
  "2465": "erer",
  "2466": "erer",
  "2467": "erer",
  "2468": "erer",
  "2469": "erer",
  "2470": "erer",
  "2471": "erer",
  "2472": "erer",
  "2473": "erer",
  "2474": "erer",
  "2475": "erer",
  "2476": "erer",
  "2477": "erer",
  "2478": "erer",
  "2479": "erer",
  "2480": "erer",
  "2481": "erer",
  "2482": "erer",
  "2483": "erer",
  "2484": "erer",
  "2485": "erer",
  "2486": "erer",
  "2487": "erer",
  "2488": "erer",
  "2489": "erer",
  "2490": "erer",
  "2491": "erer",
  "2492": "erer",
  "2493": "erer",
  "2494": "erer",
  "2495": "erer",
  "2496": "erer",
  "2497": "erer",
  "2498": "erer",
  "2499": "erer",
  "2500": "erer",
  "2501": "erer",
  "2502": "erer",
  "2503": "erer",
  "2504": "erer",
  "2505": "erer",
  "2506": "erer",
  "2507": "erer",
  "2508": "erer",
  "2509": "erer",
  "2510": "erer",
  "2511": "erer",
  "2512": "erer",
  "2513": "erer",
  "2514": "erer",
  "2515": "erer",
  "2516": "erer",
  "2517": "erer",
  "2518": "erer",
  "2519": "erer",
  "2520": "erer",
  "2521": "erer",
  "2522": "erer",
  "2523": "erer",
  "2524": "erer",
  "2525": "erer",
  "2526": "erer",
  "2527": "erer",
  "2528": "erer",
  "2529": "erer",
  "2530": "erer",
  "2531": "erer",
  "2532": "erer",
  "2533": "erer",
  "2534": "erer",
  "2535": "erer",
  "2536": "erer",
  "2537": "erer",
  "2538": "erer",
  "2539": "erer",
  "2540": "erer",
  "2541": "erer",
  "2542": "erer",
  "2543": "erer",
  "2544": "erer",
  "2545": "erer",
  "2546": "erer",
  "2547": "erer",
  "2548": "erer",
  "2549": "erer",
  "2550": "erer",
  "2551": "erer",
  "2552": "erer",
  "2553": "erer",
  "2554": "erer",
  "2555": "erer",
  "2556": "erer",
  "2557": "erer",
  "2558": "erer",
  "2559": "erer",
  "2560": "erer",
  "2561": "erer",
  "2562": "erer",
  "2563": "erer",
  "2564": "erer",
  "2565": "erer",
  "2566": "erer",
  "2567": "erer",
  "2568": "erer",
  "2569": "erer",
  "2570": "erer",
  "2571": "erer",
  "2572": "erer",
  "2573": "erer",
  "2574": "erer",
  "2575": "erer",
  "2576": "erer",
  "2577": "erer",
  "2578": "erer",
  "2579": "erer",
  "2580": "erer",
  "2581": "erer",
  "2582": "erer",
  "2583": "erer",
  "2584": "erer",
  "2585": "erer",
  "2586": "erer",
  "2587": "erer",
  "2588": "erer",
  "2589": "erer",
  "2590": "erer",
  "2591": "erer",
  "2592": "erer",
  "2593": "erer",
  "2594": "erer",
  "2595": "erer",
  "2596": "erer",
  "2597": "erer",
  "2598": "erer",
  "2599": "erer",
  "2600": "erer",
  "2601": "erer",
  "2602": "erer",
  "2603": "erer",
  "2604": "erer",
  "2605": "erer",
  "2606": "erer",
  "2607": "erer",
  "2608": "erer",
  "2609": "erer",
  "2610": "erer",
  "2611": "erer",
  "2612": "erer",
  "2613": "erer",
  "2614": "erer",
  "2615": "erer",
  "2616": "erer",
  "2617": "erer",
  "2618": "erer",
  "2619": "erer",
  "2620": "erer",
  "2621": "erer",
  "2622": "erer",
  "2623": "erer",
  "2624": "erer",
  "2625": "erer",
  "2626": "erer",
  "2627": "erer",
  "2628": "erer",
  "2629": "erer",
  "2630": "erer",
  "2631": "erer",
  "2632": "erer",
  "2633": "erer",
  "2634": "erer",
  "2635": "erer",
  "2636": "erer",
  "2637": "erer",
  "2638": "erer",
  "2639": "erer",
  "2640": "erer",
  "2641": "erer",
  "2642": "erer",
  "2643": "erer",
  "2644": "erer",
  "2645": "erer",
  "2646": "erer",
  "2647": "erer",
  "2648": "erer",
  "2649": "erer",
  "2650": "erer",
  "2651": "erer",
  "2652": "erer",
  "2653": "erer",
  "2654": "erer",
  "2655": "erer",
  "2656": "erer",
  "2657": "erer",
  "2658": "erer",
  "2659": "erer",
  "2660": "erer",
  "2661": "erer",
  "2662": "erer",
  "2663": "erer",
  "2664": "erer",
  "2665": "erer",
  "2666": "erer",
  "2667": "erer",
  "2668": "erer",
  "2669": "erer",
  "2670": "erer",
  "2671": "erer",
  "2672": "erer",
  "2673": "erer",
  "2674": "erer",
  "2675": "erer",
  "2676": "erer",
  "2677": "erer",
  "2678": "erer",
  "2679": "erer",
  "2680": "erer",
  "2681": "erer",
  "2682": "erer",
  "2683": "erer",
  "2684": "erer",
  "2685": "erer",
  "2686": "erer",
  "2687": "erer",
  "2688": "erer",
  "2689": "erer",
  "2690": "erer",
  "2691": "erer",
  "2692": "erer",
  "2693": "erer",
  "2694": "erer",
  "2695": "erer",
  "2696": "erer",
  "2697": "erer",
  "2698": "erer",
  "2699": "erer",
  "2700": "erer",
  "2701": "erer",
  "2702": "erer",
  "2703": "erer",
  "2704": "erer",
  "2705": "erer",
  "2706": "erer",
  "2707": "erer",
  "2708": "erer",
  "2709": "erer",
  "2710": "erer",
  "2711": "erer",
  "2712": "erer",
  "2713": "erer",
  "2714": "erer",
  "2715": "erer",
  "2716": "erer",
  "2717": "erer",
  "2718": "erer",
  "2719": "erer",
  "2720": "erer",
  "2721": "erer",
  "2722": "erer",
  "2723": "erer",
  "2724": "erer",
  "2725": "erer",
  "2726": "erer",
  "2727": "erer",
  "2728": "erer",
  "2729": "erer",
  "2730": "erer",
  "2731": "erer",
  "2732": "erer",
  "2733": "erer",
  "2734": "erer",
  "2735": "erer",
  "2736": "erer",
  "2737": "erer",
  "2738": "erer",
  "2739": "erer",
  "2740": "erer",
  "2741": "erer",
  "2742": "erer",
  "2743": "erer",
  "2744": "erer",
  "2745": "erer",
  "2746": "erer",
  "2747": "erer",
  "2748": "erer",
  "2749": "erer",
  "2750": "erer",
  "2751": "erer",
  "2752": "erer",
  "2753": "erer",
  "2754": "erer",
  "2755": "erer",
  "2756": "erer",
  "2757": "erer",
  "2758": "erer",
  "2759": "erer",
  "2760": "erer",
  "2761": "erer",
  "2762": "erer",
  "2763": "erer",
  "2764": "erer",
  "2765": "erer",
  "2766": "erer",
  "2767": "erer",
  "2768": "erer",
  "2769": "erer",
  "2770": "erer",
  "2771": "erer",
  "2772": "erer",
  "2773": "erer",
  "2774": "erer",
  "2775": "erer",
  "2776": "erer",
  "2777": "erer",
  "2778": "erer",
  "2779": "erer",
  "2780": "erer",
  "2781": "erer",
  "2782": "erer",
  "2783": "erer",
  "2784": "erer",
  "2785": "erer",
  "2786": "erer",
  "2787": "erer",
  "2788": "erer",
  "2789": "erer",
  "2790": "erer",
  "2791": "erer",
  "2792": "erer",
  "2793": "erer",
  "2794": "erer",
  "2795": "erer",
  "2796": "erer",
  "2797": "erer",
  "2798": "erer",
  "2799": "erer",
  "2800": "erer",
  "2801": "erer",
  "2802": "erer",
  "2803": "erer",
  "2804": "erer",
  "2805": "erer",
  "2806": "erer",
  "2807": "erer",
  "2808": "erer",
  "2809": "erer",
  "2810": "erer",
  "2811": "erer",
  "2812": "erer",
  "2813": "erer",
  "2814": "erer",
  "2815": "erer",
  "2816": "erer",
  "2817": "erer",
  "2818": "erer",
  "2819": "erer",
  "2820": "erer",
  "2821": "erer",
  "2822": "erer",
  "2823": "erer",
  "2824": "erer",
  "2825": "erer",
  "2826": "erer",
  "2827": "erer",
  "2828": "erer",
  "2829": "erer",
  "2830": "erer",
  "2831": "erer",
  "2832": "erer",
  "2833": "erer",
  "2834": "erer",
  "2835": "erer",
  "2836": "erer",
  "2837": "erer",
  "2838": "erer",
  "2839": "erer",
  "2840": "erer",
  "2841": "erer",
  "2842": "erer",
  "2843": "erer",
  "2844": "erer",
  "2845": "erer",
  "2846": "erer",
  "2847": "erer",
  "2848": "erer",
  "2849": "erer",
  "2850": "erer",
  "2851": "erer",
  "2852": "erer",
  "2853": "erer",
  "2854": "erer",
  "2855": "erer",
  "2856": "erer",
  "2857": "erer",
  "2858": "erer",
  "2859": "erer",
  "2860": "erer",
  "2861": "erer",
  "2862": "erer",
  "2863": "erer",
  "2864": "erer",
  "2865": "erer",
  "2866": "erer",
  "2867": "erer",
  "2868": "erer",
  "2869": "erer",
  "2870": "erer",
  "2871": "erer",
  "2872": "erer",
  "2873": "erer",
  "2874": "erer",
  "2875": "erer",
  "2876": "erer",
  "2877": "erer",
  "2878": "erer",
  "2879": "erer",
  "2880": "erer",
  "2881": "erer",
  "2882": "erer",
  "2883": "erer",
  "2884": "erer",
  "2885": "erer",
  "2886": "erer",
  "2887": "erer",
  "2888": "erer",
  "2889": "erer",
  "2890": "erer",
  "2891": "erer",
  "2892": "erer",
  "2893": "erer",
  "2894": "erer",
  "2895": "erer",
  "2896": "erer",
  "2897": "erer",
  "2898": "erer",
  "2899": "erer",
  "2900": "erer",
  "2901": "erer",
  "2902": "erer",
  "2903": "erer",
  "2904": "erer",
  "2905": "erer",
  "2906": "erer",
  "2907": "erer",
  "2908": "erer",
  "2909": "erer",
  "2910": "erer",
  "2911": "erer",
  "2912": "erer",
  "2913": "erer",
  "2914": "erer",
  "2915": "erer",
  "2916": "erer",
  "2917": "erer",
  "2918": "erer",
  "2919": "erer",
  "2920": "erer",
  "2921": "erer",
  "2922": "erer",
  "2923": "erer",
  "2924": "erer",
  "2925": "erer",
  "2926": "erer",
  "2927": "erer",
  "2928": "erer",
  "2929": "erer",
  "2930": "erer",
  "2931": "erer",
  "2932": "erer",
  "2933": "erer",
  "2934": "erer",
  "2935": "erer",
  "2936": "erer",
  "2937": "erer",
  "2938": "erer",
  "2939": "erer",
  "2940": "erer",
  "2941": "erer",
  "2942": "erer",
  "2943": "erer",
  "2944": "erer",
  "2945": "erer",
  "2946": "erer",
  "2947": "erer",
  "2948": "erer",
  "2949": "erer",
  "2950": "erer",
  "2951": "erer",
  "2952": "erer",
  "2953": "erer",
  "2954": "erer",
  "2955": "erer",
  "2956": "erer",
  "2957": "erer",
  "2958": "erer",
  "2959": "erer",
  "2960": "erer",
  "2961": "erer",
  "2962": "erer",
  "2963": "erer",
  "2964": "erer",
  "2965": "erer",
  "2966": "erer",
  "2967": "erer",
  "2968": "erer",
  "2969": "erer",
  "2970": "erer",
  "2971": "erer",
  "2972": "erer",
  "2973": "erer",
  "2974": "erer",
  "2975": "erer",
  "2976": "erer",
  "2977": "erer",
  "2978": "erer",
  "2979": "erer",
  "2980": "erer",
  "2981": "erer",
  "2982": "erer",
  "2983": "erer",
  "2984": "erer",
  "2985": "erer",
  "2986": "erer",
  "2987": "erer",
  "2988": "erer",
  "2989": "erer",
  "2990": "erer",
  "2991": "erer",
  "2992": "erer",
  "2993": "erer",
  "2994": "erer",
  "2995": "erer",
  "2996": "erer",
  "2997": "erer",
  "2998": "erer",
  "2999": "erer",
  "3000": "erer",
  "3001": "erer",
  "3002": "erer",
  "3003": "erer",
  "3004": "erer",
  "3005": "erer",
  "3006": "erer",
  "3007": "erer",
  "3008": "erer",
  "3009": "erer",
  "3010": "erer",
  "3011": "erer",
  "3012": "erer",
  "3013": "erer",
  "3014": "erer",
  "3015": "erer",
  "3016": "erer",
  "3017": "erer",
  "3018": "erer",
  "3019": "erer",
  "3020": "erer",
  "3021": "erer",
  "3022": "erer",
  "3023": "erer",
  "3024": "erer",
  "3025": "erer",
  "3026": "erer",
  "3027": "erer",
  "3028": "erer",
  "3029": "erer",
  "3030": "erer",
  "3031": "erer",
  "3032": "erer",
  "3033": "erer",
  "3034": "erer",
  "3035": "erer",
  "3036": "erer",
  "3037": "erer",
  "3038": "erer",
  "3039": "erer",
  "3040": "erer",
  "3041": "erer",
  "3042": "erer",
  "3043": "erer",
  "3044": "erer",
  "3045": "erer",
  "3046": "erer",
  "3047": "erer",
  "3048": "erer",
  "3049": "erer",
  "3050": "erer",
  "3051": "erer",
  "3052": "erer",
  "3053": "erer",
  "3054": "erer",
  "3055": "erer",
  "3056": "erer",
  "3057": "erer",
  "3058": "erer",
  "3059": "erer",
  "3060": "erer",
  "3061": "erer",
  "3062": "erer",
  "3063": "erer",
  "3064": "erer",
  "3065": "erer",
  "3066": "erer",
  "3067": "erer",
  "3068": "erer",
  "3069": "erer",
  "3070": "erer",
  "3071": "erer",
  "3072": "erer",
  "3073": "erer",
  "3074": "erer",
  "3075": "erer",
  "3076": "erer",
  "3077": "erer",
  "3078": "erer",
  "3079": "erer",
  "3080": "erer",
  "3081": "erer",
  "3082": "erer",
  "3083": "erer",
  "3084": "erer",
  "3085": "erer",
  "3086": "erer",
  "3087": "erer",
  "3088": "erer",
  "3089": "erer",
  "3090": "erer",
  "3091": "erer",
  "3092": "erer",
  "3093": "erer",
  "3094": "erer",
  "3095": "erer",
  "3096": "erer",
  "3097": "erer",
  "3098": "erer",
  "3099": "erer",
  "3100": "erer",
  "3101": "erer",
  "3102": "erer",
  "3103": "erer",
  "3104": "erer",
  "3105": "erer",
  "3106": "erer",
  "3107": "erer",
  "3108": "erer",
  "3109": "erer",
  "3110": "erer",
  "3111": "erer",
  "3112": "erer",
  "3113": "erer",
  "3114": "erer",
  "3115": "erer",
  "3116": "erer",
  "3117": "erer",
  "3118": "erer",
  "3119": "erer",
  "3120": "erer",
  "3121": "erer",
  "3122": "erer",
  "3123": "erer",
  "3124": "erer",
  "3125": "erer",
  "3126": "erer",
  "3127": "erer",
  "3128": "erer",
  "3129": "erer",
  "3130": "erer",
  "3131": "erer",
  "3132": "erer",
  "3133": "erer",
  "3134": "erer",
  "3135": "erer",
  "3136": "erer",
  "3137": "erer",
  "3138": "erer",
  "3139": "erer",
  "3140": "erer",
  "3141": "erer",
  "3142": "erer",
  "3143": "erer",
  "3144": "erer",
  "3145": "erer",
  "3146": "erer",
  "3147": "erer",
  "3148": "erer",
  "3149": "erer",
  "3150": "erer",
  "3151": "erer",
  "3152": "erer",
  "3153": "erer",
  "3154": "erer",
  "3155": "erer",
  "3156": "erer",
  "3157": "erer",
  "3158": "erer",
  "3159": "erer",
  "3160": "erer",
  "3161": "erer",
  "3162": "erer",
  "3163": "erer",
  "3164": "erer",
  "3165": "erer",
  "3166": "erer",
  "3167": "erer",
  "3168": "erer",
  "3169": "erer",
  "3170": "erer",
  "3171": "erer",
  "3172": "erer",
  "3173": "erer",
  "3174": "erer",
  "3175": "erer",
  "3176": "erer",
  "3177": "erer",
  "3178": "erer",
  "3179": "erer",
  "3180": "erer",
  "3181": "erer",
  "3182": "erer",
  "3183": "erer",
  "3184": "erer",
  "3185": "erer",
  "3186": "erer",
  "3187": "erer",
  "3188": "erer",
  "3189": "erer",
  "3190": "erer",
  "3191": "erer",
  "3192": "erer",
  "3193": "erer",
  "3194": "erer",
  "3195": "erer",
  "3196": "erer",
  "3197": "erer",
  "3198": "erer",
  "3199": "erer",
  "3200": "erer",
  "3201": "erer",
  "3202": "erer",
  "3203": "erer",
  "3204": "erer",
  "3205": "erer",
  "3206": "erer",
  "3207": "erer",
  "3208": "erer",
  "3209": "erer",
  "3210": "erer",
  "3211": "erer",
  "3212": "erer",
  "3213": "erer",
  "3214": "erer",
  "3215": "erer",
  "3216": "erer",
  "3217": "erer",
  "3218": "erer",
  "3219": "erer",
  "3220": "erer",
  "3221": "erer",
  "3222": "erer",
  "3223": "erer",
  "3224": "erer",
  "3225": "erer",
  "3226": "erer",
  "3227": "erer",
  "3228": "erer",
  "3229": "erer",
  "3230": "erer",
  "3231": "erer",
  "3232": "erer",
  "3233": "erer",
  "3234": "erer",
  "3235": "erer",
  "3236": "erer",
  "3237": "erer",
  "3238": "erer",
  "3239": "erer",
  "3240": "erer",
  "3241": "erer",
  "3242": "erer",
  "3243": "erer",
  "3244": "erer",
  "3245": "erer",
  "3246": "erer",
  "3247": "erer",
  "3248": "erer",
  "3249": "erer",
  "3250": "erer",
  "3251": "erer",
  "3252": "erer",
  "3253": "erer",
  "3254": "erer",
  "3255": "erer",
  "3256": "erer",
  "3257": "erer",
  "3258": "erer",
  "3259": "erer",
  "3260": "erer",
  "3261": "erer",
  "3262": "erer",
  "3263": "erer",
  "3264": "erer",
  "3265": "erer",
  "3266": "erer",
  "3267": "erer",
  "3268": "erer",
  "3269": "erer",
  "3270": "erer",
  "3271": "erer",
  "3272": "erer",
  "3273": "erer",
  "3274": "erer",
  "3275": "erer",
  "3276": "erer",
  "3277": "erer",
  "3278": "erer",
  "3279": "erer",
  "3280": "erer",
  "3281": "erer",
  "3282": "erer",
  "3283": "erer",
  "3284": "erer",
  "3285": "erer",
  "3286": "erer",
  "3287": "erer",
  "3288": "erer",
  "3289": "erer",
  "3290": "erer",
  "3291": "erer",
  "3292": "erer",
  "3293": "erer",
  "3294": "erer",
  "3295": "erer",
  "3296": "erer",
  "3297": "erer",
  "3298": "erer",
  "3299": "erer",
  "3300": "erer",
  "3301": "erer",
  "3302": "erer",
  "3303": "erer",
  "3304": "erer",
  "3305": "erer",
  "3306": "erer",
  "3307": "erer",
  "3308": "erer",
  "3309": "erer",
  "3310": "erer",
  "3311": "erer",
  "3312": "erer",
  "3313": "erer",
  "3314": "erer",
  "3315": "erer",
  "3316": "erer",
  "3317": "erer",
  "3318": "erer",
  "3319": "erer",
  "3320": "erer",
  "3321": "erer",
  "3322": "erer",
  "3323": "erer",
  "3324": "erer",
  "3325": "erer",
  "3326": "erer",
  "3327": "erer",
  "3328": "erer",
  "3329": "erer",
  "3330": "erer",
  "3331": "erer",
  "3332": "erer",
  "3333": "erer",
  "3334": "erer",
  "3335": "erer",
  "3336": "erer",
  "3337": "erer",
  "3338": "erer",
  "3339": "erer",
  "3340": "erer",
  "3341": "erer",
  "3342": "erer",
  "3343": "erer",
  "3344": "erer",
  "3345": "erer",
  "3346": "erer",
  "3347": "erer",
  "3348": "erer",
  "3349": "erer",
  "3350": "erer",
  "3351": "erer",
  "3352": "erer",
  "3353": "erer",
  "3354": "erer",
  "3355": "erer",
  "3356": "erer",
  "3357": "erer",
  "3358": "erer",
  "3359": "erer",
  "3360": "erer",
  "3361": "erer",
  "3362": "erer",
  "3363": "erer",
  "3364": "erer",
  "3365": "erer",
  "3366": "erer",
  "3367": "erer",
  "3368": "erer",
  "3369": "erer",
  "3370": "erer",
  "3371": "erer",
  "3372": "erer",
  "3373": "erer",
  "3374": "erer",
  "3375": "erer",
  "3376": "erer",
  "3377": "erer",
  "3378": "erer",
  "3379": "erer",
  "3380": "erer",
  "3381": "erer",
  "3382": "erer",
  "3383": "erer",
  "3384": "erer",
  "3385": "erer",
  "3386": "erer",
  "3387": "erer",
  "3388": "erer",
  "3389": "erer",
  "3390": "erer",
  "3391": "erer",
  "3392": "erer",
  "3393": "erer",
  "3394": "erer",
  "3395": "erer",
  "3396": "erer",
  "3397": "erer",
  "3398": "erer",
  "3399": "erer",
  "3400": "erer",
  "3401": "erer",
  "3402": "erer",
  "3403": "erer",
  "3404": "erer",
  "3405": "erer",
  "3406": "erer",
  "3407": "erer",
  "3408": "erer",
  "3409": "erer",
  "3410": "erer",
  "3411": "erer",
  "3412": "erer",
  "3413": "erer",
  "3414": "erer",
  "3415": "erer",
  "3416": "erer",
  "3417": "erer",
  "3418": "erer",
  "3419": "erer",
  "3420": "erer",
  "3421": "erer",
  "3422": "erer",
  "3423": "erer",
  "3424": "erer",
  "3425": "erer",
  "3426": "erer",
  "3427": "erer",
  "3428": "erer",
  "3429": "erer",
  "3430": "erer",
  "3431": "erer",
  "3432": "erer",
  "3433": "erer",
  "3434": "erer",
  "3435": "erer",
  "3436": "erer",
  "3437": "erer",
  "3438": "erer",
  "3439": "erer",
  "3440": "erer",
  "3441": "erer",
  "3442": "erer",
  "3443": "erer",
  "3444": "erer",
  "3445": "erer",
  "3446": "erer",
  "3447": "erer",
  "3448": "erer",
  "3449": "erer",
  "3450": "erer",
  "3451": "erer",
  "3452": "erer",
  "3453": "erer",
  "3454": "erer",
  "3455": "erer",
  "3456": "erer",
  "3457": "erer",
  "3458": "erer",
  "3459": "erer",
  "3460": "erer",
  "3461": "erer",
  "3462": "erer",
  "3463": "erer",
  "3464": "erer",
  "3465": "erer",
  "3466": "erer",
  "3467": "erer",
  "3468": "erer",
  "3469": "erer",
  "3470": "erer",
  "3471": "erer",
  "3472": "erer",
  "3473": "erer",
  "3474": "erer",
  "3475": "erer",
  "3476": "erer",
  "3477": "erer",
  "3478": "erer",
  "3479": "erer",
  "3480": "erer",
  "3481": "erer",
  "3482": "erer",
  "3483": "erer",
  "3484": "erer",
  "3485": "erer",
  "3486": "erer",
  "3487": "erer",
  "3488": "erer",
  "3489": "erer",
  "3490": "erer",
  "3491": "erer",
  "3492": "erer",
  "3493": "erer",
  "3494": "erer",
  "3495": "erer",
  "3496": "erer",
  "3497": "erer",
  "3498": "erer",
  "3499": "erer",
  "3500": "erer",
  "3501": "erer",
  "3502": "erer",
  "3503": "erer",
  "3504": "erer",
  "3505": "erer",
  "3506": "erer",
  "3507": "erer",
  "3508": "erer",
  "3509": "erer",
  "3510": "erer",
  "3511": "erer",
  "3512": "erer",
  "3513": "erer",
  "3514": "erer",
  "3515": "erer",
  "3516": "erer",
  "3517": "erer",
  "3518": "erer",
  "3519": "erer",
  "3520": "erer",
  "3521": "erer",
  "3522": "erer",
  "3523": "erer",
  "3524": "erer",
  "3525": "erer",
  "3526": "erer",
  "3527": "erer",
  "3528": "erer",
  "3529": "erer",
  "3530": "erer",
  "3531": "erer",
  "3532": "erer",
  "3533": "erer",
  "3534": "erer",
  "3535": "erer",
  "3536": "erer",
  "3537": "erer",
  "3538": "erer",
  "3539": "erer",
  "3540": "erer",
  "3541": "erer",
  "3542": "erer",
  "3543": "erer",
  "3544": "erer",
  "3545": "erer",
  "3546": "erer",
  "3547": "erer",
  "3548": "erer",
  "3549": "erer",
  "3550": "erer",
  "3551": "erer",
  "3552": "erer",
  "3553": "erer",
  "3554": "erer",
  "3555": "erer",
  "3556": "erer",
  "3557": "erer",
  "3558": "erer",
  "3559": "erer",
  "3560": "erer",
  "3561": "erer",
  "3562": "erer",
  "3563": "erer",
  "3564": "erer",
  "3565": "erer",
  "3566": "erer",
  "3567": "erer",
  "3568": "erer",
  "3569": "erer",
  "3570": "erer",
  "3571": "erer",
  "3572": "erer",
  "3573": "erer",
  "3574": "erer",
  "3575": "erer",
  "3576": "erer",
  "3577": "erer",
  "3578": "erer",
  "3579": "erer",
  "3580": "erer",
  "3581": "erer",
  "3582": "erer",
  "3583": "erer",
  "3584": "erer",
  "3585": "erer",
  "3586": "erer",
  "3587": "erer",
  "3588": "erer",
  "3589": "erer",
  "3590": "erer",
  "3591": "erer",
  "3592": "erer",
  "3593": "erer",
  "3594": "erer",
  "3595": "erer",
  "3596": "erer",
  "3597": "erer",
  "3598": "erer",
  "3599": "erer",
  "3600": "erer",
  "3601": "erer",
  "3602": "erer",
  "3603": "erer",
  "3604": "erer",
  "3605": "erer",
  "3606": "erer",
  "3607": "erer",
  "3608": "erer",
  "3609": "erer",
  "3610": "erer",
  "3611": "erer",
  "3612": "erer",
  "3613": "erer",
  "3614": "erer",
  "3615": "erer",
  "3616": "erer",
  "3617": "erer",
  "3618": "erer",
  "3619": "erer",
  "3620": "erer",
  "3621": "erer",
  "3622": "erer",
  "3623": "erer",
  "3624": "erer",
  "3625": "erer",
  "3626": "erer",
  "3627": "erer",
  "3628": "erer",
  "3629": "erer",
  "3630": "erer",
  "3631": "erer",
  "3632": "erer",
  "3633": "erer",
  "3634": "erer",
  "3635": "erer",
  "3636": "erer",
  "3637": "erer",
  "3638": "erer",
  "3639": "erer",
  "3640": "erer",
  "3641": "erer",
  "3642": "erer",
  "3643": "erer",
  "3644": "erer",
  "3645": "erer",
  "3646": "erer",
  "3647": "erer",
  "3648": "erer",
  "3649": "erer",
  "3650": "erer",
  "3651": "erer",
  "3652": "erer",
  "3653": "erer",
  "3654": "erer",
  "3655": "erer",
  "3656": "erer",
  "3657": "erer",
  "3658": "erer",
  "3659": "erer",
  "3660": "erer",
  "3661": "erer",
  "3662": "erer",
  "3663": "erer",
  "3664": "erer",
  "3665": "erer",
  "3666": "erer",
  "3667": "erer",
  "3668": "erer",
  "3669": "erer",
  "3670": "erer",
  "3671": "erer",
  "3672": "erer",
  "3673": "erer",
  "3674": "erer",
  "3675": "erer",
  "3676": "erer",
  "3677": "erer",
  "3678": "erer",
  "3679": "erer",
  "3680": "erer",
  "3681": "erer",
  "3682": "erer",
  "3683": "erer",
  "3684": "erer",
  "3685": "erer",
  "3686": "erer",
  "3687": "erer",
  "3688": "erer",
  "3689": "erer",
  "3690": "erer",
  "3691": "erer",
  "3692": "erer",
  "3693": "erer",
  "3694": "erer",
  "3695": "erer",
  "3696": "erer",
  "3697": "erer",
  "3698": "erer",
  "3699": "erer",
  "3700": "erer",
  "3701": "erer",
  "3702": "erer",
  "3703": "erer",
  "3704": "erer",
  "3705": "erer",
  "3706": "erer",
  "3707": "erer",
  "3708": "erer",
  "3709": "erer",
  "3710": "erer",
  "3711": "erer",
  "3712": "erer",
  "3713": "erer",
  "3714": "erer",
  "3715": "erer",
  "3716": "erer",
  "3717": "erer",
  "3718": "erer",
  "3719": "erer",
  "3720": "erer",
  "3721": "erer",
  "3722": "erer",
  "3723": "erer",
  "3724": "erer",
  "3725": "erer",
  "3726": "erer",
  "3727": "erer",
  "3728": "erer",
  "3729": "erer",
  "3730": "erer",
  "3731": "erer",
  "3732": "erer",
  "3733": "erer",
  "3734": "erer",
  "3735": "erer",
  "3736": "erer",
  "3737": "erer",
  "3738": "erer",
  "3739": "erer",
  "3740": "erer",
  "3741": "erer",
  "3742": "erer",
  "3743": "erer",
  "3744": "erer",
  "3745": "erer",
  "3746": "erer",
  "3747": "erer",
  "3748": "erer",
  "3749": "erer",
  "3750": "erer",
  "3751": "erer",
  "3752": "erer",
  "3753": "erer",
  "3754": "erer",
  "3755": "erer",
  "3756": "erer",
  "3757": "erer",
  "3758": "erer",
  "3759": "erer",
  "3760": "erer",
  "3761": "erer",
  "3762": "erer",
  "3763": "erer",
  "3764": "erer",
  "3765": "erer",
  "3766": "erer",
  "3767": "erer",
  "3768": "erer",
  "3769": "erer",
  "3770": "erer",
  "3771": "erer",
  "3772": "erer",
  "3773": "erer",
  "3774": "erer",
  "3775": "erer",
  "3776": "erer",
  "3777": "erer",
  "3778": "erer",
  "3779": "erer",
  "3780": "erer",
  "3781": "erer",
  "3782": "erer",
  "3783": "erer",
  "3784": "erer",
  "3785": "erer",
  "3786": "erer",
  "3787": "erer",
  "3788": "erer",
  "3789": "erer",
  "3790": "erer",
  "3791": "erer",
  "3792": "erer",
  "3793": "erer",
  "3794": "erer",
  "3795": "erer",
  "3796": "erer",
  "3797": "erer",
  "3798": "erer",
  "3799": "erer",
  "3800": "erer",
  "3801": "erer",
  "3802": "erer",
  "3803": "erer",
  "3804": "erer",
  "3805": "erer",
  "3806": "erer",
  "3807": "erer",
  "3808": "erer",
  "3809": "erer",
  "3810": "erer",
  "3811": "erer",
  "3812": "erer",
  "3813": "erer",
  "3814": "erer",
  "3815": "erer",
  "3816": "erer",
  "3817": "erer",
  "3818": "erer",
  "3819": "erer",
  "3820": "erer",
  "3821": "erer",
  "3822": "erer",
  "3823": "erer",
  "3824": "erer",
  "3825": "erer",
  "3826": "erer",
  "3827": "erer",
  "3828": "erer",
  "3829": "erer",
  "3830": "erer",
  "3831": "erer",
  "3832": "erer",
  "3833": "erer",
  "3834": "erer",
  "3835": "erer",
  "3836": "erer",
  "3837": "erer",
  "3838": "erer",
  "3839": "erer",
  "3840": "erer",
  "3841": "erer",
  "3842": "erer",
  "3843": "erer",
  "3844": "erer",
  "3845": "erer",
  "3846": "erer",
  "3847": "erer",
  "3848": "erer",
  "3849": "erer",
  "3850": "erer",
  "3851": "erer",
  "3852": "erer",
  "3853": "erer",
  "3854": "erer",
  "3855": "erer",
  "3856": "erer",
  "3857": "erer",
  "3858": "erer",
  "3859": "erer",
  "3860": "erer",
  "3861": "erer",
  "3862": "erer",
  "3863": "erer",
  "3864": "erer",
  "3865": "erer",
  "3866": "erer",
  "3867": "erer",
  "3868": "erer",
  "3869": "erer",
  "3870": "erer",
  "3871": "erer",
  "3872": "erer",
  "3873": "erer",
  "3874": "erer",
  "3875": "erer",
  "3876": "erer",
  "3877": "erer",
  "3878": "erer",
  "3879": "erer",
  "3880": "erer",
  "3881": "erer",
  "3882": "erer",
  "3883": "erer",
  "3884": "erer",
  "3885": "erer",
  "3886": "erer",
  "3887": "erer",
  "3888": "erer",
  "3889": "erer",
  "3890": "erer",
  "3891": "erer",
  "3892": "erer",
  "3893": "erer",
  "3894": "erer",
  "3895": "erer",
  "3896": "erer",
  "3897": "erer",
  "3898": "erer",
  "3899": "erer",
  "3900": "erer",
  "3901": "erer",
  "3902": "erer",
  "3903": "erer",
  "3904": "erer",
  "3905": "erer",
  "3906": "erer",
  "3907": "erer",
  "3908": "erer",
  "3909": "erer",
  "3910": "erer",
  "3911": "erer",
  "3912": "erer",
  "3913": "erer",
  "3914": "erer",
  "3915": "erer",
  "3916": "erer",
  "3917": "erer",
  "3918": "erer",
  "3919": "erer",
  "3920": "erer",
  "3921": "erer",
  "3922": "erer",
  "3923": "erer",
  "3924": "erer",
  "3925": "erer",
  "3926": "erer",
  "3927": "erer",
  "3928": "erer",
  "3929": "erer",
  "3930": "erer",
  "3931": "erer",
  "3932": "erer",
  "3933": "erer",
  "3934": "erer",
  "3935": "erer",
  "3936": "erer",
  "3937": "erer",
  "3938": "erer",
  "3939": "erer",
  "3940": "erer",
  "3941": "erer",
  "3942": "erer",
  "3943": "erer",
  "3944": "erer",
  "3945": "erer",
  "3946": "erer",
  "3947": "erer",
  "3948": "erer",
  "3949": "erer",
  "3950": "erer",
  "3951": "erer",
  "3952": "erer",
  "3953": "erer",
  "3954": "erer",
  "3955": "erer",
  "3956": "erer",
  "3957": "erer",
  "3958": "erer",
  "3959": "erer",
  "3960": "erer",
  "3961": "erer",
  "3962": "erer",
  "3963": "erer",
  "3964": "erer",
  "3965": "erer",
  "3966": "erer",
  "3967": "erer",
  "3968": "erer",
  "3969": "erer",
  "3970": "erer",
  "3971": "erer",
  "3972": "erer",
  "3973": "erer",
  "3974": "erer",
  "3975": "erer",
  "3976": "erer",
  "3977": "erer",
  "3978": "erer",
  "3979": "erer",
  "3980": "erer",
  "3981": "erer",
  "3982": "erer",
  "3983": "erer",
  "3984": "erer",
  "3985": "erer",
  "3986": "erer",
  "3987": "erer",
  "3988": "erer",
  "3989": "erer",
  "3990": "erer",
  "3991": "erer",
  "3992": "erer",
  "3993": "erer",
  "3994": "erer",
  "3995": "erer",
  "3996": "erer",
  "3997": "erer",
  "3998": "erer",
  "3999": "erer",
  "4000": "erer",
  "4001": "erer",
  "4002": "erer",
  "4003": "erer",
  "4004": "erer",
  "4005": "erer",
  "4006": "erer",
  "4007": "erer",
  "4008": "erer",
  "4009": "erer",
  "4010": "erer",
  "4011": "erer",
  "4012": "erer",
  "4013": "erer",
  "4014": "erer",
  "4015": "erer",
  "4016": "erer",
  "4017": "erer",
  "4018": "erer",
  "4019": "erer",
  "4020": "erer",
  "4021": "erer",
  "4022": "erer",
  "4023": "erer",
  "4024": "erer",
  "4025": "erer",
  "4026": "erer",
  "4027": "erer",
  "4028": "erer",
  "4029": "erer",
  "4030": "erer",
  "4031": "erer",
  "4032": "erer",
  "4033": "erer",
  "4034": "erer",
  "4035": "erer",
  "4036": "erer",
  "4037": "erer",
  "4038": "erer",
  "4039": "erer",
  "4040": "erer",
  "4041": "erer",
  "4042": "erer",
  "4043": "erer",
  "4044": "erer",
  "4045": "erer",
  "4046": "erer",
  "4047": "erer",
  "4048": "erer",
  "4049": "erer",
  "4050": "erer",
  "4051": "erer",
  "4052": "erer",
  "4053": "erer",
  "4054": "erer",
  "4055": "erer",
  "4056": "erer",
  "4057": "erer",
  "4058": "erer",
  "4059": "erer",
  "4060": "erer",
  "4061": "erer",
  "4062": "erer",
  "4063": "erer",
  "4064": "erer",
  "4065": "erer",
  "4066": "erer",
  "4067": "erer",
  "4068": "erer",
  "4069": "erer",
  "4070": "erer",
  "4071": "erer",
  "4072": "erer",
  "4073": "erer",
  "4074": "erer",
  "4075": "erer",
  "4076": "erer",
  "4077": "erer",
  "4078": "erer",
  "4079": "erer",
  "4080": "erer",
  "4081": "erer",
  "4082": "erer",
  "4083": "erer",
  "4084": "erer",
  "4085": "erer",
  "4086": "erer",
  "4087": "erer",
  "4088": "erer",
  "4089": "erer",
  "4090": "erer",
  "4091": "erer",
  "4092": "erer",
  "4093": "erer",
  "4094": "erer",
  "4095": "erer",
  "4096": "erer",
  "4097": "erer",
  "4098": "erer",
  "4099": "erer",
  "4100": "erer",
  "4101": "erer",
  "4102": "erer",
  "4103": "erer",
  "4104": "erer",
  "4105": "erer",
  "4106": "erer",
  "4107": "erer",
  "4108": "erer",
  "4109": "erer",
  "4110": "erer",
  "4111": "erer",
  "4112": "erer",
  "4113": "erer",
  "4114": "erer",
  "4115": "erer",
  "4116": "erer",
  "4117": "erer",
  "4118": "erer",
  "4119": "erer",
  "4120": "erer",
  "4121": "erer",
  "4122": "erer",
  "4123": "erer",
  "4124": "erer",
  "4125": "erer",
  "4126": "erer",
  "4127": "erer",
  "4128": "erer",
  "4129": "erer",
  "4130": "erer",
  "4131": "erer",
  "4132": "erer",
  "4133": "erer",
  "4134": "erer",
  "4135": "erer",
  "4136": "erer",
  "4137": "erer",
  "4138": "erer",
  "4139": "erer",
  "4140": "erer",
  "4141": "erer",
  "4142": "erer",
  "4143": "erer",
  "4144": "erer",
  "4145": "erer",
  "4146": "erer",
  "4147": "erer",
  "4148": "erer",
  "4149": "erer",
  "4150": "erer",
  "4151": "erer",
  "4152": "erer",
  "4153": "erer",
  "4154": "erer",
  "4155": "erer",
  "4156": "erer",
  "4157": "erer",
  "4158": "erer",
  "4159": "erer",
  "4160": "erer",
  "4161": "erer",
  "4162": "erer",
  "4163": "erer",
  "4164": "erer",
  "4165": "erer",
  "4166": "erer",
  "4167": "erer",
  "4168": "erer",
  "4169": "erer",
  "4170": "erer",
  "4171": "erer",
  "4172": "erer",
  "4173": "erer",
  "4174": "erer",
  "4175": "erer",
  "4176": "erer",
  "4177": "erer",
  "4178": "erer",
  "4179": "erer",
  "4180": "erer",
  "4181": "erer",
  "4182": "erer",
  "4183": "erer",
  "4184": "erer",
  "4185": "erer",
  "4186": "erer",
  "4187": "erer",
  "4188": "erer",
  "4189": "erer",
  "4190": "erer",
  "4191": "erer",
  "4192": "erer",
  "4193": "erer",
  "4194": "erer",
  "4195": "erer",
  "4196": "erer",
  "4197": "erer",
  "4198": "erer",
  "4199": "erer",
  "4200": "erer",
  "4201": "erer",
  "4202": "erer",
  "4203": "erer",
  "4204": "erer",
  "4205": "erer",
  "4206": "erer",
  "4207": "erer",
  "4208": "erer",
  "4209": "erer",
  "4210": "erer",
  "4211": "erer",
  "4212": "erer",
  "4213": "erer",
  "4214": "erer",
  "4215": "erer",
  "4216": "erer",
  "4217": "erer",
  "4218": "erer",
  "4219": "erer",
  "4220": "erer",
  "4221": "erer",
  "4222": "erer",
  "4223": "erer",
  "4224": "erer",
  "4225": "erer",
  "4226": "erer",
  "4227": "erer",
  "4228": "erer",
  "4229": "erer",
  "4230": "erer",
  "4231": "erer",
  "4232": "erer",
  "4233": "erer",
  "4234": "erer",
  "4235": "erer",
  "4236": "erer",
  "4237": "erer",
  "4238": "erer",
  "4239": "erer",
  "4240": "erer",
  "4241": "erer",
  "4242": "erer",
  "4243": "erer",
  "4244": "erer",
  "4245": "erer",
  "4246": "erer",
  "4247": "erer",
  "4248": "erer",
  "4249": "erer",
  "4250": "erer",
  "4251": "erer",
  "4252": "erer",
  "4253": "erer",
  "4254": "erer",
  "4255": "erer",
  "4256": "erer",
  "4257": "erer",
  "4258": "erer",
  "4259": "erer",
  "4260": "erer",
  "4261": "erer",
  "4262": "erer",
  "4263": "erer",
  "4264": "erer",
  "4265": "erer",
  "4266": "erer",
  "4267": "erer",
  "4268": "erer",
  "4269": "erer",
  "4270": "erer",
  "4271": "erer",
  "4272": "erer",
  "4273": "erer",
  "4274": "erer",
  "4275": "erer",
  "4276": "erer",
  "4277": "erer",
  "4278": "erer",
  "4279": "erer",
  "4280": "erer",
  "4281": "erer",
  "4282": "erer",
  "4283": "erer",
  "4284": "erer",
  "4285": "erer",
  "4286": "erer",
  "4287": "erer",
  "4288": "erer",
  "4289": "erer",
  "4290": "erer",
  "4291": "erer",
  "4292": "erer",
  "4293": "erer",
  "4294": "erer",
  "4295": "erer",
  "4296": "erer",
  "4297": "erer",
  "4298": "erer",
  "4299": "erer",
  "4300": "erer",
  "4301": "erer",
  "4302": "erer",
  "4303": "erer",
  "4304": "erer",
  "4305": "erer",
  "4306": "erer",
  "4307": "erer",
  "4308": "erer",
  "4309": "erer",
  "4310": "erer",
  "4311": "erer",
  "4312": "erer",
  "4313": "erer",
  "4314": "erer",
  "4315": "erer",
  "4316": "erer",
  "4317": "erer",
  "4318": "erer",
  "4319": "erer",
  "4320": "erer",
  "4321": "erer",
  "4322": "erer",
  "4323": "erer",
  "4324": "erer",
  "4325": "erer",
  "4326": "erer",
  "4327": "erer",
  "4328": "erer",
  "4329": "erer",
  "4330": "erer",
  "4331": "erer",
  "4332": "erer",
  "4333": "erer",
  "4334": "erer",
  "4335": "erer",
  "4336": "erer",
  "4337": "erer",
  "4338": "erer",
  "4339": "erer",
  "4340": "erer",
  "4341": "erer",
  "4342": "erer",
  "4343": "erer",
  "4344": "erer",
  "4345": "erer",
  "4346": "erer",
  "4347": "erer",
  "4348": "erer",
  "4349": "erer",
  "4350": "erer",
  "4351": "erer",
  "4352": "erer",
  "4353": "erer",
  "4354": "erer",
  "4355": "erer",
  "4356": "erer",
  "4357": "erer",
  "4358": "erer",
  "4359": "erer",
  "4360": "erer",
  "4361": "erer",
  "4362": "erer",
  "4363": "erer",
  "4364": "erer",
  "4365": "erer",
  "4366": "erer",
  "4367": "erer",
  "4368": "erer",
  "4369": "erer",
  "4370": "erer",
  "4371": "erer",
  "4372": "erer",
  "4373": "erer",
  "4374": "erer",
  "4375": "erer",
  "4376": "erer",
  "4377": "erer",
  "4378": "erer",
  "4379": "erer",
  "4380": "erer",
  "4381": "erer",
  "4382": "erer",
  "4383": "erer",
  "4384": "erer",
  "4385": "erer",
  "4386": "erer",
  "4387": "erer",
  "4388": "erer",
  "4389": "erer",
  "4390": "erer",
  "4391": "erer",
  "4392": "erer",
  "4393": "erer",
  "4394": "erer",
  "4395": "erer",
  "4396": "erer",
  "4397": "erer",
  "4398": "erer",
  "4399": "erer",
  "4400": "erer",
  "4401": "erer",
  "4402": "erer",
  "4403": "erer",
  "4404": "erer",
  "4405": "erer",
  "4406": "erer",
  "4407": "erer",
  "4408": "erer",
  "4409": "erer",
  "4410": "erer",
  "4411": "erer",
  "4412": "erer",
  "4413": "erer",
  "4414": "erer",
  "4415": "erer",
  "4416": "erer",
  "4417": "erer",
  "4418": "erer",
  "4419": "erer",
  "4420": "erer",
  "4421": "erer",
  "4422": "erer",
  "4423": "erer",
  "4424": "erer",
  "4425": "erer",
  "4426": "erer",
  "4427": "erer",
  "4428": "erer",
  "4429": "erer",
  "4430": "erer",
  "4431": "erer",
  "4432": "erer",
  "4433": "erer",
  "4434": "erer",
  "4435": "erer",
  "4436": "erer",
  "4437": "erer",
  "4438": "erer",
  "4439": "erer",
  "4440": "erer",
  "4441": "erer",
  "4442": "erer",
  "4443": "erer",
  "4444": "erer",
  "4445": "erer",
  "4446": "erer",
  "4447": "erer",
  "4448": "erer",
  "4449": "erer",
  "4450": "erer",
  "4451": "erer",
  "4452": "erer",
  "4453": "erer",
  "4454": "erer",
  "4455": "erer",
  "4456": "erer",
  "4457": "erer",
  "4458": "erer",
  "4459": "erer",
  "4460": "erer",
  "4461": "erer",
  "4462": "erer",
  "4463": "erer",
  "4464": "erer",
  "4465": "erer",
  "4466": "erer",
  "4467": "erer",
  "4468": "erer",
  "4469": "erer",
  "4470": "erer",
  "4471": "erer",
  "4472": "erer",
  "4473": "erer",
  "4474": "erer",
  "4475": "erer",
  "4476": "erer",
  "4477": "erer",
  "4478": "erer",
  "4479": "erer",
  "4480": "erer",
  "4481": "erer",
  "4482": "erer",
  "4483": "erer",
  "4484": "erer",
  "4485": "erer",
  "4486": "erer",
  "4487": "erer",
  "4488": "erer",
  "4489": "erer",
  "4490": "erer",
  "4491": "erer",
  "4492": "erer",
  "4493": "erer",
  "4494": "erer",
  "4495": "erer",
  "4496": "erer",
  "4497": "erer",
  "4498": "erer",
  "4499": "erer",
  "4500": "erer",
  "4501": "erer",
  "4502": "erer",
  "4503": "erer",
  "4504": "erer",
  "4505": "erer",
  "4506": "erer",
  "4507": "erer",
  "4508": "erer",
  "4509": "erer",
  "4510": "erer",
  "4511": "erer",
  "4512": "erer",
  "4513": "erer",
  "4514": "erer",
  "4515": "erer",
  "4516": "erer",
  "4517": "erer",
  "4518": "erer",
  "4519": "erer",
  "4520": "erer",
  "4521": "erer",
  "4522": "erer",
  "4523": "erer",
  "4524": "erer",
  "4525": "erer",
  "4526": "erer",
  "4527": "erer",
  "4528": "erer",
  "4529": "erer",
  "4530": "erer",
  "4531": "erer",
  "4532": "erer",
  "4533": "erer",
  "4534": "erer",
  "4535": "erer",
  "4536": "erer",
  "4537": "erer",
  "4538": "erer",
  "4539": "erer",
  "4540": "erer",
  "4541": "erer",
  "4542": "erer",
  "4543": "erer",
  "4544": "erer",
  "4545": "erer",
  "4546": "erer",
  "4547": "erer",
  "4548": "erer",
  "4549": "erer",
  "4550": "erer",
  "4551": "erer",
  "4552": "erer",
  "4553": "erer",
  "4554": "erer",
  "4555": "erer",
  "4556": "erer",
  "4557": "erer",
  "4558": "erer",
  "4559": "erer",
  "4560": "erer",
  "4561": "erer",
  "4562": "erer",
  "4563": "erer",
  "4564": "erer",
  "4565": "erer",
  "4566": "erer",
  "4567": "erer",
  "4568": "erer",
  "4569": "erer",
  "4570": "erer",
  "4571": "erer",
  "4572": "erer",
  "4573": "erer",
  "4574": "erer",
  "4575": "erer",
  "4576": "erer",
  "4577": "erer",
  "4578": "erer",
  "4579": "erer",
  "4580": "erer",
  "4581": "erer",
  "4582": "erer",
  "4583": "erer",
  "4584": "erer",
  "4585": "erer",
  "4586": "erer",
  "4587": "erer",
  "4588": "erer",
  "4589": "erer",
  "4590": "erer",
  "4591": "erer",
  "4592": "erer",
  "4593": "erer",
  "4594": "erer",
  "4595": "erer",
  "4596": "erer",
  "4597": "erer",
  "4598": "erer",
  "4599": "erer",
  "4600": "erer",
  "4601": "erer",
  "4602": "erer",
  "4603": "erer",
  "4604": "erer",
  "4605": "erer",
  "4606": "erer",
  "4607": "erer",
  "4608": "erer",
  "4609": "erer",
  "4610": "erer",
  "4611": "erer",
  "4612": "erer",
  "4613": "erer",
  "4614": "erer",
  "4615": "erer",
  "4616": "erer",
  "4617": "erer",
  "4618": "erer",
  "4619": "erer",
  "4620": "erer",
  "4621": "erer",
  "4622": "erer",
  "4623": "erer",
  "4624": "erer",
  "4625": "erer",
  "4626": "erer",
  "4627": "erer",
  "4628": "erer",
  "4629": "erer",
  "4630": "erer",
  "4631": "erer",
  "4632": "erer",
  "4633": "erer",
  "4634": "erer",
  "4635": "erer",
  "4636": "erer",
  "4637": "erer",
  "4638": "erer",
  "4639": "erer",
  "4640": "erer",
  "4641": "erer",
  "4642": "erer",
  "4643": "erer",
  "4644": "erer",
  "4645": "erer",
  "4646": "erer",
  "4647": "erer",
  "4648": "erer",
  "4649": "erer",
  "4650": "erer",
  "4651": "erer",
  "4652": "erer",
  "4653": "erer",
  "4654": "erer",
  "4655": "erer",
  "4656": "erer",
  "4657": "erer",
  "4658": "erer",
  "4659": "erer",
  "4660": "erer",
  "4661": "erer",
  "4662": "erer",
  "4663": "erer",
  "4664": "erer",
  "4665": "erer",
  "4666": "erer",
  "4667": "erer",
  "4668": "erer",
  "4669": "erer",
  "4670": "erer",
  "4671": "erer",
  "4672": "erer",
  "4673": "erer",
  "4674": "erer",
  "4675": "erer",
  "4676": "erer",
  "4677": "erer",
  "4678": "erer",
  "4679": "erer",
  "4680": "erer",
  "4681": "erer",
  "4682": "erer",
  "4683": "erer",
  "4684": "erer",
  "4685": "erer",
  "4686": "erer",
  "4687": "erer",
  "4688": "erer",
  "4689": "erer",
  "4690": "erer",
  "4691": "erer",
  "4692": "erer",
  "4693": "erer",
  "4694": "erer",
  "4695": "erer",
  "4696": "erer",
  "4697": "erer",
  "4698": "erer",
  "4699": "erer",
  "4700": "erer",
  "4701": "erer",
  "4702": "erer",
  "4703": "erer",
  "4704": "erer",
  "4705": "erer",
  "4706": "erer",
  "4707": "erer",
  "4708": "erer",
  "4709": "erer",
  "4710": "erer",
  "4711": "erer",
  "4712": "erer",
  "4713": "erer",
  "4714": "erer",
  "4715": "erer",
  "4716": "erer",
  "4717": "erer",
  "4718": "erer",
  "4719": "erer",
  "4720": "erer",
  "4721": "erer",
  "4722": "erer",
  "4723": "erer",
  "4724": "erer",
  "4725": "erer",
  "4726": "erer",
  "4727": "erer",
  "4728": "erer",
  "4729": "erer",
  "4730": "erer",
  "4731": "erer",
  "4732": "erer",
  "4733": "erer",
  "4734": "erer",
  "4735": "erer",
  "4736": "erer",
  "4737": "erer",
  "4738": "erer",
  "4739": "erer",
  "4740": "erer",
  "4741": "erer",
  "4742": "erer",
  "4743": "erer",
  "4744": "erer",
  "4745": "erer",
  "4746": "erer",
  "4747": "erer",
  "4748": "erer",
  "4749": "erer",
  "4750": "erer",
  "4751": "erer",
  "4752": "erer",
  "4753": "erer",
  "4754": "erer",
  "4755": "erer",
  "4756": "erer",
  "4757": "erer",
  "4758": "erer",
  "4759": "erer",
  "4760": "erer",
  "4761": "erer",
  "4762": "erer",
  "4763": "erer",
  "4764": "erer",
  "4765": "erer",
  "4766": "erer",
  "4767": "erer",
  "4768": "erer",
  "4769": "erer",
  "4770": "erer",
  "4771": "erer",
  "4772": "erer",
  "4773": "erer",
  "4774": "erer",
  "4775": "erer",
  "4776": "erer",
  "4777": "erer",
  "4778": "erer",
  "4779": "erer",
  "4780": "erer",
  "4781": "erer",
  "4782": "erer",
  "4783": "erer",
  "4784": "erer",
  "4785": "erer",
  "4786": "erer",
  "4787": "erer",
  "4788": "erer",
  "4789": "erer",
  "4790": "erer",
  "4791": "erer",
  "4792": "erer",
  "4793": "erer",
  "4794": "erer",
  "4795": "erer",
  "4796": "erer",
  "4797": "erer",
  "4798": "erer",
  "4799": "erer",
  "4800": "erer",
  "4801": "erer",
  "4802": "erer",
  "4803": "erer",
  "4804": "erer",
  "4805": "erer",
  "4806": "erer",
  "4807": "erer",
  "4808": "erer",
  "4809": "erer",
  "4810": "erer",
  "4811": "erer",
  "4812": "erer",
  "4813": "erer",
  "4814": "erer",
  "4815": "erer",
  "4816": "erer",
  "4817": "erer",
  "4818": "erer",
  "4819": "erer",
  "4820": "erer",
  "4821": "erer",
  "4822": "erer",
  "4823": "erer",
  "4824": "erer",
  "4825": "erer",
  "4826": "erer",
  "4827": "erer",
  "4828": "erer",
  "4829": "erer",
  "4830": "erer",
  "4831": "erer",
  "4832": "erer",
  "4833": "erer",
  "4834": "erer",
  "4835": "erer",
  "4836": "erer",
  "4837": "erer",
  "4838": "erer",
  "4839": "erer",
  "4840": "erer",
  "4841": "erer",
  "4842": "erer",
  "4843": "erer",
  "4844": "erer",
  "4845": "erer",
  "4846": "erer",
  "4847": "erer",
  "4848": "erer",
  "4849": "erer",
  "4850": "erer",
  "4851": "erer",
  "4852": "erer",
  "4853": "erer",
  "4854": "erer",
  "4855": "erer",
  "4856": "erer",
  "4857": "erer",
  "4858": "erer",
  "4859": "erer",
  "4860": "erer",
  "4861": "erer",
  "4862": "erer",
  "4863": "erer",
  "4864": "erer",
  "4865": "erer",
  "4866": "erer",
  "4867": "erer",
  "4868": "erer",
  "4869": "erer",
  "4870": "erer",
  "4871": "erer",
  "4872": "erer",
  "4873": "erer",
  "4874": "erer",
  "4875": "erer",
  "4876": "erer",
  "4877": "erer",
  "4878": "erer",
  "4879": "erer",
  "4880": "erer",
  "4881": "erer",
  "4882": "erer",
  "4883": "erer",
  "4884": "erer",
  "4885": "erer",
  "4886": "erer",
  "4887": "erer",
  "4888": "erer",
  "4889": "erer",
  "4890": "erer",
  "4891": "erer",
  "4892": "erer",
  "4893": "erer",
  "4894": "erer",
  "4895": "erer",
  "4896": "erer",
  "4897": "erer",
  "4898": "erer",
  "4899": "erer",
  "4900": "erer",
  "4901": "erer",
  "4902": "erer",
  "4903": "erer",
  "4904": "erer",
  "4905": "erer",
  "4906": "erer",
  "4907": "erer",
  "4908": "erer",
  "4909": "erer",
  "4910": "erer",
  "4911": "erer",
  "4912": "erer",
  "4913": "erer",
  "4914": "erer",
  "4915": "erer",
  "4916": "erer",
  "4917": "erer",
  "4918": "erer",
  "4919": "erer",
  "4920": "erer",
  "4921": "erer",
  "4922": "erer",
  "4923": "erer",
  "4924": "erer",
  "4925": "erer",
  "4926": "erer",
  "4927": "erer",
  "4928": "erer",
  "4929": "erer",
  "4930": "erer",
  "4931": "erer",
  "4932": "erer",
  "4933": "erer",
  "4934": "erer",
  "4935": "erer",
  "4936": "erer",
  "4937": "erer",
  "4938": "erer",
  "4939": "erer",
  "4940": "erer",
  "4941": "erer",
  "4942": "erer",
  "4943": "erer",
  "4944": "erer",
  "4945": "erer",
  "4946": "erer",
  "4947": "erer",
  "4948": "erer",
  "4949": "erer",
  "4950": "erer",
  "4951": "erer",
  "4952": "erer",
  "4953": "erer",
  "4954": "erer",
  "4955": "erer",
  "4956": "erer",
  "4957": "erer",
  "4958": "erer",
  "4959": "erer",
  "4960": "erer",
  "4961": "erer",
  "4962": "erer",
  "4963": "erer",
  "4964": "erer",
  "4965": "erer",
  "4966": "erer",
  "4967": "erer",
  "4968": "erer",
  "4969": "erer",
  "4970": "erer",
  "4971": "erer",
  "4972": "erer",
  "4973": "erer",
  "4974": "erer",
  "4975": "erer",
  "4976": "erer",
  "4977": "erer",
  "4978": "erer",
  "4979": "erer",
  "4980": "erer",
  "4981": "erer",
  "4982": "erer",
  "4983": "erer",
  "4984": "erer",
  "4985": "erer",
  "4986": "erer",
  "4987": "erer",
  "4988": "erer",
  "4989": "erer",
  "4990": "erer",
  "4991": "erer",
  "4992": "erer",
  "4993": "erer",
  "4994": "erer",
  "4995": "erer",
  "4996": "erer",
  "4997": "erer",
  "4998": "erer",
  "4999": "erer",
  "5000": "erer",
  "5001": "erer",
  "5002": "erer",
  "5003": "erer",
  "5004": "erer",
  "5005": "erer",
  "5006": "erer",
  "5007": "erer",
  "5008": "erer",
  "5009": "erer",
  "5010": "erer",
  "5011": "erer",
  "5012": "erer",
  "5013": "erer",
  "5014": "erer",
  "5015": "erer",
  "5016": "erer",
  "5017": "erer",
  "5018": "erer",
  "5019": "erer",
  "5020": "erer",
  "5021": "erer",
  "5022": "erer",
  "5023": "erer",
  "5024": "erer",
  "5025": "erer",
  "5026": "erer",
  "5027": "erer",
  "5028": "erer",
  "5029": "erer",
  "5030": "erer",
  "5031": "erer",
  "5032": "erer",
  "5033": "erer",
  "5034": "erer",
  "5035": "erer",
  "5036": "erer",
  "5037": "erer",
  "5038": "erer",
  "5039": "erer",
  "5040": "erer",
  "5041": "erer",
  "5042": "erer",
  "5043": "erer",
  "5044": "erer",
  "5045": "erer",
  "5046": "erer",
  "5047": "erer",
  "5048": "erer",
  "5049": "erer",
  "5050": "erer",
  "5051": "erer",
  "5052": "erer",
  "5053": "erer",
  "5054": "erer",
  "5055": "erer",
  "5056": "erer",
  "5057": "erer",
  "5058": "erer",
  "5059": "erer",
  "5060": "erer",
  "5061": "erer",
  "5062": "erer",
  "5063": "erer",
  "5064": "erer",
  "5065": "erer",
  "5066": "erer",
  "5067": "erer",
  "5068": "erer",
  "5069": "erer",
  "5070": "erer",
  "5071": "erer",
  "5072": "erer",
  "5073": "erer",
  "5074": "erer",
  "5075": "erer",
  "5076": "erer",
  "5077": "erer",
  "5078": "erer",
  "5079": "erer",
  "5080": "erer",
  "5081": "erer",
  "5082": "erer",
  "5083": "erer",
  "5084": "erer",
  "5085": "erer",
  "5086": "erer",
  "5087": "erer",
  "5088": "erer",
  "5089": "erer",
  "5090": "erer",
  "5091": "erer",
  "5092": "erer",
  "5093": "erer",
  "5094": "erer",
  "5095": "erer",
  "5096": "erer",
  "5097": "erer",
  "5098": "erer",
  "5099": "erer",
  "5100": "erer",
  "5101": "erer",
  "5102": "erer",
  "5103": "erer",
  "5104": "erer",
  "5105": "erer",
  "5106": "erer",
  "5107": "erer",
  "5108": "erer",
  "5109": "erer",
  "5110": "erer",
  "5111": "erer",
  "5112": "erer",
  "5113": "erer",
  "5114": "erer",
  "5115": "erer",
  "5116": "erer",
  "5117": "erer",
  "5118": "erer",
  "5119": "erer",
  "5120": "erer",
  "5121": "erer",
  "5122": "erer",
  "5123": "erer",
  "5124": "erer",
  "5125": "erer",
  "5126": "erer",
  "5127": "erer",
  "5128": "erer",
  "5129": "erer",
  "5130": "erer",
  "5131": "erer",
  "5132": "erer",
  "5133": "erer",
  "5134": "erer",
  "5135": "erer",
  "5136": "erer",
  "5137": "erer",
  "5138": "erer",
  "5139": "erer",
  "5140": "erer",
  "5141": "erer",
  "5142": "erer",
  "5143": "erer",
  "5144": "erer",
  "5145": "erer",
  "5146": "erer",
  "5147": "erer",
  "5148": "erer",
  "5149": "erer",
  "5150": "erer",
  "5151": "erer",
  "5152": "erer",
  "5153": "erer",
  "5154": "erer",
  "5155": "erer",
  "5156": "erer",
  "5157": "erer",
  "5158": "erer",
  "5159": "erer",
  "5160": "erer",
  "5161": "erer",
  "5162": "erer",
  "5163": "erer",
  "5164": "erer",
  "5165": "erer",
  "5166": "erer",
  "5167": "erer",
  "5168": "erer",
  "5169": "erer",
  "5170": "erer",
  "5171": "erer",
  "5172": "erer",
  "5173": "erer",
  "5174": "erer",
  "5175": "erer",
  "5176": "erer",
  "5177": "erer",
  "5178": "erer",
  "5179": "erer",
  "5180": "erer",
  "5181": "erer",
  "5182": "erer",
  "5183": "erer",
  "5184": "erer",
  "5185": "erer",
  "5186": "erer",
  "5187": "erer",
  "5188": "erer",
  "5189": "erer",
  "5190": "erer",
  "5191": "erer",
  "5192": "erer",
  "5193": "erer",
  "5194": "erer",
  "5195": "erer",
  "5196": "erer",
  "5197": "erer",
  "5198": "erer",
  "5199": "erer",
  "5200": "erer",
  "5201": "erer",
  "5202": "erer",
  "5203": "erer",
  "5204": "erer",
  "5205": "erer",
  "5206": "erer",
  "5207": "erer",
  "5208": "erer",
  "5209": "erer",
  "5210": "erer",
  "5211": "erer",
  "5212": "erer",
  "5213": "erer",
  "5214": "erer",
  "5215": "erer",
  "5216": "erer",
  "5217": "erer",
  "5218": "erer",
  "5219": "erer",
  "5220": "erer",
  "5221": "erer",
  "5222": "erer",
  "5223": "erer",
  "5224": "erer",
  "5225": "erer",
  "5226": "erer",
  "5227": "erer",
  "5228": "erer",
  "5229": "erer",
  "5230": "erer",
  "5231": "erer",
  "5232": "erer",
  "5233": "erer",
  "5234": "erer",
  "5235": "erer",
  "5236": "erer",
  "5237": "erer",
  "5238": "erer",
  "5239": "erer",
  "5240": "erer",
  "5241": "erer",
  "5242": "erer",
  "5243": "erer",
  "5244": "erer",
  "5245": "erer",
  "5246": "erer",
  "5247": "erer",
  "5248": "erer",
  "5249": "erer",
  "5250": "erer",
  "5251": "erer",
  "5252": "erer",
  "5253": "erer",
  "5254": "erer",
  "5255": "erer",
  "5256": "erer",
  "5257": "erer",
  "5258": "erer",
  "5259": "erer",
  "5260": "erer",
  "5261": "erer",
  "5262": "erer",
  "5263": "erer",
  "5264": "erer",
  "5265": "erer",
  "5266": "erer",
  "5267": "erer",
  "5268": "erer",
  "5269": "erer",
  "5270": "erer",
  "5271": "erer",
  "5272": "erer",
  "5273": "erer",
  "5274": "erer",
  "5275": "erer",
  "5276": "erer",
  "5277": "erer",
  "5278": "erer",
  "5279": "erer",
  "5280": "erer",
  "5281": "erer",
  "5282": "erer",
  "5283": "erer",
  "5284": "erer",
  "5285": "erer",
  "5286": "erer",
  "5287": "erer",
  "5288": "erer",
  "5289": "erer",
  "5290": "erer",
  "5291": "erer",
  "5292": "erer",
  "5293": "erer",
  "5294": "erer",
  "5295": "erer",
  "5296": "erer",
  "5297": "erer",
  "5298": "erer",
  "5299": "erer",
  "5300": "erer",
  "5301": "erer",
  "5302": "erer",
  "5303": "erer",
  "5304": "erer",
  "5305": "erer",
  "5306": "erer",
  "5307": "erer",
  "5308": "erer",
  "5309": "erer",
  "5310": "erer",
  "5311": "erer",
  "5312": "erer",
  "5313": "erer",
  "5314": "erer",
  "5315": "erer",
  "5316": "erer",
  "5317": "erer",
  "5318": "erer",
  "5319": "erer",
  "5320": "erer",
  "5321": "erer",
  "5322": "erer",
  "5323": "erer",
  "5324": "erer",
  "5325": "erer",
  "5326": "erer",
  "5327": "erer",
  "5328": "erer",
  "5329": "erer",
  "5330": "erer",
  "5331": "erer",
  "5332": "erer",
  "5333": "erer",
  "5334": "erer",
  "5335": "erer",
  "5336": "erer",
  "5337": "erer",
  "5338": "erer",
  "5339": "erer",
  "5340": "erer",
  "5341": "erer",
  "5342": "erer",
  "5343": "erer",
  "5344": "erer",
  "5345": "erer",
  "5346": "erer",
  "5347": "erer",
  "5348": "erer",
  "5349": "erer",
  "5350": "erer",
  "5351": "erer",
  "5352": "erer",
  "5353": "erer",
  "5354": "erer",
  "5355": "erer",
  "5356": "erer",
  "5357": "erer",
  "5358": "erer",
  "5359": "erer",
  "5360": "erer",
  "5361": "erer",
  "5362": "erer",
  "5363": "erer",
  "5364": "erer",
  "5365": "erer",
  "5366": "erer",
  "5367": "erer",
  "5368": "erer",
  "5369": "erer",
  "5370": "erer",
  "5371": "erer",
  "5372": "erer",
  "5373": "erer",
  "5374": "erer",
  "5375": "erer",
  "5376": "erer",
  "5377": "erer",
  "5378": "erer",
  "5379": "erer",
  "5380": "erer",
  "5381": "erer",
  "5382": "erer",
  "5383": "erer",
  "5384": "erer",
  "5385": "erer",
  "5386": "erer",
  "5387": "erer",
  "5388": "erer",
  "5389": "erer",
  "5390": "erer",
  "5391": "erer",
  "5392": "erer",
  "5393": "erer",
  "5394": "erer",
  "5395": "erer",
  "5396": "erer",
  "5397": "erer",
  "5398": "erer",
  "5399": "erer",
  "5400": "erer",
  "5401": "erer",
  "5402": "erer",
  "5403": "erer",
  "5404": "erer",
  "5405": "erer",
  "5406": "erer",
  "5407": "erer",
  "5408": "erer",
  "5409": "erer",
  "5410": "erer",
  "5411": "erer",
  "5412": "erer",
  "5413": "erer",
  "5414": "erer",
  "5415": "erer",
  "5416": "erer",
  "5417": "erer",
  "5418": "erer",
  "5419": "erer",
  "5420": "erer",
  "5421": "erer",
  "5422": "erer",
  "5423": "erer",
  "5424": "erer",
  "5425": "erer",
  "5426": "erer",
  "5427": "erer",
  "5428": "erer",
  "5429": "erer",
  "5430": "erer",
  "5431": "erer",
  "5432": "erer",
  "5433": "erer",
  "5434": "erer",
  "5435": "erer",
  "5436": "erer",
  "5437": "erer",
  "5438": "erer",
  "5439": "erer",
  "5440": "erer",
  "5441": "erer",
  "5442": "erer",
  "5443": "erer",
  "5444": "erer",
  "5445": "erer",
  "5446": "erer",
  "5447": "erer",
  "5448": "erer",
  "5449": "erer",
  "5450": "erer",
  "5451": "erer",
  "5452": "erer",
  "5453": "erer",
  "5454": "erer",
  "5455": "erer",
  "5456": "erer",
  "5457": "erer",
  "5458": "erer",
  "5459": "erer",
  "5460": "erer",
  "5461": "erer",
  "5462": "erer",
  "5463": "erer",
  "5464": "erer",
  "5465": "erer",
  "5466": "erer",
  "5467": "erer",
  "5468": "erer",
  "5469": "erer",
  "5470": "erer",
  "5471": "erer",
  "5472": "erer",
  "5473": "erer",
  "5474": "erer",
  "5475": "erer",
  "5476": "erer",
  "5477": "erer",
  "5478": "erer",
  "5479": "erer",
  "5480": "erer",
  "5481": "erer",
  "5482": "erer",
  "5483": "erer",
  "5484": "erer",
  "5485": "erer",
  "5486": "erer",
  "5487": "erer",
  "5488": "erer",
  "5489": "erer",
  "5490": "erer",
  "5491": "erer",
  "5492": "erer",
  "5493": "erer",
  "5494": "erer",
  "5495": "erer",
  "5496": "erer",
  "5497": "erer",
  "5498": "erer",
  "5499": "erer",
  "5500": "erer",
  "5501": "erer",
  "5502": "erer",
  "5503": "erer",
  "5504": "erer",
  "5505": "erer",
  "5506": "erer",
  "5507": "erer",
  "5508": "erer",
  "5509": "erer",
  "5510": "erer",
  "5511": "erer",
  "5512": "erer",
  "5513": "erer",
  "5514": "erer",
  "5515": "erer",
  "5516": "erer",
  "5517": "erer",
  "5518": "erer",
  "5519": "erer",
  "5520": "erer",
  "5521": "erer",
  "5522": "erer",
  "5523": "erer",
  "5524": "erer",
  "5525": "erer",
  "5526": "erer",
  "5527": "erer",
  "5528": "erer",
  "5529": "erer",
  "5530": "erer",
  "5531": "erer",
  "5532": "erer",
  "5533": "erer",
  "5534": "erer",
  "5535": "erer",
  "5536": "erer",
  "5537": "erer",
  "5538": "erer",
  "5539": "erer",
  "5540": "erer",
  "5541": "erer",
  "5542": "erer",
  "5543": "erer",
  "5544": "erer",
  "5545": "erer",
  "5546": "erer",
  "5547": "erer",
  "5548": "erer",
  "5549": "erer",
  "5550": "erer",
  "5551": "erer",
  "5552": "erer",
  "5553": "erer",
  "5554": "erer",
  "5555": "erer",
  "5556": "erer",
  "5557": "erer",
  "5558": "erer",
  "5559": "erer",
  "5560": "erer",
  "5561": "erer",
  "5562": "erer",
  "5563": "erer",
  "5564": "erer",
  "5565": "erer",
  "5566": "erer",
  "5567": "erer",
  "5568": "erer",
  "5569": "erer",
  "5570": "erer",
  "5571": "erer",
  "5572": "erer",
  "5573": "erer",
  "5574": "erer",
  "5575": "erer",
  "5576": "erer",
  "5577": "erer",
  "5578": "erer",
  "5579": "erer",
  "5580": "erer",
  "5581": "erer",
  "5582": "erer",
  "5583": "erer",
  "5584": "erer",
  "5585": "erer",
  "5586": "erer",
  "5587": "erer",
  "5588": "erer",
  "5589": "erer",
  "5590": "erer",
  "5591": "erer",
  "5592": "erer",
  "5593": "erer",
  "5594": "erer",
  "5595": "erer",
  "5596": "erer",
  "5597": "erer",
  "5598": "erer",
  "5599": "erer",
  "5600": "erer",
  "5601": "erer",
  "5602": "erer",
  "5603": "erer",
  "5604": "erer",
  "5605": "erer",
  "5606": "erer",
  "5607": "erer",
  "5608": "erer",
  "5609": "erer",
  "5610": "erer",
  "5611": "erer",
  "5612": "erer",
  "5613": "erer",
  "5614": "erer",
  "5615": "erer",
  "5616": "erer",
  "5617": "erer",
  "5618": "erer",
  "5619": "erer",
  "5620": "erer",
  "5621": "erer",
  "5622": "erer",
  "5623": "erer",
  "5624": "erer",
  "5625": "erer",
  "5626": "erer",
  "5627": "erer",
  "5628": "erer",
  "5629": "erer",
  "5630": "erer",
  "5631": "erer",
  "5632": "erer",
  "5633": "erer",
  "5634": "erer",
  "5635": "erer",
  "5636": "erer",
  "5637": "erer",
  "5638": "erer",
  "5639": "erer",
  "5640": "erer",
  "5641": "erer",
  "5642": "erer",
  "5643": "erer",
  "5644": "erer",
  "5645": "erer",
  "5646": "erer",
  "5647": "erer",
  "5648": "erer",
  "5649": "erer",
  "5650": "erer",
  "5651": "erer",
  "5652": "erer",
  "5653": "erer",
  "5654": "erer",
  "5655": "erer",
  "5656": "erer",
  "5657": "erer",
  "5658": "erer",
  "5659": "erer",
  "5660": "erer",
  "5661": "erer",
  "5662": "erer",
  "5663": "erer",
  "5664": "erer",
  "5665": "erer",
  "5666": "erer",
  "5667": "erer",
  "5668": "erer",
  "5669": "erer",
  "5670": "erer",
  "5671": "erer",
  "5672": "erer",
  "5673": "erer",
  "5674": "erer",
  "5675": "erer",
  "5676": "erer",
  "5677": "erer",
  "5678": "erer",
  "5679": "erer",
  "5680": "erer",
  "5681": "erer",
  "5682": "erer",
  "5683": "erer",
  "5684": "erer",
  "5685": "erer",
  "5686": "erer",
  "5687": "erer",
  "5688": "erer",
  "5689": "erer",
  "5690": "erer",
  "5691": "erer",
  "5692": "erer",
  "5693": "erer",
  "5694": "erer",
  "5695": "erer",
  "5696": "erer",
  "5697": "erer",
  "5698": "erer",
  "5699": "erer",
  "5700": "erer",
  "5701": "erer",
  "5702": "erer",
  "5703": "erer",
  "5704": "erer",
  "5705": "erer",
  "5706": "erer",
  "5707": "erer",
  "5708": "erer",
  "5709": "erer",
  "5710": "erer",
  "5711": "erer",
  "5712": "erer",
  "5713": "erer",
  "5714": "erer",
  "5715": "erer",
  "5716": "erer",
  "5717": "erer",
  "5718": "erer",
  "5719": "erer",
  "5720": "erer",
  "5721": "erer",
  "5722": "erer",
  "5723": "erer",
  "5724": "erer",
  "5725": "erer",
  "5726": "erer",
  "5727": "erer",
  "5728": "erer",
  "5729": "erer",
  "5730": "erer",
  "5731": "erer",
  "5732": "erer",
  "5733": "erer",
  "5734": "erer",
  "5735": "erer",
  "5736": "erer",
  "5737": "erer",
  "5738": "erer",
  "5739": "erer",
  "5740": "erer",
  "5741": "erer",
  "5742": "erer",
  "5743": "erer",
  "5744": "erer",
  "5745": "erer",
  "5746": "erer",
  "5747": "erer",
  "5748": "erer",
  "5749": "erer",
  "5750": "erer",
  "5751": "erer",
  "5752": "erer",
  "5753": "erer",
  "5754": "erer",
  "5755": "erer",
  "5756": "erer",
  "5757": "erer",
  "5758": "erer",
  "5759": "erer",
  "5760": "erer",
  "5761": "erer",
  "5762": "erer",
  "5763": "erer",
  "5764": "erer",
  "5765": "erer",
  "5766": "erer",
  "5767": "erer",
  "5768": "erer",
  "5769": "erer",
  "5770": "erer",
  "5771": "erer",
  "5772": "erer",
  "5773": "erer",
  "5774": "erer",
  "5775": "erer",
  "5776": "erer",
  "5777": "erer",
  "5778": "erer",
  "5779": "erer",
  "5780": "erer",
  "5781": "erer",
  "5782": "erer",
  "5783": "erer",
  "5784": "erer",
  "5785": "erer",
  "5786": "erer",
  "5787": "erer",
  "5788": "erer",
  "5789": "erer",
  "5790": "erer",
  "5791": "erer",
  "5792": "erer",
  "5793": "erer",
  "5794": "erer",
  "5795": "erer",
  "5796": "erer",
  "5797": "erer",
  "5798": "erer",
  "5799": "erer",
  "5800": "erer",
  "5801": "erer",
  "5802": "erer",
  "5803": "erer",
  "5804": "erer",
  "5805": "erer",
  "5806": "erer",
  "5807": "erer",
  "5808": "erer",
  "5809": "erer",
  "5810": "erer",
  "5811": "erer",
  "5812": "erer",
  "5813": "erer",
  "5814": "erer",
  "5815": "erer",
  "5816": "erer",
  "5817": "erer",
  "5818": "erer",
  "5819": "erer",
  "5820": "erer",
  "5821": "erer",
  "5822": "erer",
  "5823": "erer",
  "5824": "erer",
  "5825": "erer",
  "5826": "erer",
  "5827": "erer",
  "5828": "erer",
  "5829": "erer",
  "5830": "erer",
  "5831": "erer",
  "5832": "erer",
  "5833": "erer",
  "5834": "erer",
  "5835": "erer",
  "5836": "erer",
  "5837": "erer",
  "5838": "erer",
  "5839": "erer",
  "5840": "erer",
  "5841": "erer",
  "5842": "erer",
  "5843": "erer",
  "5844": "erer",
  "5845": "erer",
  "5846": "erer",
  "5847": "erer",
  "5848": "erer",
  "5849": "erer",
  "5850": "erer",
  "5851": "erer",
  "5852": "erer",
  "5853": "erer",
  "5854": "erer",
  "5855": "erer",
  "5856": "erer",
  "5857": "erer",
  "5858": "erer",
  "5859": "erer",
  "5860": "erer",
  "5861": "erer",
  "5862": "erer",
  "5863": "erer",
  "5864": "erer",
  "5865": "erer",
  "5866": "erer",
  "5867": "erer",
  "5868": "erer",
  "5869": "erer",
  "5870": "erer",
  "5871": "erer",
  "5872": "erer",
  "5873": "erer",
  "5874": "erer",
  "5875": "erer",
  "5876": "erer",
  "5877": "erer",
  "5878": "erer",
  "5879": "erer",
  "5880": "erer",
  "5881": "erer",
  "5882": "erer",
  "5883": "erer",
  "5884": "erer",
  "5885": "erer",
  "5886": "erer",
  "5887": "erer",
  "5888": "erer",
  "5889": "erer",
  "5890": "erer",
  "5891": "erer",
  "5892": "erer",
  "5893": "erer",
  "5894": "erer",
  "5895": "erer",
  "5896": "erer",
  "5897": "erer",
  "5898": "erer",
  "5899": "erer",
  "5900": "erer",
  "5901": "erer",
  "5902": "erer",
  "5903": "erer",
  "5904": "erer",
  "5905": "erer",
  "5906": "erer",
  "5907": "erer",
  "5908": "erer",
  "5909": "erer",
  "5910": "erer",
  "5911": "erer",
  "5912": "erer",
  "5913": "erer",
  "5914": "erer",
  "5915": "erer",
  "5916": "erer",
  "5917": "erer",
  "5918": "erer",
  "5919": "erer",
  "5920": "erer",
  "5921": "erer",
  "5922": "erer",
  "5923": "erer",
  "5924": "erer",
  "5925": "erer",
  "5926": "erer",
  "5927": "erer",
  "5928": "erer",
  "5929": "erer",
  "5930": "erer",
  "5931": "erer",
  "5932": "erer",
  "5933": "erer",
  "5934": "erer",
  "5935": "erer",
  "5936": "erer",
  "5937": "erer",
  "5938": "erer",
  "5939": "erer",
  "5940": "erer",
  "5941": "erer",
  "5942": "erer",
  "5943": "erer",
  "5944": "erer",
  "5945": "erer",
  "5946": "erer",
  "5947": "erer",
  "5948": "erer",
  "5949": "erer",
  "5950": "erer",
  "5951": "erer",
  "5952": "erer",
  "5953": "erer",
  "5954": "erer",
  "5955": "erer",
  "5956": "erer",
  "5957": "erer",
  "5958": "erer",
  "5959": "erer",
  "5960": "erer",
  "5961": "erer",
  "5962": "erer",
  "5963": "erer",
  "5964": "erer",
  "5965": "erer",
  "5966": "erer",
  "5967": "erer",
  "5968": "erer",
  "5969": "erer",
  "5970": "erer",
  "5971": "erer",
  "5972": "erer",
  "5973": "erer",
  "5974": "erer",
  "5975": "erer",
  "5976": "erer",
  "5977": "erer",
  "5978": "erer",
  "5979": "erer",
  "5980": "erer",
  "5981": "erer",
  "5982": "erer",
  "5983": "erer",
  "5984": "erer",
  "5985": "erer",
  "5986": "erer",
  "5987": "erer",
  "5988": "erer",
  "5989": "erer",
  "5990": "erer",
  "5991": "erer",
  "5992": "erer",
  "5993": "erer",
  "5994": "erer",
  "5995": "erer",
  "5996": "erer",
  "5997": "erer",
  "5998": "erer",
  "5999": "erer",
  "6000": "erer",
  "6001": "erer",
  "6002": "erer",
  "6003": "erer",
  "6004": "erer",
  "6005": "erer",
  "6006": "erer",
  "6007": "erer",
  "6008": "erer",
  "6009": "erer",
  "6010": "erer",
  "6011": "erer",
  "6012": "erer",
  "6013": "erer",
  "6014": "erer",
  "6015": "erer",
  "6016": "erer",
  "6017": "erer",
  "6018": "erer",
  "6019": "erer",
  "6020": "erer",
  "6021": "erer",
  "6022": "erer",
  "6023": "erer",
  "6024": "erer",
  "6025": "erer",
  "6026": "erer",
  "6027": "erer",
  "6028": "erer",
  "6029": "erer",
  "6030": "erer",
  "6031": "erer",
  "6032": "erer",
  "6033": "erer",
  "6034": "erer",
  "6035": "erer",
  "6036": "erer",
  "6037": "erer",
  "6038": "erer",
  "6039": "erer",
  "6040": "erer",
  "6041": "erer",
  "6042": "erer",
  "6043": "erer",
  "6044": "erer",
  "6045": "erer",
  "6046": "erer",
  "6047": "erer",
  "6048": "erer",
  "6049": "erer",
  "6050": "erer",
  "6051": "erer",
  "6052": "erer",
  "6053": "erer",
  "6054": "erer",
  "6055": "erer",
  "6056": "erer",
  "6057": "erer",
  "6058": "erer",
  "6059": "erer",
  "6060": "erer",
  "6061": "erer",
  "6062": "erer",
  "6063": "erer",
  "6064": "erer",
  "6065": "erer",
  "6066": "erer",
  "6067": "erer",
  "6068": "erer",
  "6069": "erer",
  "6070": "erer",
  "6071": "erer",
  "6072": "erer",
  "6073": "erer",
  "6074": "erer",
  "6075": "erer",
  "6076": "erer",
  "6077": "erer",
  "6078": "erer",
  "6079": "erer",
  "6080": "erer",
  "6081": "erer",
  "6082": "erer",
  "6083": "erer",
  "6084": "erer",
  "6085": "erer",
  "6086": "erer",
  "6087": "erer",
  "6088": "erer",
  "6089": "erer",
  "6090": "erer",
  "6091": "erer",
  "6092": "erer",
  "6093": "erer",
  "6094": "erer",
  "6095": "erer",
  "6096": "erer",
  "6097": "erer",
  "6098": "erer",
  "6099": "erer",
  "6100": "erer",
  "6101": "erer",
  "6102": "erer",
  "6103": "erer",
  "6104": "erer",
  "6105": "erer",
  "6106": "erer",
  "6107": "erer",
  "6108": "erer",
  "6109": "erer",
  "6110": "erer",
  "6111": "erer",
  "6112": "erer",
  "6113": "erer",
  "6114": "erer",
  "6115": "erer",
  "6116": "erer",
  "6117": "erer",
  "6118": "erer",
  "6119": "erer",
  "6120": "erer",
  "6121": "erer",
  "6122": "erer",
  "6123": "erer",
  "6124": "erer",
  "6125": "erer",
  "6126": "erer",
  "6127": "erer",
  "6128": "erer",
  "6129": "erer",
  "6130": "erer",
  "6131": "erer",
  "6132": "erer",
  "6133": "erer",
  "6134": "erer",
  "6135": "erer",
  "6136": "erer",
  "6137": "erer",
  "6138": "erer",
  "6139": "erer",
  "6140": "erer",
  "6141": "erer",
  "6142": "erer",
  "6143": "erer",
  "6144": "erer",
  "6145": "erer",
  "6146": "erer",
  "6147": "erer",
  "6148": "erer",
  "6149": "erer",
  "6150": "erer",
  "6151": "erer",
  "6152": "erer",
  "6153": "erer",
  "6154": "erer",
  "6155": "erer",
  "6156": "erer",
  "6157": "erer",
  "6158": "erer",
  "6159": "erer",
  "6160": "erer",
  "6161": "erer",
  "6162": "erer",
  "6163": "erer",
  "6164": "erer",
  "6165": "erer",
  "6166": "erer",
  "6167": "erer",
  "6168": "erer",
  "6169": "erer",
  "6170": "erer",
  "6171": "erer",
  "6172": "erer",
  "6173": "erer",
  "6174": "erer",
  "6175": "erer",
  "6176": "erer",
  "6177": "erer",
  "6178": "erer",
  "6179": "erer",
  "6180": "erer",
  "6181": "erer",
  "6182": "erer",
  "6183": "erer",
  "6184": "erer",
  "6185": "erer",
  "6186": "erer",
  "6187": "erer",
  "6188": "erer",
  "6189": "erer",
  "6190": "erer",
  "6191": "erer",
  "6192": "erer",
  "6193": "erer",
  "6194": "erer",
  "6195": "erer",
  "6196": "erer",
  "6197": "erer",
  "6198": "erer",
  "6199": "erer",
  "6200": "erer",
  "6201": "erer",
  "6202": "erer",
  "6203": "erer",
  "6204": "erer",
  "6205": "erer",
  "6206": "erer",
  "6207": "erer",
  "6208": "erer",
  "6209": "erer",
  "6210": "erer",
  "6211": "erer",
  "6212": "erer",
  "6213": "erer",
  "6214": "erer",
  "6215": "erer",
  "6216": "erer",
  "6217": "erer",
  "6218": "erer",
  "6219": "erer",
  "6220": "erer",
  "6221": "erer",
  "6222": "erer",
  "6223": "erer",
  "6224": "erer",
  "6225": "erer",
  "6226": "erer",
  "6227": "erer",
  "6228": "erer",
  "6229": "erer",
  "6230": "erer",
  "6231": "erer",
  "6232": "erer",
  "6233": "erer",
  "6234": "erer",
  "6235": "erer",
  "6236": "erer",
  "6237": "erer",
  "6238": "erer",
  "6239": "erer",
  "6240": "erer",
  "6241": "erer",
  "6242": "erer",
  "6243": "erer",
  "6244": "erer",
  "6245": "erer",
  "6246": "erer",
  "6247": "erer",
  "6248": "erer",
  "6249": "erer",
  "6250": "erer",
  "6251": "erer",
  "6252": "erer",
  "6253": "erer",
  "6254": "erer",
  "6255": "erer",
  "6256": "erer",
  "6257": "erer",
  "6258": "erer",
  "6259": "erer",
  "6260": "erer",
  "6261": "erer",
  "6262": "erer",
  "6263": "erer",
  "6264": "erer",
  "6265": "erer",
  "6266": "erer",
  "6267": "erer",
  "6268": "erer",
  "6269": "erer",
  "6270": "erer",
  "6271": "erer",
  "6272": "erer",
  "6273": "erer",
  "6274": "erer",
  "6275": "erer",
  "6276": "erer",
  "6277": "erer",
  "6278": "erer",
  "6279": "erer",
  "6280": "erer",
  "6281": "erer",
  "6282": "erer",
  "6283": "erer",
  "6284": "erer",
  "6285": "erer",
  "6286": "erer",
  "6287": "erer",
  "6288": "erer",
  "6289": "erer",
  "6290": "erer",
  "6291": "erer",
  "6292": "erer",
  "6293": "erer",
  "6294": "erer",
  "6295": "erer",
  "6296": "erer",
  "6297": "erer",
  "6298": "erer",
  "6299": "erer",
  "6300": "erer",
  "6301": "erer",
  "6302": "erer",
  "6303": "erer",
  "6304": "erer",
  "6305": "erer",
  "6306": "erer",
  "6307": "erer",
  "6308": "erer",
  "6309": "erer",
  "6310": "erer",
  "6311": "erer",
  "6312": "erer",
  "6313": "erer",
  "6314": "erer",
  "6315": "erer",
  "6316": "erer",
  "6317": "erer",
  "6318": "erer",
  "6319": "erer",
  "6320": "erer",
  "6321": "erer",
  "6322": "erer",
  "6323": "erer",
  "6324": "erer",
  "6325": "erer",
  "6326": "erer",
  "6327": "erer",
  "6328": "erer",
  "6329": "erer",
  "6330": "erer",
  "6331": "erer",
  "6332": "erer",
  "6333": "erer",
  "6334": "erer",
  "6335": "erer",
  "6336": "erer",
  "6337": "erer",
  "6338": "erer",
  "6339": "erer",
  "6340": "erer",
  "6341": "erer",
  "6342": "erer",
  "6343": "erer",
  "6344": "erer",
  "6345": "erer",
  "6346": "erer",
  "6347": "erer",
  "6348": "erer",
  "6349": "erer",
  "6350": "erer",
  "6351": "erer",
  "6352": "erer",
  "6353": "erer",
  "6354": "erer",
  "6355": "erer",
  "6356": "erer",
  "6357": "erer",
  "6358": "erer",
  "6359": "erer",
  "6360": "erer",
  "6361": "erer",
  "6362": "erer",
  "6363": "erer",
  "6364": "erer",
  "6365": "erer",
  "6366": "erer",
  "6367": "erer",
  "6368": "erer",
  "6369": "erer",
  "6370": "erer",
  "6371": "erer",
  "6372": "erer",
  "6373": "erer",
  "6374": "erer",
  "6375": "erer",
  "6376": "erer",
  "6377": "erer",
  "6378": "erer",
  "6379": "erer",
  "6380": "erer",
  "6381": "erer",
  "6382": "erer",
  "6383": "erer",
  "6384": "erer",
  "6385": "erer",
  "6386": "erer",
  "6387": "erer",
  "6388": "erer",
  "6389": "erer",
  "6390": "erer",
  "6391": "erer",
  "6392": "erer",
  "6393": "erer",
  "6394": "erer",
  "6395": "erer",
  "6396": "erer",
  "6397": "erer",
  "6398": "erer",
  "6399": "erer",
  "6400": "erer",
  "6401": "erer",
  "6402": "erer",
  "6403": "erer",
  "6404": "erer",
  "6405": "erer",
  "6406": "erer",
  "6407": "erer",
  "6408": "erer",
  "6409": "erer",
  "6410": "erer",
  "6411": "erer",
  "6412": "erer",
  "6413": "erer",
  "6414": "erer",
  "6415": "erer",
  "6416": "erer",
  "6417": "erer",
  "6418": "erer",
  "6419": "erer",
  "6420": "erer",
  "6421": "erer",
  "6422": "erer",
  "6423": "erer",
  "6424": "erer",
  "6425": "erer",
  "6426": "erer",
  "6427": "erer",
  "6428": "erer",
  "6429": "erer",
  "6430": "erer",
  "6431": "erer",
  "6432": "erer",
  "6433": "erer",
  "6434": "erer",
  "6435": "erer",
  "6436": "erer",
  "6437": "erer",
  "6438": "erer",
  "6439": "erer",
  "6440": "erer",
  "6441": "erer",
  "6442": "erer",
  "6443": "erer",
  "6444": "erer",
  "6445": "erer",
  "6446": "erer",
  "6447": "erer",
  "6448": "erer",
  "6449": "erer",
  "6450": "erer",
  "6451": "erer",
  "6452": "erer",
  "6453": "erer",
  "6454": "erer",
  "6455": "erer",
  "6456": "erer",
  "6457": "erer",
  "6458": "erer",
  "6459": "erer",
  "6460": "erer",
  "6461": "erer",
  "6462": "erer",
  "6463": "erer",
  "6464": "erer",
  "6465": "erer",
  "6466": "erer",
  "6467": "erer",
  "6468": "erer",
  "6469": "erer",
  "6470": "erer",
  "6471": "erer",
  "6472": "erer",
  "6473": "erer",
  "6474": "erer",
  "6475": "erer",
  "6476": "erer",
  "6477": "erer",
  "6478": "erer",
  "6479": "erer",
  "6480": "erer",
  "6481": "erer",
  "6482": "erer",
  "6483": "erer",
  "6484": "erer",
  "6485": "erer",
  "6486": "erer",
  "6487": "erer",
  "6488": "erer",
  "6489": "erer",
  "6490": "erer",
  "6491": "erer",
  "6492": "erer",
  "6493": "erer",
  "6494": "erer",
  "6495": "erer",
  "6496": "erer",
  "6497": "erer",
  "6498": "erer",
  "6499": "erer",
  "6500": "erer",
  "6501": "erer",
  "6502": "erer",
  "6503": "erer",
  "6504": "erer",
  "6505": "erer",
  "6506": "erer",
  "6507": "erer",
  "6508": "erer",
  "6509": "erer",
  "6510": "erer",
  "6511": "erer",
  "6512": "erer",
  "6513": "erer",
  "6514": "erer",
  "6515": "erer",
  "6516": "erer",
  "6517": "erer",
  "6518": "erer",
  "6519": "erer",
  "6520": "erer",
  "6521": "erer",
  "6522": "erer",
  "6523": "erer",
  "6524": "erer",
  "6525": "erer",
  "6526": "erer",
  "6527": "erer",
  "6528": "erer",
  "6529": "erer",
  "6530": "erer",
  "6531": "erer",
  "6532": "erer",
  "6533": "erer",
  "6534": "erer",
  "6535": "erer",
  "6536": "erer",
  "6537": "erer",
  "6538": "erer",
  "6539": "erer",
  "6540": "erer",
  "6541": "erer",
  "6542": "erer",
  "6543": "erer",
  "6544": "erer",
  "6545": "erer",
  "6546": "erer",
  "6547": "erer",
  "6548": "erer",
  "6549": "erer",
  "6550": "erer",
  "6551": "erer",
  "6552": "erer",
  "6553": "erer",
  "6554": "erer",
  "6555": "erer",
  "6556": "erer",
  "6557": "erer",
  "6558": "erer",
  "6559": "erer",
  "6560": "erer",
  "6561": "erer",
  "6562": "erer",
  "6563": "erer",
  "6564": "erer",
  "6565": "erer",
  "6566": "erer",
  "6567": "erer",
  "6568": "erer",
  "6569": "erer",
  "6570": "erer",
  "6571": "erer",
  "6572": "erer",
  "6573": "erer",
  "6574": "erer",
  "6575": "erer",
  "6576": "erer",
  "6577": "erer",
  "6578": "erer",
  "6579": "erer",
  "6580": "erer",
  "6581": "erer",
  "6582": "erer",
  "6583": "erer",
  "6584": "erer",
  "6585": "erer",
  "6586": "erer",
  "6587": "erer",
  "6588": "erer",
  "6589": "erer",
  "6590": "erer",
  "6591": "erer",
  "6592": "erer",
  "6593": "erer",
  "6594": "erer",
  "6595": "erer",
  "6596": "erer",
  "6597": "erer",
  "6598": "erer",
  "6599": "erer",
  "6600": "erer",
  "6601": "erer",
  "6602": "erer",
  "6603": "erer",
  "6604": "erer",
  "6605": "erer",
  "6606": "erer",
  "6607": "erer",
  "6608": "erer",
  "6609": "erer",
  "6610": "erer",
  "6611": "erer",
  "6612": "erer",
  "6613": "erer",
  "6614": "erer",
  "6615": "erer",
  "6616": "erer",
  "6617": "erer",
  "6618": "erer",
  "6619": "erer",
  "6620": "erer",
  "6621": "erer",
  "6622": "erer",
  "6623": "erer",
  "6624": "erer",
  "6625": "erer",
  "6626": "erer",
  "6627": "erer",
  "6628": "erer",
  "6629": "erer",
  "6630": "erer",
  "6631": "erer",
  "6632": "erer",
  "6633": "erer",
  "6634": "erer",
  "6635": "erer",
  "6636": "erer",
  "6637": "erer",
  "6638": "erer",
  "6639": "erer",
  "6640": "erer",
  "6641": "erer",
  "6642": "erer",
  "6643": "erer",
  "6644": "erer",
  "6645": "erer",
  "6646": "erer",
  "6647": "erer",
  "6648": "erer",
  "6649": "erer",
  "6650": "erer",
  "6651": "erer",
  "6652": "erer",
  "6653": "erer",
  "6654": "erer",
  "6655": "erer",
  "6656": "erer",
  "6657": "erer",
  "6658": "erer",
  "6659": "erer",
  "6660": "erer",
  "6661": "erer",
  "6662": "erer",
  "6663": "erer",
  "6664": "erer",
  "6665": "erer",
  "6666": "erer",
  "6667": "erer",
  "6668": "erer",
  "6669": "erer",
  "6670": "erer",
  "6671": "erer",
  "6672": "erer",
  "6673": "erer",
  "6674": "erer",
  "6675": "erer",
  "6676": "erer",
  "6677": "erer",
  "6678": "erer",
  "6679": "erer",
  "6680": "erer",
  "6681": "erer",
  "6682": "erer",
  "6683": "erer",
  "6684": "erer",
  "6685": "erer",
  "6686": "erer",
  "6687": "erer",
  "6688": "erer",
  "6689": "erer",
  "6690": "erer",
  "6691": "erer",
  "6692": "erer",
  "6693": "erer",
  "6694": "erer",
  "6695": "erer",
  "6696": "erer",
  "6697": "erer",
  "6698": "erer",
  "6699": "erer",
  "6700": "erer",
  "6701": "erer",
  "6702": "erer",
  "6703": "erer",
  "6704": "erer",
  "6705": "erer",
  "6706": "erer",
  "6707": "erer",
  "6708": "erer",
  "6709": "erer",
  "6710": "erer",
  "6711": "erer",
  "6712": "erer",
  "6713": "erer",
  "6714": "erer",
  "6715": "erer",
  "6716": "erer",
  "6717": "erer",
  "6718": "erer",
  "6719": "erer",
  "6720": "erer",
  "6721": "erer",
  "6722": "erer",
  "6723": "erer",
  "6724": "erer",
  "6725": "erer",
  "6726": "erer",
  "6727": "erer",
  "6728": "erer",
  "6729": "erer",
  "6730": "erer",
  "6731": "erer",
  "6732": "erer",
  "6733": "erer",
  "6734": "erer",
  "6735": "erer",
  "6736": "erer",
  "6737": "erer",
  "6738": "erer",
  "6739": "erer",
  "6740": "erer",
  "6741": "erer",
  "6742": "erer",
  "6743": "erer",
  "6744": "erer",
  "6745": "erer",
  "6746": "erer",
  "6747": "erer",
  "6748": "erer",
  "6749": "erer",
  "6750": "erer",
  "6751": "erer",
  "6752": "erer",
  "6753": "erer",
  "6754": "erer",
  "6755": "erer",
  "6756": "erer",
  "6757": "erer",
  "6758": "erer",
  "6759": "erer",
  "6760": "erer",
  "6761": "erer",
  "6762": "erer",
  "6763": "erer",
  "6764": "erer",
  "6765": "erer",
  "6766": "erer",
  "6767": "erer",
  "6768": "erer",
  "6769": "erer",
  "6770": "erer",
  "6771": "erer",
  "6772": "erer",
  "6773": "erer",
  "6774": "erer",
  "6775": "erer",
  "6776": "erer",
  "6777": "erer",
  "6778": "erer",
  "6779": "erer",
  "6780": "erer",
  "6781": "erer",
  "6782": "erer",
  "6783": "erer",
  "6784": "erer",
  "6785": "erer",
  "6786": "erer",
  "6787": "erer",
  "6788": "erer",
  "6789": "erer",
  "6790": "erer",
  "6791": "erer",
  "6792": "erer",
  "6793": "erer",
  "6794": "erer",
  "6795": "erer",
  "6796": "erer",
  "6797": "erer",
  "6798": "erer",
  "6799": "erer",
  "6800": "erer",
  "6801": "erer",
  "6802": "erer",
  "6803": "erer",
  "6804": "erer",
  "6805": "erer",
  "6806": "erer",
  "6807": "erer",
  "6808": "erer",
  "6809": "erer",
  "6810": "erer",
  "6811": "erer",
  "6812": "erer",
  "6813": "erer",
  "6814": "erer",
  "6815": "erer",
  "6816": "erer",
  "6817": "erer",
  "6818": "erer",
  "6819": "erer",
  "6820": "erer",
  "6821": "erer",
  "6822": "erer",
  "6823": "erer",
  "6824": "erer",
  "6825": "erer",
  "6826": "erer",
  "6827": "erer",
  "6828": "erer",
  "6829": "erer",
  "6830": "erer",
  "6831": "erer",
  "6832": "erer",
  "6833": "erer",
  "6834": "erer",
  "6835": "erer",
  "6836": "erer",
  "6837": "erer",
  "6838": "erer",
  "6839": "erer",
  "6840": "erer",
  "6841": "erer",
  "6842": "erer",
  "6843": "erer",
  "6844": "erer",
  "6845": "erer",
  "6846": "erer",
  "6847": "erer",
  "6848": "erer",
  "6849": "erer",
  "6850": "erer",
  "6851": "erer",
  "6852": "erer",
  "6853": "erer",
  "6854": "erer",
  "6855": "erer",
  "6856": "erer",
  "6857": "erer",
  "6858": "erer",
  "6859": "erer",
  "6860": "erer",
  "6861": "erer",
  "6862": "erer",
  "6863": "erer",
  "6864": "erer",
  "6865": "erer",
  "6866": "erer",
  "6867": "erer",
  "6868": "erer",
  "6869": "erer",
  "6870": "erer",
  "6871": "erer",
  "6872": "erer",
  "6873": "erer",
  "6874": "erer",
  "6875": "erer",
  "6876": "erer",
  "6877": "erer",
  "6878": "erer",
  "6879": "erer",
  "6880": "erer",
  "6881": "erer",
  "6882": "erer",
  "6883": "erer",
  "6884": "erer",
  "6885": "erer",
  "6886": "erer",
  "6887": "erer",
  "6888": "erer",
  "6889": "erer",
  "6890": "erer",
  "6891": "erer",
  "6892": "erer",
  "6893": "erer",
  "6894": "erer",
  "6895": "erer",
  "6896": "erer",
  "6897": "erer",
  "6898": "erer",
  "6899": "erer",
  "6900": "erer",
  "6901": "erer",
  "6902": "erer",
  "6903": "erer",
  "6904": "erer",
  "6905": "erer",
  "6906": "erer",
  "6907": "erer",
  "6908": "erer",
  "6909": "erer",
  "6910": "erer",
  "6911": "erer",
  "6912": "erer",
  "6913": "erer",
  "6914": "erer",
  "6915": "erer",
  "6916": "erer",
  "6917": "erer",
  "6918": "erer",
  "6919": "erer",
  "6920": "erer",
  "6921": "erer",
  "6922": "erer",
  "6923": "erer",
  "6924": "erer",
  "6925": "erer",
  "6926": "erer",
  "6927": "erer",
  "6928": "erer",
  "6929": "erer",
  "6930": "erer",
  "6931": "erer",
  "6932": "erer",
  "6933": "erer",
  "6934": "erer",
  "6935": "erer",
  "6936": "erer",
  "6937": "erer",
  "6938": "erer",
  "6939": "erer",
  "6940": "erer",
  "6941": "erer",
  "6942": "erer",
  "6943": "erer",
  "6944": "erer",
  "6945": "erer",
  "6946": "erer",
  "6947": "erer",
  "6948": "erer",
  "6949": "erer",
  "6950": "erer",
  "6951": "erer",
  "6952": "erer",
  "6953": "erer",
  "6954": "erer",
  "6955": "erer",
  "6956": "erer",
  "6957": "erer",
  "6958": "erer",
  "6959": "erer",
  "6960": "erer",
  "6961": "erer",
  "6962": "erer",
  "6963": "erer",
  "6964": "erer",
  "6965": "erer",
  "6966": "erer",
  "6967": "erer",
  "6968": "erer",
  "6969": "erer",
  "6970": "erer",
  "6971": "erer",
  "6972": "erer",
  "6973": "erer",
  "6974": "erer",
  "6975": "erer",
  "6976": "erer",
  "6977": "erer",
  "6978": "erer",
  "6979": "erer",
  "6980": "erer",
  "6981": "erer",
  "6982": "erer",
  "6983": "erer",
  "6984": "erer",
  "6985": "erer",
  "6986": "erer",
  "6987": "erer",
  "6988": "erer",
  "6989": "erer",
  "6990": "erer",
  "6991": "erer",
  "6992": "erer",
  "6993": "erer",
  "6994": "erer",
  "6995": "erer",
  "6996": "erer",
  "6997": "erer",
  "6998": "erer",
  "6999": "erer",
  "7000": "erer",
  "7001": "erer",
  "7002": "erer",
  "7003": "erer",
  "7004": "erer",
  "7005": "erer",
  "7006": "erer",
  "7007": "erer",
  "7008": "erer",
  "7009": "erer",
  "7010": "erer",
  "7011": "erer",
  "7012": "erer",
  "7013": "erer",
  "7014": "erer",
  "7015": "erer",
  "7016": "erer",
  "7017": "erer",
  "7018": "erer",
  "7019": "erer",
  "7020": "erer",
  "7021": "erer",
  "7022": "erer",
  "7023": "erer",
  "7024": "erer",
  "7025": "erer",
  "7026": "erer",
  "7027": "erer",
  "7028": "erer",
  "7029": "erer",
  "7030": "erer",
  "7031": "erer",
  "7032": "erer",
  "7033": "erer",
  "7034": "erer",
  "7035": "erer",
  "7036": "erer",
  "7037": "erer",
  "7038": "erer",
  "7039": "erer",
  "7040": "erer",
  "7041": "erer",
  "7042": "erer",
  "7043": "erer",
  "7044": "erer",
  "7045": "erer",
  "7046": "erer",
  "7047": "erer",
  "7048": "erer",
  "7049": "erer",
  "7050": "erer",
  "7051": "erer",
  "7052": "erer",
  "7053": "erer",
  "7054": "erer",
  "7055": "erer",
  "7056": "erer",
  "7057": "erer",
  "7058": "erer",
  "7059": "erer",
  "7060": "erer",
  "7061": "erer",
  "7062": "erer",
  "7063": "erer",
  "7064": "erer",
  "7065": "erer",
  "7066": "erer",
  "7067": "erer",
  "7068": "erer",
  "7069": "erer",
  "7070": "erer",
  "7071": "erer",
  "7072": "erer",
  "7073": "erer",
  "7074": "erer",
  "7075": "erer",
  "7076": "erer",
  "7077": "erer",
  "7078": "erer",
  "7079": "erer",
  "7080": "erer",
  "7081": "erer",
  "7082": "erer",
  "7083": "erer",
  "7084": "erer",
  "7085": "erer",
  "7086": "erer",
  "7087": "erer",
  "7088": "erer",
  "7089": "erer",
  "7090": "erer",
  "7091": "erer",
  "7092": "erer",
  "7093": "erer",
  "7094": "erer",
  "7095": "erer",
  "7096": "erer",
  "7097": "erer",
  "7098": "erer",
  "7099": "erer",
  "7100": "erer",
  "7101": "erer",
  "7102": "erer",
  "7103": "erer",
  "7104": "erer",
  "7105": "erer",
  "7106": "erer",
  "7107": "erer",
  "7108": "erer",
  "7109": "erer",
  "7110": "erer",
  "7111": "erer",
  "7112": "erer",
  "7113": "erer",
  "7114": "erer",
  "7115": "erer",
  "7116": "erer",
  "7117": "erer",
  "7118": "erer",
  "7119": "erer",
  "7120": "erer",
  "7121": "erer",
  "7122": "erer",
  "7123": "erer",
  "7124": "erer",
  "7125": "erer",
  "7126": "erer",
  "7127": "erer",
  "7128": "erer",
  "7129": "erer",
  "7130": "erer",
  "7131": "erer",
  "7132": "erer",
  "7133": "erer",
  "7134": "erer",
  "7135": "erer",
  "7136": "erer",
  "7137": "erer",
  "7138": "erer",
  "7139": "erer",
  "7140": "erer",
  "7141": "erer",
  "7142": "erer",
  "7143": "erer",
  "7144": "erer",
  "7145": "erer",
  "7146": "erer",
  "7147": "erer",
  "7148": "erer",
  "7149": "erer",
  "7150": "erer",
  "7151": "erer",
  "7152": "erer",
  "7153": "erer",
  "7154": "erer",
  "7155": "erer",
  "7156": "erer",
  "7157": "erer",
  "7158": "erer",
  "7159": "erer",
  "7160": "erer",
  "7161": "erer",
  "7162": "erer",
  "7163": "erer",
  "7164": "erer",
  "7165": "erer",
  "7166": "erer",
  "7167": "erer",
  "7168": "erer",
  "7169": "erer",
  "7170": "erer",
  "7171": "erer",
  "7172": "erer",
  "7173": "erer",
  "7174": "erer",
  "7175": "erer",
  "7176": "erer",
  "7177": "erer",
  "7178": "erer",
  "7179": "erer",
  "7180": "erer",
  "7181": "erer",
  "7182": "erer",
  "7183": "erer",
  "7184": "erer",
  "7185": "erer",
  "7186": "erer",
  "7187": "erer",
  "7188": "erer",
  "7189": "erer",
  "7190": "erer",
  "7191": "erer",
  "7192": "erer",
  "7193": "erer",
  "7194": "erer",
  "7195": "erer",
  "7196": "erer",
  "7197": "erer",
  "7198": "erer",
  "7199": "erer",
  "7200": "erer",
  "7201": "erer",
  "7202": "erer",
  "7203": "erer",
  "7204": "erer",
  "7205": "erer",
  "7206": "erer",
  "7207": "erer",
  "7208": "erer",
  "7209": "erer",
  "7210": "erer",
  "7211": "erer",
  "7212": "erer",
  "7213": "erer",
  "7214": "erer",
  "7215": "erer",
  "7216": "erer",
  "7217": "erer",
  "7218": "erer",
  "7219": "erer",
  "7220": "erer",
  "7221": "erer",
  "7222": "erer",
  "7223": "erer",
  "7224": "erer",
  "7225": "erer",
  "7226": "erer",
  "7227": "erer",
  "7228": "erer",
  "7229": "erer",
  "7230": "erer",
  "7231": "erer",
  "7232": "erer",
  "7233": "erer",
  "7234": "erer",
  "7235": "erer",
  "7236": "erer",
  "7237": "erer",
  "7238": "erer",
  "7239": "erer",
  "7240": "erer",
  "7241": "erer",
  "7242": "erer",
  "7243": "erer",
  "7244": "erer",
  "7245": "erer",
  "7246": "erer",
  "7247": "erer",
  "7248": "erer",
  "7249": "erer",
  "7250": "erer",
  "7251": "erer",
  "7252": "erer",
  "7253": "erer",
  "7254": "erer",
  "7255": "erer",
  "7256": "erer",
  "7257": "erer",
  "7258": "erer",
  "7259": "erer",
  "7260": "erer",
  "7261": "erer",
  "7262": "erer",
  "7263": "erer",
  "7264": "erer",
  "7265": "erer",
  "7266": "erer",
  "7267": "erer",
  "7268": "erer",
  "7269": "erer",
  "7270": "erer",
  "7271": "erer",
  "7272": "erer",
  "7273": "erer",
  "7274": "erer",
  "7275": "erer",
  "7276": "erer",
  "7277": "erer",
  "7278": "erer",
  "7279": "erer",
  "7280": "erer",
  "7281": "erer",
  "7282": "erer",
  "7283": "erer",
  "7284": "erer",
  "7285": "erer",
  "7286": "erer",
  "7287": "erer",
  "7288": "erer",
  "7289": "erer",
  "7290": "erer",
  "7291": "erer",
  "7292": "erer",
  "7293": "erer",
  "7294": "erer",
  "7295": "erer",
  "7296": "erer",
  "7297": "erer",
  "7298": "erer",
  "7299": "erer",
  "7300": "erer",
  "7301": "erer",
  "7302": "erer",
  "7303": "erer",
  "7304": "erer",
  "7305": "erer",
  "7306": "erer",
  "7307": "erer",
  "7308": "erer",
  "7309": "erer",
  "7310": "erer",
  "7311": "erer",
  "7312": "erer",
  "7313": "erer",
  "7314": "erer",
  "7315": "erer",
  "7316": "erer",
  "7317": "erer",
  "7318": "erer",
  "7319": "erer",
  "7320": "erer",
  "7321": "erer",
  "7322": "erer",
  "7323": "erer",
  "7324": "erer",
  "7325": "erer",
  "7326": "erer",
  "7327": "erer",
  "7328": "erer",
  "7329": "erer",
  "7330": "erer",
  "7331": "erer",
  "7332": "erer",
  "7333": "erer",
  "7334": "erer",
  "7335": "erer",
  "7336": "erer",
  "7337": "erer",
  "7338": "erer",
  "7339": "erer",
  "7340": "erer",
  "7341": "erer",
  "7342": "erer",
  "7343": "erer",
  "7344": "erer",
  "7345": "erer",
  "7346": "erer",
  "7347": "erer",
  "7348": "erer",
  "7349": "erer",
  "7350": "erer",
  "7351": "erer",
  "7352": "erer",
  "7353": "erer",
  "7354": "erer",
  "7355": "erer",
  "7356": "erer",
  "7357": "erer",
  "7358": "erer",
  "7359": "erer",
  "7360": "erer",
  "7361": "erer",
  "7362": "erer",
  "7363": "erer",
  "7364": "erer",
  "7365": "erer",
  "7366": "erer",
  "7367": "erer",
  "7368": "erer",
  "7369": "erer",
  "7370": "erer",
  "7371": "erer",
  "7372": "erer",
  "7373": "erer",
  "7374": "erer",
  "7375": "erer",
  "7376": "erer",
  "7377": "erer",
  "7378": "erer",
  "7379": "erer",
  "7380": "erer",
  "7381": "erer",
  "7382": "erer",
  "7383": "erer",
  "7384": "erer",
  "7385": "erer",
  "7386": "erer",
  "7387": "erer",
  "7388": "erer",
  "7389": "erer",
  "7390": "erer",
  "7391": "erer",
  "7392": "erer",
  "7393": "erer",
  "7394": "erer",
  "7395": "erer",
  "7396": "erer",
  "7397": "erer",
  "7398": "erer",
  "7399": "erer",
  "7400": "erer",
  "7401": "erer",
  "7402": "erer",
  "7403": "erer",
  "7404": "erer",
  "7405": "erer",
  "7406": "erer",
  "7407": "erer",
  "7408": "erer",
  "7409": "erer",
  "7410": "erer",
  "7411": "erer",
  "7412": "erer",
  "7413": "erer",
  "7414": "erer",
  "7415": "erer",
  "7416": "erer",
  "7417": "erer",
  "7418": "erer",
  "7419": "erer",
  "7420": "erer",
  "7421": "erer",
  "7422": "erer",
  "7423": "erer",
  "7424": "erer",
  "7425": "erer",
  "7426": "erer",
  "7427": "erer",
  "7428": "erer",
  "7429": "erer",
  "7430": "erer",
  "7431": "erer",
  "7432": "erer",
  "7433": "erer",
  "7434": "erer",
  "7435": "erer",
  "7436": "erer",
  "7437": "erer",
  "7438": "erer",
  "7439": "erer",
  "7440": "erer",
  "7441": "erer",
  "7442": "erer",
  "7443": "erer",
  "7444": "erer",
  "7445": "erer",
  "7446": "erer",
  "7447": "erer",
  "7448": "erer",
  "7449": "erer",
  "7450": "erer",
  "7451": "erer",
  "7452": "erer",
  "7453": "erer",
  "7454": "erer",
  "7455": "erer",
  "7456": "erer",
  "7457": "erer",
  "7458": "erer",
  "7459": "erer",
  "7460": "erer",
  "7461": "erer",
  "7462": "erer",
  "7463": "erer",
  "7464": "erer",
  "7465": "erer",
  "7466": "erer",
  "7467": "erer",
  "7468": "erer",
  "7469": "erer",
  "7470": "erer",
  "7471": "erer",
  "7472": "erer",
  "7473": "erer",
  "7474": "erer",
  "7475": "erer",
  "7476": "erer",
  "7477": "erer",
  "7478": "erer",
  "7479": "erer",
  "7480": "erer",
  "7481": "erer",
  "7482": "erer",
  "7483": "erer",
  "7484": "erer",
  "7485": "erer",
  "7486": "erer",
  "7487": "erer",
  "7488": "erer",
  "7489": "erer",
  "7490": "erer",
  "7491": "erer",
  "7492": "erer",
  "7493": "erer",
  "7494": "erer",
  "7495": "erer",
  "7496": "erer",
  "7497": "erer",
  "7498": "erer",
  "7499": "erer",
  "7500": "erer",
  "7501": "erer",
  "7502": "erer",
  "7503": "erer",
  "7504": "erer",
  "7505": "erer",
  "7506": "erer",
  "7507": "erer",
  "7508": "erer",
  "7509": "erer",
  "7510": "erer",
  "7511": "erer",
  "7512": "erer",
  "7513": "erer",
  "7514": "erer",
  "7515": "erer",
  "7516": "erer",
  "7517": "erer",
  "7518": "erer",
  "7519": "erer",
  "7520": "erer",
  "7521": "erer",
  "7522": "erer",
  "7523": "erer",
  "7524": "erer",
  "7525": "erer",
  "7526": "erer",
  "7527": "erer",
  "7528": "erer",
  "7529": "erer",
  "7530": "erer",
  "7531": "erer",
  "7532": "erer",
  "7533": "erer",
  "7534": "erer",
  "7535": "erer",
  "7536": "erer",
  "7537": "erer",
  "7538": "erer",
  "7539": "erer",
  "7540": "erer",
  "7541": "erer",
  "7542": "erer",
  "7543": "erer",
  "7544": "erer",
  "7545": "erer",
  "7546": "erer",
  "7547": "erer",
  "7548": "erer",
  "7549": "erer",
  "7550": "erer",
  "7551": "erer",
  "7552": "erer",
  "7553": "erer",
  "7554": "erer",
  "7555": "erer",
  "7556": "erer",
  "7557": "erer",
  "7558": "erer",
  "7559": "erer",
  "7560": "erer",
  "7561": "erer",
  "7562": "erer",
  "7563": "erer",
  "7564": "erer",
  "7565": "erer",
  "7566": "erer",
  "7567": "erer",
  "7568": "erer",
  "7569": "erer",
  "7570": "erer",
  "7571": "erer",
  "7572": "erer",
  "7573": "erer",
  "7574": "erer",
  "7575": "erer",
  "7576": "erer",
  "7577": "erer",
  "7578": "erer",
  "7579": "erer",
  "7580": "erer",
  "7581": "erer",
  "7582": "erer",
  "7583": "erer",
  "7584": "erer",
  "7585": "erer",
  "7586": "erer",
  "7587": "erer",
  "7588": "erer",
  "7589": "erer",
  "7590": "erer",
  "7591": "erer",
  "7592": "erer",
  "7593": "erer",
  "7594": "erer",
  "7595": "erer",
  "7596": "erer",
  "7597": "erer",
  "7598": "erer",
  "7599": "erer",
  "7600": "erer",
  "7601": "erer",
  "7602": "erer",
  "7603": "erer",
  "7604": "erer",
  "7605": "erer",
  "7606": "erer",
  "7607": "erer",
  "7608": "erer",
  "7609": "erer",
  "7610": "erer",
  "7611": "erer",
  "7612": "erer",
  "7613": "erer",
  "7614": "erer",
  "7615": "erer",
  "7616": "erer",
  "7617": "erer",
  "7618": "erer",
  "7619": "erer",
  "7620": "erer",
  "7621": "erer",
  "7622": "erer",
  "7623": "erer",
  "7624": "erer",
  "7625": "erer",
  "7626": "erer",
  "7627": "erer",
  "7628": "erer",
  "7629": "erer",
  "7630": "erer",
  "7631": "erer",
  "7632": "erer",
  "7633": "erer",
  "7634": "erer",
  "7635": "erer",
  "7636": "erer",
  "7637": "erer",
  "7638": "erer",
  "7639": "erer",
  "7640": "erer",
  "7641": "erer",
  "7642": "erer",
  "7643": "erer",
  "7644": "erer",
  "7645": "erer",
  "7646": "erer",
  "7647": "erer",
  "7648": "erer",
  "7649": "erer",
  "7650": "erer",
  "7651": "erer",
  "7652": "erer",
  "7653": "erer",
  "7654": "erer",
  "7655": "erer",
  "7656": "erer",
  "7657": "erer",
  "7658": "erer",
  "7659": "erer",
  "7660": "erer",
  "7661": "erer",
  "7662": "erer",
  "7663": "erer",
  "7664": "erer",
  "7665": "erer",
  "7666": "erer",
  "7667": "erer",
  "7668": "erer",
  "7669": "erer",
  "7670": "erer",
  "7671": "erer",
  "7672": "erer",
  "7673": "erer",
  "7674": "erer",
  "7675": "erer",
  "7676": "erer",
  "7677": "erer",
  "7678": "erer",
  "7679": "erer",
  "7680": "erer",
  "7681": "erer",
  "7682": "erer",
  "7683": "erer",
  "7684": "erer",
  "7685": "erer",
  "7686": "erer",
  "7687": "erer",
  "7688": "erer",
  "7689": "erer",
  "7690": "erer",
  "7691": "erer",
  "7692": "erer",
  "7693": "erer",
  "7694": "erer",
  "7695": "erer",
  "7696": "erer",
  "7697": "erer",
  "7698": "erer",
  "7699": "erer",
  "7700": "erer",
  "7701": "erer",
  "7702": "erer",
  "7703": "erer",
  "7704": "erer",
  "7705": "erer",
  "7706": "erer",
  "7707": "erer",
  "7708": "erer",
  "7709": "erer",
  "7710": "erer",
  "7711": "erer",
  "7712": "erer",
  "7713": "erer",
  "7714": "erer",
  "7715": "erer",
  "7716": "erer",
  "7717": "erer",
  "7718": "erer",
  "7719": "erer",
  "7720": "erer",
  "7721": "erer",
  "7722": "erer",
  "7723": "erer",
  "7724": "erer",
  "7725": "erer",
  "7726": "erer",
  "7727": "erer",
  "7728": "erer",
  "7729": "erer",
  "7730": "erer",
  "7731": "erer",
  "7732": "erer",
  "7733": "erer",
  "7734": "erer",
  "7735": "erer",
  "7736": "erer",
  "7737": "erer",
  "7738": "erer",
  "7739": "erer",
  "7740": "erer",
  "7741": "erer",
  "7742": "erer",
  "7743": "erer",
  "7744": "erer",
  "7745": "erer",
  "7746": "erer",
  "7747": "erer",
  "7748": "erer",
  "7749": "erer",
  "7750": "erer",
  "7751": "erer",
  "7752": "erer",
  "7753": "erer",
  "7754": "erer",
  "7755": "erer",
  "7756": "erer",
  "7757": "erer",
  "7758": "erer",
  "7759": "erer",
  "7760": "erer",
  "7761": "erer",
  "7762": "erer",
  "7763": "erer",
  "7764": "erer",
  "7765": "erer",
  "7766": "erer",
  "7767": "erer",
  "7768": "erer",
  "7769": "erer",
  "7770": "erer",
  "7771": "erer",
  "7772": "erer",
  "7773": "erer",
  "7774": "erer",
  "7775": "erer",
  "7776": "erer",
  "7777": "erer",
  "7778": "erer",
  "7779": "erer",
  "7780": "erer",
  "7781": "erer",
  "7782": "erer",
  "7783": "erer",
  "7784": "erer",
  "7785": "erer",
  "7786": "erer",
  "7787": "erer",
  "7788": "erer",
  "7789": "erer",
  "7790": "erer",
  "7791": "erer",
  "7792": "erer",
  "7793": "erer",
  "7794": "erer",
  "7795": "erer",
  "7796": "erer",
  "7797": "erer",
  "7798": "erer",
  "7799": "erer",
  "7800": "erer",
  "7801": "erer",
  "7802": "erer",
  "7803": "erer",
  "7804": "erer",
  "7805": "erer",
  "7806": "erer",
  "7807": "erer",
  "7808": "erer",
  "7809": "erer",
  "7810": "erer",
  "7811": "erer",
  "7812": "erer",
  "7813": "erer",
  "7814": "erer",
  "7815": "erer",
  "7816": "erer",
  "7817": "erer",
  "7818": "erer",
  "7819": "erer",
  "7820": "erer",
  "7821": "erer",
  "7822": "erer",
  "7823": "erer",
  "7824": "erer",
  "7825": "erer",
  "7826": "erer",
  "7827": "erer",
  "7828": "erer",
  "7829": "erer",
  "7830": "erer",
  "7831": "erer",
  "7832": "erer",
  "7833": "erer",
  "7834": "erer",
  "7835": "erer",
  "7836": "erer",
  "7837": "erer",
  "7838": "erer",
  "7839": "erer",
  "7840": "erer",
  "7841": "erer",
  "7842": "erer",
  "7843": "erer",
  "7844": "erer",
  "7845": "erer",
  "7846": "erer",
  "7847": "erer",
  "7848": "erer",
  "7849": "erer",
  "7850": "erer",
  "7851": "erer",
  "7852": "erer",
  "7853": "erer",
  "7854": "erer",
  "7855": "erer",
  "7856": "erer",
  "7857": "erer",
  "7858": "erer",
  "7859": "erer",
  "7860": "erer",
  "7861": "erer",
  "7862": "erer",
  "7863": "erer",
  "7864": "erer",
  "7865": "erer",
  "7866": "erer",
  "7867": "erer",
  "7868": "erer",
  "7869": "erer",
  "7870": "erer",
  "7871": "erer",
  "7872": "erer",
  "7873": "erer",
  "7874": "erer",
  "7875": "erer",
  "7876": "erer",
  "7877": "erer",
  "7878": "erer",
  "7879": "erer",
  "7880": "erer",
  "7881": "erer",
  "7882": "erer",
  "7883": "erer",
  "7884": "erer",
  "7885": "erer",
  "7886": "erer",
  "7887": "erer",
  "7888": "erer",
  "7889": "erer",
  "7890": "erer",
  "7891": "erer",
  "7892": "erer",
  "7893": "erer",
  "7894": "erer",
  "7895": "erer",
  "7896": "erer",
  "7897": "erer",
  "7898": "erer",
  "7899": "erer",
  "7900": "erer",
  "7901": "erer",
  "7902": "erer",
  "7903": "erer",
  "7904": "erer",
  "7905": "erer",
  "7906": "erer",
  "7907": "erer",
  "7908": "erer",
  "7909": "erer",
  "7910": "erer",
  "7911": "erer",
  "7912": "erer",
  "7913": "erer",
  "7914": "erer",
  "7915": "erer",
  "7916": "erer",
  "7917": "erer",
  "7918": "erer",
  "7919": "erer",
  "7920": "erer",
  "7921": "erer",
  "7922": "erer",
  "7923": "erer",
  "7924": "erer",
  "7925": "erer",
  "7926": "erer",
  "7927": "erer",
  "7928": "erer",
  "7929": "erer",
  "7930": "erer",
  "7931": "erer",
  "7932": "erer",
  "7933": "erer",
  "7934": "erer",
  "7935": "erer",
  "7936": "erer",
  "7937": "erer",
  "7938": "erer",
  "7939": "erer",
  "7940": "erer",
  "7941": "erer",
  "7942": "erer",
  "7943": "erer",
  "7944": "erer",
  "7945": "erer",
  "7946": "erer",
  "7947": "erer",
  "7948": "erer",
  "7949": "erer",
  "7950": "erer",
  "7951": "erer",
  "7952": "erer",
  "7953": "erer",
  "7954": "erer",
  "7955": "erer",
  "7956": "erer",
  "7957": "erer",
  "7958": "erer",
  "7959": "erer",
  "7960": "erer",
  "7961": "erer",
  "7962": "erer",
  "7963": "erer",
  "7964": "erer",
  "7965": "erer",
  "7966": "erer",
  "7967": "erer",
  "7968": "erer",
  "7969": "erer",
  "7970": "erer",
  "7971": "erer",
  "7972": "erer",
  "7973": "erer",
  "7974": "erer",
  "7975": "erer",
  "7976": "erer",
  "7977": "erer",
  "7978": "erer",
  "7979": "erer",
  "7980": "erer",
  "7981": "erer",
  "7982": "erer",
  "7983": "erer",
  "7984": "erer",
  "7985": "erer",
  "7986": "erer",
  "7987": "erer",
  "7988": "erer",
  "7989": "erer",
  "7990": "erer",
  "7991": "erer",
  "7992": "erer",
  "7993": "erer",
  "7994": "erer",
  "7995": "erer",
  "7996": "erer",
  "7997": "erer",
  "7998": "erer",
  "7999": "erer",
  "8000": "erer",
  "8001": "erer",
  "8002": "erer",
  "8003": "erer",
  "8004": "erer",
  "8005": "erer",
  "8006": "erer",
  "8007": "erer",
  "8008": "erer",
  "8009": "erer",
  "8010": "erer",
  "8011": "erer",
  "8012": "erer",
  "8013": "erer",
  "8014": "erer",
  "8015": "erer",
  "8016": "erer",
  "8017": "erer",
  "8018": "erer",
  "8019": "erer",
  "8020": "erer",
  "8021": "erer",
  "8022": "erer",
  "8023": "erer",
  "8024": "erer",
  "8025": "erer",
  "8026": "erer",
  "8027": "erer",
  "8028": "erer",
  "8029": "erer",
  "8030": "erer",
  "8031": "erer",
  "8032": "erer",
  "8033": "erer",
  "8034": "erer",
  "8035": "erer",
  "8036": "erer",
  "8037": "erer",
  "8038": "erer",
  "8039": "erer",
  "8040": "erer",
  "8041": "erer",
  "8042": "erer",
  "8043": "erer",
  "8044": "erer",
  "8045": "erer",
  "8046": "erer",
  "8047": "erer",
  "8048": "erer",
  "8049": "erer",
  "8050": "erer",
  "8051": "erer",
  "8052": "erer",
  "8053": "erer",
  "8054": "erer",
  "8055": "erer",
  "8056": "erer",
  "8057": "erer",
  "8058": "erer",
  "8059": "erer",
  "8060": "erer",
  "8061": "erer",
  "8062": "erer",
  "8063": "erer",
  "8064": "erer",
  "8065": "erer",
  "8066": "erer",
  "8067": "erer",
  "8068": "erer",
  "8069": "erer",
  "8070": "erer",
  "8071": "erer",
  "8072": "erer",
  "8073": "erer",
  "8074": "erer",
  "8075": "erer",
  "8076": "erer",
  "8077": "erer",
  "8078": "erer",
  "8079": "erer",
  "8080": "erer",
  "8081": "erer",
  "8082": "erer",
  "8083": "erer",
  "8084": "erer",
  "8085": "erer",
  "8086": "erer",
  "8087": "erer",
  "8088": "erer",
  "8089": "erer",
  "8090": "erer",
  "8091": "erer",
  "8092": "erer",
  "8093": "erer",
  "8094": "erer",
  "8095": "erer",
  "8096": "erer",
  "8097": "erer",
  "8098": "erer",
  "8099": "erer",
  "8100": "erer",
  "8101": "erer",
  "8102": "erer",
  "8103": "erer",
  "8104": "erer",
  "8105": "erer",
  "8106": "erer",
  "8107": "erer",
  "8108": "erer",
  "8109": "erer",
  "8110": "erer",
  "8111": "erer",
  "8112": "erer",
  "8113": "erer",
  "8114": "erer",
  "8115": "erer",
  "8116": "erer",
  "8117": "erer",
  "8118": "erer",
  "8119": "erer",
  "8120": "erer",
  "8121": "erer",
  "8122": "erer",
  "8123": "erer",
  "8124": "erer",
  "8125": "erer",
  "8126": "erer",
  "8127": "erer",
  "8128": "erer",
  "8129": "erer",
  "8130": "erer",
  "8131": "erer",
  "8132": "erer",
  "8133": "erer",
  "8134": "erer",
  "8135": "erer",
  "8136": "erer",
  "8137": "erer",
  "8138": "erer",
  "8139": "erer",
  "8140": "erer",
  "8141": "erer",
  "8142": "erer",
  "8143": "erer",
  "8144": "erer",
  "8145": "erer",
  "8146": "erer",
  "8147": "erer",
  "8148": "erer",
  "8149": "erer",
  "8150": "erer",
  "8151": "erer",
  "8152": "erer",
  "8153": "erer",
  "8154": "erer",
  "8155": "erer",
  "8156": "erer",
  "8157": "erer",
  "8158": "erer",
  "8159": "erer",
  "8160": "erer",
  "8161": "erer",
  "8162": "erer",
  "8163": "erer",
  "8164": "erer",
  "8165": "erer",
  "8166": "erer",
  "8167": "erer",
  "8168": "erer",
  "8169": "erer",
  "8170": "erer",
  "8171": "erer",
  "8172": "erer",
  "8173": "erer",
  "8174": "erer",
  "8175": "erer",
  "8176": "erer",
  "8177": "erer",
  "8178": "erer",
  "8179": "erer",
  "8180": "erer",
  "8181": "erer",
  "8182": "erer",
  "8183": "erer",
  "8184": "erer",
  "8185": "erer",
  "8186": "erer",
  "8187": "erer",
  "8188": "erer",
  "8189": "erer",
  "8190": "erer",
  "8191": "erer",
  "8192": "erer",
  "8193": "erer",
  "8194": "erer",
  "8195": "erer",
  "8196": "erer",
  "8197": "erer",
  "8198": "erer",
  "8199": "erer",
  "8200": "erer",
  "8201": "erer",
  "8202": "erer",
  "8203": "erer",
  "8204": "erer",
  "8205": "erer",
  "8206": "erer",
  "8207": "erer",
  "8208": "erer",
  "8209": "erer",
  "8210": "erer",
  "8211": "erer",
  "8212": "erer",
  "8213": "erer",
  "8214": "erer",
  "8215": "erer",
  "8216": "erer",
  "8217": "erer",
  "8218": "erer",
  "8219": "erer",
  "8220": "erer",
  "8221": "erer",
  "8222": "erer",
  "8223": "erer",
  "8224": "erer",
  "8225": "erer",
  "8226": "erer",
  "8227": "erer",
  "8228": "erer",
  "8229": "erer",
  "8230": "erer",
  "8231": "erer",
  "8232": "erer",
  "8233": "erer",
  "8234": "erer",
  "8235": "erer",
  "8236": "erer",
  "8237": "erer",
  "8238": "erer",
  "8239": "erer",
  "8240": "erer",
  "8241": "erer",
  "8242": "erer",
  "8243": "erer",
  "8244": "erer",
  "8245": "erer",
  "8246": "erer",
  "8247": "erer",
  "8248": "erer",
  "8249": "erer",
  "8250": "erer",
  "8251": "erer",
  "8252": "erer",
  "8253": "erer",
  "8254": "erer",
  "8255": "erer",
  "8256": "erer",
  "8257": "erer",
  "8258": "erer",
  "8259": "erer",
  "8260": "erer",
  "8261": "erer",
  "8262": "erer",
  "8263": "erer",
  "8264": "erer",
  "8265": "erer",
  "8266": "erer",
  "8267": "erer",
  "8268": "erer",
  "8269": "erer",
  "8270": "erer",
  "8271": "erer",
  "8272": "erer",
  "8273": "erer",
  "8274": "erer",
  "8275": "erer",
  "8276": "erer",
  "8277": "erer",
  "8278": "erer",
  "8279": "erer",
  "8280": "erer",
  "8281": "erer",
  "8282": "erer",
  "8283": "erer",
  "8284": "erer",
  "8285": "erer",
  "8286": "erer",
  "8287": "erer",
  "8288": "erer",
  "8289": "erer",
  "8290": "erer",
  "8291": "erer",
  "8292": "erer",
  "8293": "erer",
  "8294": "erer",
  "8295": "erer",
  "8296": "erer",
  "8297": "erer",
  "8298": "erer",
  "8299": "erer",
  "8300": "erer",
  "8301": "erer",
  "8302": "erer",
  "8303": "erer",
  "8304": "erer",
  "8305": "erer",
  "8306": "erer",
  "8307": "erer",
  "8308": "erer",
  "8309": "erer",
  "8310": "erer",
  "8311": "erer",
  "8312": "erer",
  "8313": "erer",
  "8314": "erer",
  "8315": "erer",
  "8316": "erer",
  "8317": "erer",
  "8318": "erer",
  "8319": "erer",
  "8320": "erer",
  "8321": "erer",
  "8322": "erer",
  "8323": "erer",
  "8324": "erer",
  "8325": "erer",
  "8326": "erer",
  "8327": "erer",
  "8328": "erer",
  "8329": "erer",
  "8330": "erer",
  "8331": "erer",
  "8332": "erer",
  "8333": "erer",
  "8334": "erer",
  "8335": "erer",
  "8336": "erer",
  "8337": "erer",
  "8338": "erer",
  "8339": "erer",
  "8340": "erer",
  "8341": "erer",
  "8342": "erer",
  "8343": "erer",
  "8344": "erer",
  "8345": "erer",
  "8346": "erer",
  "8347": "erer",
  "8348": "erer",
  "8349": "erer",
  "8350": "erer",
  "8351": "erer",
  "8352": "erer",
  "8353": "erer",
  "8354": "erer",
  "8355": "erer",
  "8356": "erer",
  "8357": "erer",
  "8358": "erer",
  "8359": "erer",
  "8360": "erer",
  "8361": "erer",
  "8362": "erer",
  "8363": "erer",
  "8364": "erer",
  "8365": "erer",
  "8366": "erer",
  "8367": "erer",
  "8368": "erer",
  "8369": "erer",
  "8370": "erer",
  "8371": "erer",
  "8372": "erer",
  "8373": "erer",
  "8374": "erer",
  "8375": "erer",
  "8376": "erer",
  "8377": "erer",
  "8378": "erer",
  "8379": "erer",
  "8380": "erer",
  "8381": "erer",
  "8382": "erer",
  "8383": "erer",
  "8384": "erer",
  "8385": "erer",
  "8386": "erer",
  "8387": "erer",
  "8388": "erer",
  "8389": "erer",
  "8390": "erer",
  "8391": "erer",
  "8392": "erer",
  "8393": "erer",
  "8394": "erer",
  "8395": "erer",
  "8396": "erer",
  "8397": "erer",
  "8398": "erer",
  "8399": "erer",
  "8400": "erer",
  "8401": "erer",
  "8402": "erer",
  "8403": "erer",
  "8404": "erer",
  "8405": "erer",
  "8406": "erer",
  "8407": "erer",
  "8408": "erer",
  "8409": "erer",
  "8410": "erer",
  "8411": "erer",
  "8412": "erer",
  "8413": "erer",
  "8414": "erer",
  "8415": "erer",
  "8416": "erer",
  "8417": "erer",
  "8418": "erer",
  "8419": "erer",
  "8420": "erer",
  "8421": "erer",
  "8422": "erer",
  "8423": "erer",
  "8424": "erer",
  "8425": "erer",
  "8426": "erer",
  "8427": "erer",
  "8428": "erer",
  "8429": "erer",
  "8430": "erer",
  "8431": "erer",
  "8432": "erer",
  "8433": "erer",
  "8434": "erer",
  "8435": "erer",
  "8436": "erer",
  "8437": "erer",
  "8438": "erer",
  "8439": "erer",
  "8440": "erer",
  "8441": "erer",
  "8442": "erer",
  "8443": "erer",
  "8444": "erer",
  "8445": "erer",
  "8446": "erer",
  "8447": "erer",
  "8448": "erer",
  "8449": "erer",
  "8450": "erer",
  "8451": "erer",
  "8452": "erer",
  "8453": "erer",
  "8454": "erer",
  "8455": "erer",
  "8456": "erer",
  "8457": "erer",
  "8458": "erer",
  "8459": "erer",
  "8460": "erer",
  "8461": "erer",
  "8462": "erer",
  "8463": "erer",
  "8464": "erer",
  "8465": "erer",
  "8466": "erer",
  "8467": "erer",
  "8468": "erer",
  "8469": "erer",
  "8470": "erer",
  "8471": "erer",
  "8472": "erer",
  "8473": "erer",
  "8474": "erer",
  "8475": "erer",
  "8476": "erer",
  "8477": "erer",
  "8478": "erer",
  "8479": "erer",
  "8480": "erer",
  "8481": "erer",
  "8482": "erer",
  "8483": "erer",
  "8484": "erer",
  "8485": "erer",
  "8486": "erer",
  "8487": "erer",
  "8488": "erer",
  "8489": "erer",
  "8490": "erer",
  "8491": "erer",
  "8492": "erer",
  "8493": "erer",
  "8494": "erer",
  "8495": "erer",
  "8496": "erer",
  "8497": "erer",
  "8498": "erer",
  "8499": "erer",
  "8500": "erer",
  "8501": "erer",
  "8502": "erer",
  "8503": "erer",
  "8504": "erer",
  "8505": "erer",
  "8506": "erer",
  "8507": "erer",
  "8508": "erer",
  "8509": "erer",
  "8510": "erer",
  "8511": "erer",
  "8512": "erer",
  "8513": "erer",
  "8514": "erer",
  "8515": "erer",
  "8516": "erer",
  "8517": "erer",
  "8518": "erer",
  "8519": "erer",
  "8520": "erer",
  "8521": "erer",
  "8522": "erer",
  "8523": "erer",
  "8524": "erer",
  "8525": "erer",
  "8526": "erer",
  "8527": "erer",
  "8528": "erer",
  "8529": "erer",
  "8530": "erer",
  "8531": "erer",
  "8532": "erer",
  "8533": "erer",
  "8534": "erer",
  "8535": "erer",
  "8536": "erer",
  "8537": "erer",
  "8538": "erer",
  "8539": "erer",
  "8540": "erer",
  "8541": "erer",
  "8542": "erer",
  "8543": "erer",
  "8544": "erer",
  "8545": "erer",
  "8546": "erer",
  "8547": "erer",
  "8548": "erer",
  "8549": "erer",
  "8550": "erer",
  "8551": "erer",
  "8552": "erer",
  "8553": "erer",
  "8554": "erer",
  "8555": "erer",
  "8556": "erer",
  "8557": "erer",
  "8558": "erer",
  "8559": "erer",
  "8560": "erer",
  "8561": "erer",
  "8562": "erer",
  "8563": "erer",
  "8564": "erer",
  "8565": "erer",
  "8566": "erer",
  "8567": "erer",
  "8568": "erer",
  "8569": "erer",
  "8570": "erer",
  "8571": "erer",
  "8572": "erer",
  "8573": "erer",
  "8574": "erer",
  "8575": "erer",
  "8576": "erer",
  "8577": "erer",
  "8578": "erer",
  "8579": "erer",
  "8580": "erer",
  "8581": "erer",
  "8582": "erer",
  "8583": "erer",
  "8584": "erer",
  "8585": "erer",
  "8586": "erer",
  "8587": "erer",
  "8588": "erer",
  "8589": "erer",
  "8590": "erer",
  "8591": "erer",
  "8592": "erer",
  "8593": "erer",
  "8594": "erer",
  "8595": "erer",
  "8596": "erer",
  "8597": "erer",
  "8598": "erer",
  "8599": "erer",
  "8600": "erer",
  "8601": "erer",
  "8602": "erer",
  "8603": "erer",
  "8604": "erer",
  "8605": "erer",
  "8606": "erer",
  "8607": "erer",
  "8608": "erer",
  "8609": "erer",
  "8610": "erer",
  "8611": "erer",
  "8612": "erer",
  "8613": "erer",
  "8614": "erer",
  "8615": "erer",
  "8616": "erer",
  "8617": "erer",
  "8618": "erer",
  "8619": "erer",
  "8620": "erer",
  "8621": "erer",
  "8622": "erer",
  "8623": "erer",
  "8624": "erer",
  "8625": "erer",
  "8626": "erer",
  "8627": "erer",
  "8628": "erer",
  "8629": "erer",
  "8630": "erer",
  "8631": "erer",
  "8632": "erer",
  "8633": "erer",
  "8634": "erer",
  "8635": "erer",
  "8636": "erer",
  "8637": "erer",
  "8638": "erer",
  "8639": "erer",
  "8640": "erer",
  "8641": "erer",
  "8642": "erer",
  "8643": "erer",
  "8644": "erer",
  "8645": "erer",
  "8646": "erer",
  "8647": "erer",
  "8648": "erer",
  "8649": "erer",
  "8650": "erer",
  "8651": "erer",
  "8652": "erer",
  "8653": "erer",
  "8654": "erer",
  "8655": "erer",
  "8656": "erer",
  "8657": "erer",
  "8658": "erer",
  "8659": "erer",
  "8660": "erer",
  "8661": "erer",
  "8662": "erer",
  "8663": "erer",
  "8664": "erer",
  "8665": "erer",
  "8666": "erer",
  "8667": "erer",
  "8668": "erer",
  "8669": "erer",
  "8670": "erer",
  "8671": "erer",
  "8672": "erer",
  "8673": "erer",
  "8674": "erer",
  "8675": "erer",
  "8676": "erer",
  "8677": "erer",
  "8678": "erer",
  "8679": "erer",
  "8680": "erer",
  "8681": "erer",
  "8682": "erer",
  "8683": "erer",
  "8684": "erer",
  "8685": "erer",
  "8686": "erer",
  "8687": "erer",
  "8688": "erer",
  "8689": "erer",
  "8690": "erer",
  "8691": "erer",
  "8692": "erer",
  "8693": "erer",
  "8694": "erer",
  "8695": "erer",
  "8696": "erer",
  "8697": "erer",
  "8698": "erer",
  "8699": "erer",
  "8700": "erer",
  "8701": "erer",
  "8702": "erer",
  "8703": "erer",
  "8704": "erer",
  "8705": "erer",
  "8706": "erer",
  "8707": "erer",
  "8708": "erer",
  "8709": "erer",
  "8710": "erer",
  "8711": "erer",
  "8712": "erer",
  "8713": "erer",
  "8714": "erer",
  "8715": "erer",
  "8716": "erer",
  "8717": "erer",
  "8718": "erer",
  "8719": "erer",
  "8720": "erer",
  "8721": "erer",
  "8722": "erer",
  "8723": "erer",
  "8724": "erer",
  "8725": "erer",
  "8726": "erer",
  "8727": "erer",
  "8728": "erer",
  "8729": "erer",
  "8730": "erer",
  "8731": "erer",
  "8732": "erer",
  "8733": "erer",
  "8734": "erer",
  "8735": "erer",
  "8736": "erer",
  "8737": "erer",
  "8738": "erer",
  "8739": "erer",
  "8740": "erer",
  "8741": "erer",
  "8742": "erer",
  "8743": "erer",
  "8744": "erer",
  "8745": "erer",
  "8746": "erer",
  "8747": "erer",
  "8748": "erer",
  "8749": "erer",
  "8750": "erer",
  "8751": "erer",
  "8752": "erer",
  "8753": "erer",
  "8754": "erer",
  "8755": "erer",
  "8756": "erer",
  "8757": "erer",
  "8758": "erer",
  "8759": "erer",
  "8760": "erer",
  "8761": "erer",
  "8762": "erer",
  "8763": "erer",
  "8764": "erer",
  "8765": "erer",
  "8766": "erer",
  "8767": "erer",
  "8768": "erer",
  "8769": "erer",
  "8770": "erer",
  "8771": "erer",
  "8772": "erer",
  "8773": "erer",
  "8774": "erer",
  "8775": "erer",
  "8776": "erer",
  "8777": "erer",
  "8778": "erer",
  "8779": "erer",
  "8780": "erer",
  "8781": "erer",
  "8782": "erer",
  "8783": "erer",
  "8784": "erer",
  "8785": "erer",
  "8786": "erer",
  "8787": "erer",
  "8788": "erer",
  "8789": "erer",
  "8790": "erer",
  "8791": "erer",
  "8792": "erer",
  "8793": "erer",
  "8794": "erer",
  "8795": "erer",
  "8796": "erer",
  "8797": "erer",
  "8798": "erer",
  "8799": "erer",
  "8800": "erer",
  "8801": "erer",
  "8802": "erer",
  "8803": "erer",
  "8804": "erer",
  "8805": "erer",
  "8806": "erer",
  "8807": "erer",
  "8808": "erer",
  "8809": "erer",
  "8810": "erer",
  "8811": "erer",
  "8812": "erer",
  "8813": "erer",
  "8814": "erer",
  "8815": "erer",
  "8816": "erer",
  "8817": "erer",
  "8818": "erer",
  "8819": "erer",
  "8820": "erer",
  "8821": "erer",
  "8822": "erer",
  "8823": "erer",
  "8824": "erer",
  "8825": "erer",
  "8826": "erer",
  "8827": "erer",
  "8828": "erer",
  "8829": "erer",
  "8830": "erer",
  "8831": "erer",
  "8832": "erer",
  "8833": "erer",
  "8834": "erer",
  "8835": "erer",
  "8836": "erer",
  "8837": "erer",
  "8838": "erer",
  "8839": "erer",
  "8840": "erer",
  "8841": "erer",
  "8842": "erer",
  "8843": "erer",
  "8844": "erer",
  "8845": "erer",
  "8846": "erer",
  "8847": "erer",
  "8848": "erer",
  "8849": "erer",
  "8850": "erer",
  "8851": "erer",
  "8852": "erer",
  "8853": "erer",
  "8854": "erer",
  "8855": "erer",
  "8856": "erer",
  "8857": "erer",
  "8858": "erer",
  "8859": "erer",
  "8860": "erer",
  "8861": "erer",
  "8862": "erer",
  "8863": "erer",
  "8864": "erer",
  "8865": "erer",
  "8866": "erer",
  "8867": "erer",
  "8868": "erer",
  "8869": "erer",
  "8870": "erer",
  "8871": "erer",
  "8872": "erer",
  "8873": "erer",
  "8874": "erer",
  "8875": "erer",
  "8876": "erer",
  "8877": "erer",
  "8878": "erer",
  "8879": "erer",
  "8880": "erer",
  "8881": "erer",
  "8882": "erer",
  "8883": "erer",
  "8884": "erer",
  "8885": "erer",
  "8886": "erer",
  "8887": "erer",
  "8888": "erer",
  "8889": "erer",
  "8890": "erer",
  "8891": "erer",
  "8892": "erer",
  "8893": "erer",
  "8894": "erer",
  "8895": "erer",
  "8896": "erer",
  "8897": "erer",
  "8898": "erer",
  "8899": "erer",
  "8900": "erer",
  "8901": "erer",
  "8902": "erer",
  "8903": "erer",
  "8904": "erer",
  "8905": "erer",
  "8906": "erer",
  "8907": "erer",
  "8908": "erer",
  "8909": "erer",
  "8910": "erer",
  "8911": "erer",
  "8912": "erer",
  "8913": "erer",
  "8914": "erer",
  "8915": "erer",
  "8916": "erer",
  "8917": "erer",
  "8918": "erer",
  "8919": "erer",
  "8920": "erer",
  "8921": "erer",
  "8922": "erer",
  "8923": "erer",
  "8924": "erer",
  "8925": "erer",
  "8926": "erer",
  "8927": "erer",
  "8928": "erer",
  "8929": "erer",
  "8930": "erer",
  "8931": "erer",
  "8932": "erer",
  "8933": "erer",
  "8934": "erer",
  "8935": "erer",
  "8936": "erer",
  "8937": "erer",
  "8938": "erer",
  "8939": "erer",
  "8940": "erer",
  "8941": "erer",
  "8942": "erer",
  "8943": "erer",
  "8944": "erer",
  "8945": "erer",
  "8946": "erer",
  "8947": "erer",
  "8948": "erer",
  "8949": "erer",
  "8950": "erer",
  "8951": "erer",
  "8952": "erer",
  "8953": "erer",
  "8954": "erer",
  "8955": "erer",
  "8956": "erer",
  "8957": "erer",
  "8958": "erer",
  "8959": "erer",
  "8960": "erer",
  "8961": "erer",
  "8962": "erer",
  "8963": "erer",
  "8964": "erer",
  "8965": "erer",
  "8966": "erer",
  "8967": "erer",
  "8968": "erer",
  "8969": "erer",
  "8970": "erer",
  "8971": "erer",
  "8972": "erer",
  "8973": "erer",
  "8974": "erer",
  "8975": "erer",
  "8976": "erer",
  "8977": "erer",
  "8978": "erer",
  "8979": "erer",
  "8980": "erer",
  "8981": "erer",
  "8982": "erer",
  "8983": "erer",
  "8984": "erer",
  "8985": "erer",
  "8986": "erer",
  "8987": "erer",
  "8988": "erer",
  "8989": "erer",
  "8990": "erer",
  "8991": "erer",
  "8992": "erer",
  "8993": "erer",
  "8994": "erer",
  "8995": "erer",
  "8996": "erer",
  "8997": "erer",
  "8998": "erer",
  "8999": "erer",
  "9000": "erer",
  "9001": "erer",
  "9002": "erer",
  "9003": "erer",
  "9004": "erer",
  "9005": "erer",
  "9006": "erer",
  "9007": "erer",
  "9008": "erer",
  "9009": "erer",
  "9010": "erer",
  "9011": "erer",
  "9012": "erer",
  "9013": "erer",
  "9014": "erer",
  "9015": "erer",
  "9016": "erer",
  "9017": "erer",
  "9018": "erer",
  "9019": "erer",
  "9020": "erer",
  "9021": "erer",
  "9022": "erer",
  "9023": "erer",
  "9024": "erer",
  "9025": "erer",
  "9026": "erer",
  "9027": "erer",
  "9028": "erer",
  "9029": "erer",
  "9030": "erer",
  "9031": "erer",
  "9032": "erer",
  "9033": "erer",
  "9034": "erer",
  "9035": "erer",
  "9036": "erer",
  "9037": "erer",
  "9038": "erer",
  "9039": "erer",
  "9040": "erer",
  "9041": "erer",
  "9042": "erer",
  "9043": "erer",
  "9044": "erer",
  "9045": "erer",
  "9046": "erer",
  "9047": "erer",
  "9048": "erer",
  "9049": "erer",
  "9050": "erer",
  "9051": "erer",
  "9052": "erer",
  "9053": "erer",
  "9054": "erer",
  "9055": "erer",
  "9056": "erer",
  "9057": "erer",
  "9058": "erer",
  "9059": "erer",
  "9060": "erer",
  "9061": "erer",
  "9062": "erer",
  "9063": "erer",
  "9064": "erer",
  "9065": "erer",
  "9066": "erer",
  "9067": "erer",
  "9068": "erer",
  "9069": "erer",
  "9070": "erer",
  "9071": "erer",
  "9072": "erer",
  "9073": "erer",
  "9074": "erer",
  "9075": "erer",
  "9076": "erer",
  "9077": "erer",
  "9078": "erer",
  "9079": "erer",
  "9080": "erer",
  "9081": "erer",
  "9082": "erer",
  "9083": "erer",
  "9084": "erer",
  "9085": "erer",
  "9086": "erer",
  "9087": "erer",
  "9088": "erer",
  "9089": "erer",
  "9090": "erer",
  "9091": "erer",
  "9092": "erer",
  "9093": "erer",
  "9094": "erer",
  "9095": "erer",
  "9096": "erer",
  "9097": "erer",
  "9098": "erer",
  "9099": "erer",
  "9100": "erer",
  "9101": "erer",
  "9102": "erer",
  "9103": "erer",
  "9104": "erer",
  "9105": "erer",
  "9106": "erer",
  "9107": "erer",
  "9108": "erer",
  "9109": "erer",
  "9110": "erer",
  "9111": "erer",
  "9112": "erer",
  "9113": "erer",
  "9114": "erer",
  "9115": "erer",
  "9116": "erer",
  "9117": "erer",
  "9118": "erer",
  "9119": "erer",
  "9120": "erer",
  "9121": "erer",
  "9122": "erer",
  "9123": "erer",
  "9124": "erer",
  "9125": "erer",
  "9126": "erer",
  "9127": "erer",
  "9128": "erer",
  "9129": "erer",
  "9130": "erer",
  "9131": "erer",
  "9132": "erer",
  "9133": "erer",
  "9134": "erer",
  "9135": "erer",
  "9136": "erer",
  "9137": "erer",
  "9138": "erer",
  "9139": "erer",
  "9140": "erer",
  "9141": "erer",
  "9142": "erer",
  "9143": "erer",
  "9144": "erer",
  "9145": "erer",
  "9146": "erer",
  "9147": "erer",
  "9148": "erer",
  "9149": "erer",
  "9150": "erer",
  "9151": "erer",
  "9152": "erer",
  "9153": "erer",
  "9154": "erer",
  "9155": "erer",
  "9156": "erer",
  "9157": "erer",
  "9158": "erer",
  "9159": "erer",
  "9160": "erer",
  "9161": "erer",
  "9162": "erer",
  "9163": "erer",
  "9164": "erer",
  "9165": "erer",
  "9166": "erer",
  "9167": "erer",
  "9168": "erer",
  "9169": "erer",
  "9170": "erer",
  "9171": "erer",
  "9172": "erer",
  "9173": "erer",
  "9174": "erer",
  "9175": "erer",
  "9176": "erer",
  "9177": "erer",
  "9178": "erer",
  "9179": "erer",
  "9180": "erer",
  "9181": "erer",
  "9182": "erer",
  "9183": "erer",
  "9184": "erer",
  "9185": "erer",
  "9186": "erer",
  "9187": "erer",
  "9188": "erer",
  "9189": "erer",
  "9190": "erer",
  "9191": "erer",
  "9192": "erer",
  "9193": "erer",
  "9194": "erer",
  "9195": "erer",
  "9196": "erer",
  "9197": "erer",
  "9198": "erer",
  "9199": "erer",
  "9200": "erer",
  "9201": "erer",
  "9202": "erer",
  "9203": "erer",
  "9204": "erer",
  "9205": "erer",
  "9206": "erer",
  "9207": "erer",
  "9208": "erer",
  "9209": "erer",
  "9210": "erer",
  "9211": "erer",
  "9212": "erer",
  "9213": "erer",
  "9214": "erer",
  "9215": "erer",
  "9216": "erer",
  "9217": "erer",
  "9218": "erer",
  "9219": "erer",
  "9220": "erer",
  "9221": "erer",
  "9222": "erer",
  "9223": "erer",
  "9224": "erer",
  "9225": "erer",
  "9226": "erer",
  "9227": "erer",
  "9228": "erer",
  "9229": "erer",
  "9230": "erer",
  "9231": "erer",
  "9232": "erer",
  "9233": "erer",
  "9234": "erer",
  "9235": "erer",
  "9236": "erer",
  "9237": "erer",
  "9238": "erer",
  "9239": "erer",
  "9240": "erer",
  "9241": "erer",
  "9242": "erer",
  "9243": "erer",
  "9244": "erer",
  "9245": "erer",
  "9246": "erer",
  "9247": "erer",
  "9248": "erer",
  "9249": "erer",
  "9250": "erer",
  "9251": "erer",
  "9252": "erer",
  "9253": "erer",
  "9254": "erer",
  "9255": "erer",
  "9256": "erer",
  "9257": "erer",
  "9258": "erer",
  "9259": "erer",
  "9260": "erer",
  "9261": "erer",
  "9262": "erer",
  "9263": "erer",
  "9264": "erer",
  "9265": "erer",
  "9266": "erer",
  "9267": "erer",
  "9268": "erer",
  "9269": "erer",
  "9270": "erer",
  "9271": "erer",
  "9272": "erer",
  "9273": "erer",
  "9274": "erer",
  "9275": "erer",
  "9276": "erer",
  "9277": "erer",
  "9278": "erer",
  "9279": "erer",
  "9280": "erer",
  "9281": "erer",
  "9282": "erer",
  "9283": "erer",
  "9284": "erer",
  "9285": "erer",
  "9286": "erer",
  "9287": "erer",
  "9288": "erer",
  "9289": "erer",
  "9290": "erer",
  "9291": "erer",
  "9292": "erer",
  "9293": "erer",
  "9294": "erer",
  "9295": "erer",
  "9296": "erer",
  "9297": "erer",
  "9298": "erer",
  "9299": "erer",
  "9300": "erer",
  "9301": "erer",
  "9302": "erer",
  "9303": "erer",
  "9304": "erer",
  "9305": "erer",
  "9306": "erer",
  "9307": "erer",
  "9308": "erer",
  "9309": "erer",
  "9310": "erer",
  "9311": "erer",
  "9312": "erer",
  "9313": "erer",
  "9314": "erer",
  "9315": "erer",
  "9316": "erer",
  "9317": "erer",
  "9318": "erer",
  "9319": "erer",
  "9320": "erer",
  "9321": "erer",
  "9322": "erer",
  "9323": "erer",
  "9324": "erer",
  "9325": "erer",
  "9326": "erer",
  "9327": "erer",
  "9328": "erer",
  "9329": "erer",
  "9330": "erer",
  "9331": "erer",
  "9332": "erer",
  "9333": "erer",
  "9334": "erer",
  "9335": "erer",
  "9336": "erer",
  "9337": "erer",
  "9338": "erer",
  "9339": "erer",
  "9340": "erer",
  "9341": "erer",
  "9342": "erer",
  "9343": "erer",
  "9344": "erer",
  "9345": "erer",
  "9346": "erer",
  "9347": "erer",
  "9348": "erer",
  "9349": "erer",
  "9350": "erer",
  "9351": "erer",
  "9352": "erer",
  "9353": "erer",
  "9354": "erer",
  "9355": "erer",
  "9356": "erer",
  "9357": "erer",
  "9358": "erer",
  "9359": "erer",
  "9360": "erer",
  "9361": "erer",
  "9362": "erer",
  "9363": "erer",
  "9364": "erer",
  "9365": "erer",
  "9366": "erer",
  "9367": "erer",
  "9368": "erer",
  "9369": "erer",
  "9370": "erer",
  "9371": "erer",
  "9372": "erer",
  "9373": "erer",
  "9374": "erer",
  "9375": "erer",
  "9376": "erer",
  "9377": "erer",
  "9378": "erer",
  "9379": "erer",
  "9380": "erer",
  "9381": "erer",
  "9382": "erer",
  "9383": "erer",
  "9384": "erer",
  "9385": "erer",
  "9386": "erer",
  "9387": "erer",
  "9388": "erer",
  "9389": "erer",
  "9390": "erer",
  "9391": "erer",
  "9392": "erer",
  "9393": "erer",
  "9394": "erer",
  "9395": "erer",
  "9396": "erer",
  "9397": "erer",
  "9398": "erer",
  "9399": "erer",
  "9400": "erer",
  "9401": "erer",
  "9402": "erer",
  "9403": "erer",
  "9404": "erer",
  "9405": "erer",
  "9406": "erer",
  "9407": "erer",
  "9408": "erer",
  "9409": "erer",
  "9410": "erer",
  "9411": "erer",
  "9412": "erer",
  "9413": "erer",
  "9414": "erer",
  "9415": "erer",
  "9416": "erer",
  "9417": "erer",
  "9418": "erer",
  "9419": "erer",
  "9420": "erer",
  "9421": "erer",
  "9422": "erer",
  "9423": "erer",
  "9424": "erer",
  "9425": "erer",
  "9426": "erer",
  "9427": "erer",
  "9428": "erer",
  "9429": "erer",
  "9430": "erer",
  "9431": "erer",
  "9432": "erer",
  "9433": "erer",
  "9434": "erer",
  "9435": "erer",
  "9436": "erer",
  "9437": "erer",
  "9438": "erer",
  "9439": "erer",
  "9440": "erer",
  "9441": "erer",
  "9442": "erer",
  "9443": "erer",
  "9444": "erer",
  "9445": "erer",
  "9446": "erer",
  "9447": "erer",
  "9448": "erer",
  "9449": "erer",
  "9450": "erer",
  "9451": "erer",
  "9452": "erer",
  "9453": "erer",
  "9454": "erer",
  "9455": "erer",
  "9456": "erer",
  "9457": "erer",
  "9458": "erer",
  "9459": "erer",
  "9460": "erer",
  "9461": "erer",
  "9462": "erer",
  "9463": "erer",
  "9464": "erer",
  "9465": "erer",
  "9466": "erer",
  "9467": "erer",
  "9468": "erer",
  "9469": "erer",
  "9470": "erer",
  "9471": "erer",
  "9472": "erer",
  "9473": "erer",
  "9474": "erer",
  "9475": "erer",
  "9476": "erer",
  "9477": "erer",
  "9478": "erer",
  "9479": "erer",
  "9480": "erer",
  "9481": "erer",
  "9482": "erer",
  "9483": "erer",
  "9484": "erer",
  "9485": "erer",
  "9486": "erer",
  "9487": "erer",
  "9488": "erer",
  "9489": "erer",
  "9490": "erer",
  "9491": "erer",
  "9492": "erer",
  "9493": "erer",
  "9494": "erer",
  "9495": "erer",
  "9496": "erer",
  "9497": "erer",
  "9498": "erer",
  "9499": "erer",
  "9500": "erer",
  "9501": "erer",
  "9502": "erer",
  "9503": "erer",
  "9504": "erer",
  "9505": "erer",
  "9506": "erer",
  "9507": "erer",
  "9508": "erer",
  "9509": "erer",
  "9510": "erer",
  "9511": "erer",
  "9512": "erer",
  "9513": "erer",
  "9514": "erer",
  "9515": "erer",
  "9516": "erer",
  "9517": "erer",
  "9518": "erer",
  "9519": "erer",
  "9520": "erer",
  "9521": "erer",
  "9522": "erer",
  "9523": "erer",
  "9524": "erer",
  "9525": "erer",
  "9526": "erer",
  "9527": "erer",
  "9528": "erer",
  "9529": "erer",
  "9530": "erer",
  "9531": "erer",
  "9532": "erer",
  "9533": "erer",
  "9534": "erer",
  "9535": "erer",
  "9536": "erer",
  "9537": "erer",
  "9538": "erer",
  "9539": "erer",
  "9540": "erer",
  "9541": "erer",
  "9542": "erer",
  "9543": "erer",
  "9544": "erer",
  "9545": "erer",
  "9546": "erer",
  "9547": "erer",
  "9548": "erer",
  "9549": "erer",
  "9550": "erer",
  "9551": "erer",
  "9552": "erer",
  "9553": "erer",
  "9554": "erer",
  "9555": "erer",
  "9556": "erer",
  "9557": "erer",
  "9558": "erer",
  "9559": "erer",
  "9560": "erer",
  "9561": "erer",
  "9562": "erer",
  "9563": "erer",
  "9564": "erer",
  "9565": "erer",
  "9566": "erer",
  "9567": "erer",
  "9568": "erer",
  "9569": "erer",
  "9570": "erer",
  "9571": "erer",
  "9572": "erer",
  "9573": "erer",
  "9574": "erer",
  "9575": "erer",
  "9576": "erer",
  "9577": "erer",
  "9578": "erer",
  "9579": "erer",
  "9580": "erer",
  "9581": "erer",
  "9582": "erer",
  "9583": "erer",
  "9584": "erer",
  "9585": "erer",
  "9586": "erer",
  "9587": "erer",
  "9588": "erer",
  "9589": "erer",
  "9590": "erer",
  "9591": "erer",
  "9592": "erer",
  "9593": "erer",
  "9594": "erer",
  "9595": "erer",
  "9596": "erer",
  "9597": "erer",
  "9598": "erer",
  "9599": "erer",
  "9600": "erer",
  "9601": "erer",
  "9602": "erer",
  "9603": "erer",
  "9604": "erer",
  "9605": "erer",
  "9606": "erer",
  "9607": "erer",
  "9608": "erer",
  "9609": "erer",
  "9610": "erer",
  "9611": "erer",
  "9612": "erer",
  "9613": "erer",
  "9614": "erer",
  "9615": "erer",
  "9616": "erer",
  "9617": "erer",
  "9618": "erer",
  "9619": "erer",
  "9620": "erer",
  "9621": "erer",
  "9622": "erer",
  "9623": "erer",
  "9624": "erer",
  "9625": "erer",
  "9626": "erer",
  "9627": "erer",
  "9628": "erer",
  "9629": "erer",
  "9630": "erer",
  "9631": "erer",
  "9632": "erer",
  "9633": "erer",
  "9634": "erer",
  "9635": "erer",
  "9636": "erer",
  "9637": "erer",
  "9638": "erer",
  "9639": "erer",
  "9640": "erer",
  "9641": "erer",
  "9642": "erer",
  "9643": "erer",
  "9644": "erer",
  "9645": "erer",
  "9646": "erer",
  "9647": "erer",
  "9648": "erer",
  "9649": "erer",
  "9650": "erer",
  "9651": "erer",
  "9652": "erer",
  "9653": "erer",
  "9654": "erer",
  "9655": "erer",
  "9656": "erer",
  "9657": "erer",
  "9658": "erer",
  "9659": "erer",
  "9660": "erer",
  "9661": "erer",
  "9662": "erer",
  "9663": "erer",
  "9664": "erer",
  "9665": "erer",
  "9666": "erer",
  "9667": "erer",
  "9668": "erer",
  "9669": "erer",
  "9670": "erer",
  "9671": "erer",
  "9672": "erer",
  "9673": "erer",
  "9674": "erer",
  "9675": "erer",
  "9676": "erer",
  "9677": "erer",
  "9678": "erer",
  "9679": "erer",
  "9680": "erer",
  "9681": "erer",
  "9682": "erer",
  "9683": "erer",
  "9684": "erer",
  "9685": "erer",
  "9686": "erer",
  "9687": "erer",
  "9688": "erer",
  "9689": "erer",
  "9690": "erer",
  "9691": "erer",
  "9692": "erer",
  "9693": "erer",
  "9694": "erer",
  "9695": "erer",
  "9696": "erer",
  "9697": "erer",
  "9698": "erer",
  "9699": "erer",
  "9700": "erer",
  "9701": "erer",
  "9702": "erer",
  "9703": "erer",
  "9704": "erer",
  "9705": "erer",
  "9706": "erer",
  "9707": "erer",
  "9708": "erer",
  "9709": "erer",
  "9710": "erer",
  "9711": "erer",
  "9712": "erer",
  "9713": "erer",
  "9714": "erer",
  "9715": "erer",
  "9716": "erer",
  "9717": "erer",
  "9718": "erer",
  "9719": "erer",
  "9720": "erer",
  "9721": "erer",
  "9722": "erer",
  "9723": "erer",
  "9724": "erer",
  "9725": "erer",
  "9726": "erer",
  "9727": "erer",
  "9728": "erer",
  "9729": "erer",
  "9730": "erer",
  "9731": "erer",
  "9732": "erer",
  "9733": "erer",
  "9734": "erer",
  "9735": "erer",
  "9736": "erer",
  "9737": "erer",
  "9738": "erer",
  "9739": "erer",
  "9740": "erer",
  "9741": "erer",
  "9742": "erer",
  "9743": "erer",
  "9744": "erer",
  "9745": "erer",
  "9746": "erer",
  "9747": "erer",
  "9748": "erer",
  "9749": "erer",
  "9750": "erer",
  "9751": "erer",
  "9752": "erer",
  "9753": "erer",
  "9754": "erer",
  "9755": "erer",
  "9756": "erer",
  "9757": "erer",
  "9758": "erer",
  "9759": "erer",
  "9760": "erer",
  "9761": "erer",
  "9762": "erer",
  "9763": "erer",
  "9764": "erer",
  "9765": "erer",
  "9766": "erer",
  "9767": "erer",
  "9768": "erer",
  "9769": "erer",
  "9770": "erer",
  "9771": "erer",
  "9772": "erer",
  "9773": "erer",
  "9774": "erer",
  "9775": "erer",
  "9776": "erer",
  "9777": "erer",
  "9778": "erer",
  "9779": "erer",
  "9780": "erer",
  "9781": "erer",
  "9782": "erer",
  "9783": "erer",
  "9784": "erer",
  "9785": "erer",
  "9786": "erer",
  "9787": "erer",
  "9788": "erer",
  "9789": "erer",
  "9790": "erer",
  "9791": "erer",
  "9792": "erer",
  "9793": "erer",
  "9794": "erer",
  "9795": "erer",
  "9796": "erer",
  "9797": "erer",
  "9798": "erer",
  "9799": "erer",
  "9800": "erer",
  "9801": "erer",
  "9802": "erer",
  "9803": "erer",
  "9804": "erer",
  "9805": "erer",
  "9806": "erer",
  "9807": "erer",
  "9808": "erer",
  "9809": "erer",
  "9810": "erer",
  "9811": "erer",
  "9812": "erer",
  "9813": "erer",
  "9814": "erer",
  "9815": "erer",
  "9816": "erer",
  "9817": "erer",
  "9818": "erer",
  "9819": "erer",
  "9820": "erer",
  "9821": "erer",
  "9822": "erer",
  "9823": "erer",
  "9824": "erer",
  "9825": "erer",
  "9826": "erer",
  "9827": "erer",
  "9828": "erer",
  "9829": "erer",
  "9830": "erer",
  "9831": "erer",
  "9832": "erer",
  "9833": "erer",
  "9834": "erer",
  "9835": "erer",
  "9836": "erer",
  "9837": "erer",
  "9838": "erer",
  "9839": "erer",
  "9840": "erer",
  "9841": "erer",
  "9842": "erer",
  "9843": "erer",
  "9844": "erer",
  "9845": "erer",
  "9846": "erer",
  "9847": "erer",
  "9848": "erer",
  "9849": "erer",
  "9850": "erer",
  "9851": "erer",
  "9852": "erer",
  "9853": "erer",
  "9854": "erer",
  "9855": "erer",
  "9856": "erer",
  "9857": "erer",
  "9858": "erer",
  "9859": "erer",
  "9860": "erer",
  "9861": "erer",
  "9862": "erer",
  "9863": "erer",
  "9864": "erer",
  "9865": "erer",
  "9866": "erer",
  "9867": "erer",
  "9868": "erer",
  "9869": "erer",
  "9870": "erer",
  "9871": "erer",
  "9872": "erer",
  "9873": "erer",
  "9874": "erer",
  "9875": "erer",
  "9876": "erer",
  "9877": "erer",
  "9878": "erer",
  "9879": "erer",
  "9880": "erer",
  "9881": "erer",
  "9882": "erer",
  "9883": "erer",
  "9884": "erer",
  "9885": "erer",
  "9886": "erer",
  "9887": "erer",
  "9888": "erer",
  "9889": "erer",
  "9890": "erer",
  "9891": "erer",
  "9892": "erer",
  "9893": "erer",
  "9894": "erer",
  "9895": "erer",
  "9896": "erer",
  "9897": "erer",
  "9898": "erer",
  "9899": "erer",
  "9900": "erer",
  "9901": "erer",
  "9902": "erer",
  "9903": "erer",
  "9904": "erer",
  "9905": "erer",
  "9906": "erer",
  "9907": "erer",
  "9908": "erer",
  "9909": "erer",
  "9910": "erer",
  "9911": "erer",
  "9912": "erer",
  "9913": "erer",
  "9914": "erer",
  "9915": "erer",
  "9916": "erer",
  "9917": "erer",
  "9918": "erer",
  "9919": "erer",
  "9920": "erer",
  "9921": "erer",
  "9922": "erer",
  "9923": "erer",
  "9924": "erer",
  "9925": "erer",
  "9926": "erer",
  "9927": "erer",
  "9928": "erer",
  "9929": "erer",
  "9930": "erer",
  "9931": "erer",
  "9932": "erer",
  "9933": "erer",
  "9934": "erer",
  "9935": "erer",
  "9936": "erer",
  "9937": "erer",
  "9938": "erer",
  "9939": "erer",
  "9940": "erer",
  "9941": "erer",
  "9942": "erer",
  "9943": "erer",
  "9944": "erer",
  "9945": "erer",
  "9946": "erer",
  "9947": "erer",
  "9948": "erer",
  "9949": "erer",
  "9950": "erer",
  "9951": "erer",
  "9952": "erer",
  "9953": "erer",
  "9954": "erer",
  "9955": "erer",
  "9956": "erer",
  "9957": "erer",
  "9958": "erer",
  "9959": "erer",
  "9960": "erer",
  "9961": "erer",
  "9962": "erer",
  "9963": "erer",
  "9964": "erer",
  "9965": "erer",
  "9966": "erer",
  "9967": "erer",
  "9968": "erer",
  "9969": "erer",
  "9970": "erer",
  "9971": "erer",
  "9972": "erer",
  "9973": "erer",
  "9974": "erer",
  "9975": "erer",
  "9976": "erer",
  "9977": "erer",
  "9978": "erer",
  "9979": "erer",
  "9980": "erer",
  "9981": "erer",
  "9982": "erer",
  "9983": "erer",
  "9984": "erer",
  "9985": "erer",
  "9986": "erer",
  "9987": "erer",
  "9988": "erer",
  "9989": "erer",
  "9990": "erer",
  "9991": "erer",
  "9992": "erer",
  "9993": "erer",
  "9994": "erer",
  "9995": "erer",
  "9996": "erer",
  "9997": "erer",
  "9998": "erer",
  "9999": "erer"
}