{
  "0": "\u0000",
  "1": "\u0001",
  "2": "\u0002",
  "3": "\u0003",
  "4": "\u0004",
  "5": "\u0005",
  "6": "\u0006",
  "7": "\u0007",
  "8": "\b",
  "9": "\t",
  "10": "\n",
  "11": "\u000b",
  "12": "\f",
  "13": "\r",
  "14": "\u000e",
  "15": "\u000f",
  "16": "\u0010",
  "17": "\u0011",
  "18": "\u0012",
  "19": "\u0013",
  "20": "\u0014",
  "21": "\u0015",
  "22": "\u0016",
  "23": "\u0017",
  "24": "\u0018",
  "25": "\u0019",
  "26": "\u001a",
  "27": "\u001b",
  "28": "\u001c",
  "29": "\u001d",
  "30": "\u001e",
  "31": "\u001f",
  "32": " ",
  "33": "!",
  "34": "\"",
  "35": "#",
  "36": "$",
  "37": "%",
  "38": "&",
  "39": "'",
  "40": "(",
  "41": ")",
  "42": "*",
  "43": "+",
  "44": ",",
  "45": "-",
  "46": ".",
  "47": "/",
  "48": "0",
  "49": "1",
  "50": "2",
  "51": "3",
  "52": "4",
  "53": "5",
  "54": "6",
  "55": "7",
  "56": "8",
  "57": "9",
  "58": ":",
  "59": ";",
  "60": "<",
  "61": "=",
  "62": ">",
  "63": "?",
  "64": "@",
  "65": "A",
  "66": "B",
  "67": "C",
  "68": "D",
  "69": "E",
  "70": "F",
  "71": "G",
  "72": "H",
  "73": "I",
  "74": "J",
  "75": "K",
  "76": "L",
  "77": "M",
  "78": "N",
  "79": "O",
  "80": "P",
  "81": "Q",
  "82": "R",
  "83": "S",
  "84": "T",
  "85": "U",
  "86": "V",
  "87": "W",
  "88": "X",
  "89": "Y",
  "90": "Z",
  "91": "[",
  "92": "\\",
  "93": "]",
  "94": "^",
  "95": "_",
  "96": "`",
  "97": "a",
  "98": "b",
  "99": "c",
  "100": "d",
  "101": "e",
  "102": "f",
  "103": "g",
  "104": "h",
  "105": "i",
  "106": "j",
  "107": "k",
  "108": "l",
  "109": "m",
  "110": "n",
  "111": "o",
  "112": "p",
  "113": "q",
  "114": "r",
  "115": "s",
  "116": "t",
  "117": "u",
  "118": "v",
  "119": "w",
  "120": "x",
  "121": "y",
  "122": "z",
  "123": "{",
  "124": "|",
  "125": "}",
  "126": "~",
  "127": "",
  "128": "b'\\x80'",
  "129": "b'\\x81'",
  "130": "b'\\x82'",
  "131": "b'\\x83'",
  "132": "b'\\x84'",
  "133": "b'\\x85'",
  "134": "b'\\x86'",
  "135": "b'\\x87'",
  "136": "b'\\x88'",
  "137": "b'\\x89'",
  "138": "b'\\x8a'",
  "139": "b'\\x8b'",
  "140": "b'\\x8c'",
  "141": "b'\\x8d'",
  "142": "b'\\x8e'",
  "143": "b'\\x8f'",
  "144": "b'\\x90'",
  "145": "b'\\x91'",
  "146": "b'\\x92'",
  "147": "b'\\x93'",
  "148": "b'\\x94'",
  "149": "b'\\x95'",
  "150": "b'\\x96'",
  "151": "b'\\x97'",
  "152": "b'\\x98'",
  "153": "b'\\x99'",
  "154": "b'\\x9a'",
  "155": "b'\\x9b'",
  "156": "b'\\x9c'",
  "157": "b'\\x9d'",
  "158": "b'\\x9e'",
  "159": "b'\\x9f'",
  "160": "b'\\xa0'",
  "161": "b'\\xa1'",
  "162": "b'\\xa2'",
  "163": "b'\\xa3'",
  "164": "b'\\xa4'",
  "165": "b'\\xa5'",
  "166": "b'\\xa6'",
  "167": "b'\\xa7'",
  "168": "b'\\xa8'",
  "169": "b'\\xa9'",
  "170": "b'\\xaa'",
  "171": "b'\\xab'",
  "172": "b'\\xac'",
  "173": "b'\\xad'",
  "174": "b'\\xae'",
  "175": "b'\\xaf'",
  "176": "b'\\xb0'",
  "177": "b'\\xb1'",
  "178": "b'\\xb2'",
  "179": "b'\\xb3'",
  "180": "b'\\xb4'",
  "181": "b'\\xb5'",
  "182": "b'\\xb6'",
  "183": "b'\\xb7'",
  "184": "b'\\xb8'",
  "185": "b'\\xb9'",
  "186": "b'\\xba'",
  "187": "b'\\xbb'",
  "188": "b'\\xbc'",
  "189": "b'\\xbd'",
  "190": "b'\\xbe'",
  "191": "b'\\xbf'",
  "192": "b'\\xc0'",
  "193": "b'\\xc1'",
  "194": "b'\\xc2'",
  "195": "b'\\xc3'",
  "196": "b'\\xc4'",
  "197": "b'\\xc5'",
  "198": "b'\\xc6'",
  "199": "b'\\xc7'",
  "200": "b'\\xc8'",
  "201": "b'\\xc9'",
  "202": "b'\\xca'",
  "203": "b'\\xcb'",
  "204": "b'\\xcc'",
  "205": "b'\\xcd'",
  "206": "b'\\xce'",
  "207": "b'\\xcf'",
  "208": "b'\\xd0'",
  "209": "b'\\xd1'",
  "210": "b'\\xd2'",
  "211": "b'\\xd3'",
  "212": "b'\\xd4'",
  "213": "b'\\xd5'",
  "214": "b'\\xd6'",
  "215": "b'\\xd7'",
  "216": "b'\\xd8'",
  "217": "b'\\xd9'",
  "218": "b'\\xda'",
  "219": "b'\\xdb'",
  "220": "b'\\xdc'",
  "221": "b'\\xdd'",
  "222": "b'\\xde'",
  "223": "b'\\xdf'",
  "224": "b'\\xe0'",
  "225": "b'\\xe1'",
  "226": "b'\\xe2'",
  "227": "b'\\xe3'",
  "228": "b'\\xe4'",
  "229": "b'\\xe5'",
  "230": "b'\\xe6'",
  "231": "b'\\xe7'",
  "232": "b'\\xe8'",
  "233": "b'\\xe9'",
  "234": "b'\\xea'",
  "235": "b'\\xeb'",
  "236": "b'\\xec'",
  "237": "b'\\xed'",
  "238": "b'\\xee'",
  "239": "b'\\xef'",
  "240": "b'\\xf0'",
  "241": "b'\\xf1'",
  "242": "b'\\xf2'",
  "243": "b'\\xf3'",
  "244": "b'\\xf4'",
  "245": "b'\\xf5'",
  "246": "b'\\xf6'",
  "247": "b'\\xf7'",
  "248": "b'\\xf8'",
  "249": "b'\\xf9'",
  "250": "b'\\xfa'",
  "251": "b'\\xfb'",
  "252": "b'\\xfc'",
  "253": "b'\\xfd'",
  "254": "b'\\xfe'",
  "255": "b'\\xff'",
  "256": "<|endoftext|>",
  "257": " t",
  "258": "he",
  "259": " a",
  "260": " s",
  "261": " w",
  "262": "nd",
  "263": " the",
  "264": "ed",
  "265": " b",
  "266": " to",
  "267": " and",
  "268": " h",
  "269": " f",
  "270": "in",
  "271": " T",
  "272": " wa",
  "273": "re",
  "274": "it",
  "275": "ou",
  "276": " l",
  "277": " d",
  "278": " c",
  "279": " p",
  "280": "ay",
  "281": " m",
  "282": "er",
  "283": " was",
  "284": "om",
  "285": " The",
  "286": " he",
  "287": "is",
  "288": "ar",
  "289": " n",
  "290": "im",
  "291": "on",
  "292": " sa",
  "293": "id",
  "294": "ll",
  "295": " ha",
  "296": " g",
  "297": "at",
  "298": " S",
  "299": "ing",
  "300": "ot",
  "301": "en",
  "302": "an",
  "303": "le",
  "304": "or",
  "305": "ir",
  "306": "am",
  "307": "et",
  "308": " H",
  "309": " it",
  "310": " th",
  "311": "ig",
  "312": " They",
  "313": " in",
  "314": "il",
  "315": " pl",
  "316": " He",
  "317": " \"",
  "318": "ow",
  "319": "ver",
  "320": "ri",
  "321": "ut",
  "322": " be",
  "323": " u",
  "324": " said",
  "325": " play",
  "326": "ith",
  "327": " day",
  "328": " with",
  "329": "pp",
  "330": "On",
  "331": " o",
  "332": " y",
  "333": "oo",
  "334": "ked",
  "335": " r",
  "336": " her",
  "337": "ce",
  "338": " I",
  "339": " She",
  "340": "ld",
  "341": " Tim",
  "342": " his",
  "343": " st",
  "344": "ke",
  "345": " e",
  "346": " big",
  "347": "nt",
  "348": "ck",
  "349": " you",
  "350": "very",
  "351": "st",
  "352": "ve",
  "353": "end",
  "354": " on",
  "355": "un",
  "356": " happ",
  "357": "riend",
  "358": " friend",
  "359": "all",
  "360": "ily",
  "361": " L",
  "362": " they",
  "363": " we",
  "364": " had",
  "365": " not",
  "366": " li",
  "367": " up",
  "368": "her",
  "369": " want",
  "370": " of",
  "371": "ad",
  "372": "itt",
  "373": "se",
  "374": " B",
  "375": " do",
  "376": " happy",
  "377": "ent",
  "378": " very",
  "379": " M",
  "380": "es",
  "381": " that",
  "382": " saw",
  "383": "One",
  "384": "'s",
  "385": "ould",
  "386": " mom",
  "387": " for",
  "388": " sh",
  "389": "ittle",
  "390": " little",
  "391": " so",
  "392": " she",
  "393": "ch",
  "394": "ime",
  "395": " ne",
  "396": " nam",
  "397": ".\"",
  "398": " time",
  "399": " k",
  "400": "ound",
  "401": " there",
  "402": " named",
  "403": " sm",
  "404": " bo",
  "405": " were",
  "406": " Lily",
  "407": " wanted",
  "408": " but",
  "409": "out",
  "410": "The",
  "411": " friends",
  "412": "ved",
  "413": "!\"",
  "414": "ht",
  "415": " Tom",
  "416": "ird",
  "417": "el",
  "418": " bird",
  "419": "al",
  "420": " an",
  "421": "ake",
  "422": " too",
  "423": "ome",
  "424": " It",
  "425": "ug",
  "426": "ide",
  "427": " went",
  "428": " wh",
  "429": " hel",
  "430": "Once",
  "431": " is",
  "432": " all",
  "433": " help",
  "434": "ue",
  "435": " loo",
  "436": " lo",
  "437": "ter",
  "438": " A",
  "439": " upon",
  "440": "ry",
  "441": "ore",
  "442": "ind",
  "443": " fun",
  "444": "get",
  "445": " toy",
  "446": "ill",
  "447": "ame",
  "448": " as",
  "449": " at",
  "450": "ra",
  "451": " j",
  "452": " did",
  "453": "gether",
  "454": " re",
  "455": "ur",
  "456": " se",
  "457": " together",
  "458": "ack",
  "459": " cat",
  "460": "ly",
  "461": " tre",
  "462": "ood",
  "463": "ic",
  "464": "ted",
  "465": " dog",
  "466": " could",
  "467": " can",
  "468": " their",
  "469": "ard",
  "470": "ec",
  "471": "ark",
  "472": " gir",
  "473": " played",
  "474": " him",
  "475": " ball",
  "476": "?\"",
  "477": " girl",
  "478": "way",
  "479": " ro",
  "480": " go",
  "481": "hed",
  "482": "my",
  "483": " are",
  "484": " out",
  "485": " le",
  "486": " fr",
  "487": "ain",
  "488": " kn",
  "489": "hen",
  "490": " them",
  "491": "um",
  "492": "'t",
  "493": "ax",
  "494": " sad",
  "495": "ul",
  "496": " boy",
  "497": " tree",
  "498": "other",
  "499": " have",
  "500": " man",
  "501": " cl",
  "502": " loved",
  "503": " looked",
  "504": "oug",
  "505": " found",
  "506": " sp",
  "507": " star",
  "508": " Sue",
  "509": "one",
  "510": "hing",
  "511": " sc",
  "512": " back",
  "513": "own",
  "514": " Max",
  "515": "are",
  "516": " like",
  "517": "ful",
  "518": "side",
  "519": " me",
  "520": " bec",
  "521": " park",
  "522": "ight",
  "523": "ong",
  "524": " car",
  "525": "op",
  "526": "elt",
  "527": " One",
  "528": " liked",
  "529": " would",
  "530": " make",
  "531": "round",
  "532": " la",
  "533": " fa",
  "534": " felt",
  "535": "You",
  "536": " W",
  "537": "ell",
  "538": " see",
  "539": " But",
  "540": "omet",
  "541": " asked",
  "542": "ag",
  "543": " new",
  "544": " no",
  "545": "ice",
  "546": " Sam",
  "547": "ouse",
  "548": " started",
  "549": "ared",
  "550": " came",
  "551": " Ben",
  "552": " al",
  "553": " other",
  "554": "ought",
  "555": "iled",
  "556": " somet",
  "557": " ag",
  "558": " good",
  "559": " small",
  "560": "ss",
  "561": " br",
  "562": " smiled",
  "563": " say",
  "564": "ried",
  "565": "ade",
  "566": "ings",
  "567": "ob",
  "568": "pot",
  "569": " wor",
  "570": " find",
  "571": " ex",
  "572": "ia",
  "573": " away",
  "574": "ty",
  "575": " put",
  "576": " what",
  "577": " something",
  "578": " co",
  "579": " from",
  "580": " made",
  "581": " thought",
  "582": "ened",
  "583": " home",
  "584": " playing",
  "585": "ook",
  "586": " every",
  "587": " wal",
  "588": " mu",
  "589": "uc",
  "590": "ach",
  "591": "arn",
  "592": " Spot",
  "593": " ran",
  "594": "ile",
  "595": " F",
  "596": "ie",
  "597": " J",
  "598": "ave",
  "599": " again",
  "600": " some",
  "601": " laug",
  "602": "dd",
  "603": " house",
  "604": " down",
  "605": " fl",
  "606": "king",
  "607": " took",
  "608": " scared",
  "609": " pr",
  "610": "ny",
  "611": "ure",
  "612": " toys",
  "613": " learn",
  "614": " You",
  "615": "if",
  "616": " will",
  "617": " box",
  "618": "ick",
  "619": "ret",
  "620": "ab",
  "621": "ep",
  "622": " my",
  "623": " around",
  "624": " things",
  "625": " your",
  "626": "oud",
  "627": " bl",
  "628": "uck",
  "629": " when",
  "630": "ish",
  "631": " lived",
  "632": " fe",
  "633": " then",
  "634": " sun",
  "635": "as",
  "636": " sw",
  "637": ",\"",
  "638": " ch",
  "639": "us",
  "640": "pped",
  "641": " ab",
  "642": " Mia",
  "643": "ank",
  "644": " get",
  "645": "ucy",
  "646": "Tim",
  "647": "ump",
  "648": "Th",
  "649": " lot",
  "650": "ist",
  "651": "oth",
  "652": " tried",
  "653": "ap",
  "654": " know",
  "655": " says",
  "656": " got",
  "657": "ited",
  "658": " who",
  "659": " kne",
  "660": "ust",
  "661": " many",
  "662": "nder",
  "663": " int",
  "664": " about",
  "665": "Lily",
  "666": " pret",
  "667": " dec",
  "668": " any",
  "669": " red",
  "670": " D",
  "671": "ive",
  "672": " knew",
  "673": "ace",
  "674": "ous",
  "675": " more",
  "676": "ise",
  "677": " care",
  "678": "ally",
  "679": " pic",
  "680": "au",
  "681": "qu",
  "682": " hug",
  "683": " Lucy",
  "684": " learned",
  "685": " po",
  "686": " water",
  "687": "fter",
  "688": " v",
  "689": " became",
  "690": " best",
  "691": "ause",
  "692": " op",
  "693": " gre",
  "694": " exc",
  "695": "urp",
  "696": "ways",
  "697": "b'\\xe2\\x80'",
  "698": " outside",
  "699": " laughed",
  "700": " look",
  "701": " always",
  "702": " decid",
  "703": " show",
  "704": " un",
  "705": "ant",
  "706": " Bob",
  "707": " room",
  "708": "fe",
  "709": " decided",
  "710": " ho",
  "711": " because",
  "712": " So",
  "713": " into",
  "714": " eat",
  "715": "ite",
  "716": " jump",
  "717": " And",
  "718": " pe",
  "719": " both",
  "720": "ers",
  "721": " Mom",
  "722": " dad",
  "723": "They",
  "724": "udd",
  "725": " ke",
  "726": " one",
  "727": "nn",
  "728": " this",
  "729": " excited",
  "730": " fast",
  "731": " nice",
  "732": " E",
  "733": " feel",
  "734": "Tom",
  "735": "Yes",
  "736": " run",
  "737": " long",
  "738": " told",
  "739": " sk",
  "740": " am",
  "741": "urpr",
  "742": "our",
  "743": " inside",
  "744": "ull",
  "745": " tr",
  "746": " surpr",
  "747": " mo",
  "748": "ink",
  "749": " pretty",
  "750": "iny",
  "751": " sor",
  "752": "Wh",
  "753": " take",
  "754": "og",
  "755": " sl",
  "756": " each",
  "757": " gave",
  "758": " much",
  "759": " gra",
  "760": "lew",
  "761": "nna",
  "762": " rock",
  "763": " how",
  "764": " str",
  "765": "ara",
  "766": "imal",
  "767": " animal",
  "768": "ged",
  "769": " need",
  "770": " than",
  "771": "But",
  "772": "ven",
  "773": "etter",
  "774": " tow",
  "775": " or",
  "776": " C",
  "777": " under",
  "778": "ess",
  "779": " old",
  "780": " sorry",
  "781": "ge",
  "782": "ised",
  "783": "ro",
  "784": "urt",
  "785": " cle",
  "786": " fish",
  "787": " walked",
  "788": " clo",
  "789": "and",
  "790": " bear",
  "791": "ft",
  "792": "ase",
  "793": "ast",
  "794": " hand",
  "795": "urn",
  "796": " We",
  "797": " kind",
  "798": " His",
  "799": " te",
  "800": "here",
  "801": " happened",
  "802": " just",
  "803": " flow",
  "804": " food",
  "805": " list",
  "806": " didn",
  "807": " animals",
  "808": " hig",
  "809": "pl",
  "810": " near",
  "811": " wat",
  "812": " ide",
  "813": " try",
  "814": "ched",
  "815": " sky",
  "816": "ine",
  "817": " sn",
  "818": "ving",
  "819": " fi",
  "820": "rom",
  "821": " us",
  "822": " idea",
  "823": " better",
  "824": " Amy",
  "825": " bug",
  "826": " heard",
  "827": "gry",
  "828": " its",
  "829": " tw",
  "830": " let",
  "831": "pec",
  "832": "ate",
  "833": "able",
  "834": "ff",
  "835": " en",
  "836": " careful",
  "837": " share",
  "838": "ex",
  "839": " if",
  "840": "Thank",
  "841": "Mom",
  "842": " fly",
  "843": " stor",
  "844": "ial",
  "845": " flew",
  "846": "more",
  "847": " anymore",
  "848": " Th",
  "849": " spec",
  "850": " special",
  "851": "ion",
  "852": " com",
  "853": " lots",
  "854": " never",
  "855": " by",
  "856": "lf",
  "857": "ream",
  "858": " dan",
  "859": " bu",
  "860": " fo",
  "861": " wind",
  "862": " don",
  "863": " tal",
  "864": " clean",
  "865": "ort",
  "866": " gr",
  "867": " love",
  "868": "rm",
  "869": "ber",
  "870": " end",
  "871": "\n\n",
  "872": " Then",
  "873": "ople",
  "874": " even",
  "875": " mag",
  "876": " hard",
  "877": " shiny",
  "878": "udden",
  "879": " fore",
  "880": " over",
  "881": " cake",
  "882": "ak",
  "883": " book",
  "884": " col",
  "885": " turn",
  "886": " fam",
  "887": " bad",
  "888": " safe",
  "889": " after",
  "890": "ady",
  "891": " Anna",
  "892": "uddenly",
  "893": " people",
  "894": " proud",
  "895": " Every",
  "896": " surprised",
  "897": "pected",
  "898": "Let",
  "899": " high",
  "900": " cu",
  "901": " hurt",
  "902": " come",
  "903": "imb",
  "904": "arden",
  "905": " door",
  "906": " garden",
  "907": "bb",
  "908": " ground",
  "909": " opened",
  "910": " picked",
  "911": " loud",
  "912": " climb",
  "913": "expected",
  "914": " unexpected",
  "915": " gl",
  "916": " che",
  "917": "ild",
  "918": " im",
  "919": "As",
  "920": " give",
  "921": " way",
  "922": "ail",
  "923": "'m",
  "924": " thanked",
  "925": " color",
  "926": " blue",
  "927": " still",
  "928": " ever",
  "929": " hugged",
  "930": " From",
  "931": " call",
  "932": " far",
  "933": "ip",
  "934": " Her",
  "935": " Sara",
  "936": " When",
  "937": "No",
  "938": " off",
  "939": " magic",
  "940": "iz",
  "941": "ough",
  "942": "age",
  "943": "ummy",
  "944": " K",
  "945": " jumped",
  "946": " should",
  "947": " family",
  "948": " par",
  "949": "ool",
  "950": " kid",
  "951": " smile",
  "952": "hes",
  "953": "uff",
  "954": " place",
  "955": "kay",
  "956": " walk",
  "957": " now",
  "958": "ct",
  "959": " In",
  "960": " great",
  "961": "em",
  "962": "ture",
  "963": " qu",
  "964": "les",
  "965": " strong",
  "966": " stay",
  "967": " unt",
  "968": " sto",
  "969": "aut",
  "970": " forest",
  "971": "ane",
  "972": " bra",
  "973": "itty",
  "974": " P",
  "975": " frog",
  "976": " bro",
  "977": " until",
  "978": "oon",
  "979": " beaut",
  "980": "dy",
  "981": " squ",
  "982": " stick",
  "983": "xt",
  "984": " next",
  "985": " boat",
  "986": "lease",
  "987": "ning",
  "988": " happily",
  "989": " listen",
  "990": "aking",
  "991": " kids",
  "992": " tra",
  "993": "ies",
  "994": "iful",
  "995": " beautiful",
  "996": " app",
  "997": "th",
  "998": " helped",
  "999": " dra",
  "1000": " showed",
  "1001": " clos",
  "1002": "be",
  "1003": " imp",
  "1004": " story",
  "1005": "unny",
  "1006": "oy",
  "1007": " while",
  "1008": " town",
  "1009": "rel",
  "1010": "pt",
  "1011": " rain",
  "1012": "ress",
  "1013": " picture",
  "1014": " being",
  "1015": " rem",
  "1016": " everyone",
  "1017": "It",
  "1018": "ary",
  "1019": "ree",
  "1020": " mor",
  "1021": " hat",
  "1022": " called",
  "1023": " met",
  "1024": " stopped",
  "1025": " ad",
  "1026": " game",
  "1027": "Now",
  "1028": "He",
  "1029": "Can",
  "1030": " angry",
  "1031": "ger",
  "1032": "uffy",
  "1033": " open",
  "1034": " wo",
  "1035": " truck",
  "1036": " keep",
  "1037": " soft",
  "1038": "When",
  "1039": " cry",
  "1040": " yummy",
  "1041": " lost",
  "1042": " bed",
  "1043": " Let",
  "1044": " Sally",
  "1045": " warm",
  "1046": "by",
  "1047": "vent",
  "1048": " brave",
  "1049": " mouse",
  "1050": " Wh",
  "1051": " ate",
  "1052": " Kitty",
  "1053": "ished",
  "1054": " de",
  "1055": "fore",
  "1056": " doll",
  "1057": "so",
  "1058": " couldn",
  "1059": " watch",
  "1060": " leave",
  "1061": " also",
  "1062": "dded",
  "1063": " fell",
  "1064": " green",
  "1065": " face",
  "1066": " two",
  "1067": "gan",
  "1068": "iss",
  "1069": " flowers",
  "1070": "bit",
  "1071": "What",
  "1072": " R",
  "1073": "ble",
  "1074": " noise",
  "1075": "abbit",
  "1076": "irst",
  "1077": "owl",
  "1078": " where",
  "1079": "az",
  "1080": "ock",
  "1081": " soon",
  "1082": "self",
  "1083": " slide",
  "1084": " rabbit",
  "1085": " hole",
  "1086": "luffy",
  "1087": " before",
  "1088": "irrel",
  "1089": " pus",
  "1090": "ired",
  "1091": " sat",
  "1092": "illy",
  "1093": " hear",
  "1094": " use",
  "1095": "”",
  "1096": "Hi",
  "1097": " pa",
  "1098": " kept",
  "1099": "“",
  "1100": "That",
  "1101": " squirrel",
  "1102": "ear",
  "1103": "Then",
  "1104": "ma",
  "1105": " nodded",
  "1106": " expl",
  "1107": " store",
  "1108": " cook",
  "1109": " hands",
  "1110": "Look",
  "1111": " birds",
  "1112": " pain",
  "1113": " going",
  "1114": " funny",
  "1115": " having",
  "1116": "day",
  "1117": " sing",
  "1118": "aybe",
  "1119": "uch",
  "1120": " ey",
  "1121": "aug",
  "1122": " catch",
  "1123": "aught",
  "1124": " Can",
  "1125": " Fluffy",
  "1126": "uit",
  "1127": " yell",
  "1128": " think",
  "1129": "leep",
  "1130": " cra",
  "1131": " fin",
  "1132": "Ben",
  "1133": " bre",
  "1134": " fix",
  "1135": " tired",
  "1136": " bunny",
  "1137": " used",
  "1138": " looking",
  "1139": " bus",
  "1140": "ange",
  "1141": "air",
  "1142": " work",
  "1143": " wr",
  "1144": " our",
  "1145": " pull",
  "1146": "We",
  "1147": " thr",
  "1148": "thing",
  "1149": " Now",
  "1150": " wait",
  "1151": " kit",
  "1152": " sound",
  "1153": "ting",
  "1154": " jo",
  "1155": " has",
  "1156": " G",
  "1157": " mean",
  "1158": " pond",
  "1159": "ember",
  "1160": " beh",
  "1161": " dr",
  "1162": " sunny",
  "1163": "led",
  "1164": " others",
  "1165": " ask",
  "1166": "ng",
  "1167": "chen",
  "1168": " kitchen",
  "1169": " talk",
  "1170": " flo",
  "1171": " dif",
  "1172": "rew",
  "1173": " pie",
  "1174": " Jo",
  "1175": " head",
  "1176": " real",
  "1177": " first",
  "1178": " tri",
  "1179": " mommy",
  "1180": " eyes",
  "1181": "ello",
  "1182": " import",
  "1183": "Hello",
  "1184": " fav",
  "1185": "ath",
  "1186": "joy",
  "1187": " z",
  "1188": " remember",
  "1189": " right",
  "1190": " flower",
  "1191": " con",
  "1192": " mess",
  "1193": " party",
  "1194": " cold",
  "1195": " Do",
  "1196": " vo",
  "1197": " swe",
  "1198": "ious",
  "1199": " sand",
  "1200": " “",
  "1201": "ac",
  "1202": "orn",
  "1203": " race",
  "1204": " curi",
  "1205": "imes",
  "1206": " important",
  "1207": " duck",
  "1208": " moral",
  "1209": " shared",
  "1210": "zy",
  "1211": "ount",
  "1212": " Jack",
  "1213": " ice",
  "1214": " okay",
  "1215": " advent",
  "1216": " worked",
  "1217": "llow",
  "1218": "At",
  "1219": " enjoy",
  "1220": " dress",
  "1221": " bright",
  "1222": " making",
  "1223": " curious",
  "1224": " own",
  "1225": " tall",
  "1226": " dir",
  "1227": " hop",
  "1228": "reed",
  "1229": " hid",
  "1230": " favor",
  "1231": " ri",
  "1232": "hn",
  "1233": " sleep",
  "1234": " dis",
  "1235": "Wow",
  "1236": " favorite",
  "1237": " thing",
  "1238": " began",
  "1239": " mon",
  "1240": " bag",
  "1241": " hill",
  "1242": "Don",
  "1243": " cla",
  "1244": " draw",
  "1245": " rest",
  "1246": " here",
  "1247": " yard",
  "1248": " tell",
  "1249": " Fin",
  "1250": "ster",
  "1251": " watched",
  "1252": "que",
  "1253": " follow",
  "1254": " move",
  "1255": " bel",
  "1256": "eded",
  "1257": "ect",
  "1258": " cut",
  "1259": " night",
  "1260": " agreed",
  "1261": " pick",
  "1262": "co",
  "1263": " block",
  "1264": " hun",
  "1265": "aper",
  "1266": "lly",
  "1267": " stop",
  "1268": " behind",
  "1269": " This",
  "1270": " surprise",
  "1271": "ied",
  "1272": " sho",
  "1273": " hot",
  "1274": "After",
  "1275": " table",
  "1276": " grass",
  "1277": " worry",
  "1278": " dark",
  "1279": " trees",
  "1280": " voice",
  "1281": " walking",
  "1282": "fere",
  "1283": " floor",
  "1284": " farm",
  "1285": " lion",
  "1286": " top",
  "1287": " differe",
  "1288": " please",
  "1289": " ru",
  "1290": " song",
  "1291": " butter",
  "1292": " tail",
  "1293": " sweet",
  "1294": "Max",
  "1295": " shout",
  "1296": " colors",
  "1297": " read",
  "1298": " Dad",
  "1299": " lady",
  "1300": " forg",
  "1301": "isy",
  "1302": " leaves",
  "1303": " closer",
  "1304": "ign",
  "1305": " cars",
  "1306": " turned",
  "1307": " needed",
  "1308": " tast",
  "1309": "Why",
  "1310": "aring",
  "1311": " wood",
  "1312": " cried",
  "1313": " different",
  "1314": " laugh",
  "1315": " del",
  "1316": " piece",
  "1317": "’",
  "1318": "ered",
  "1319": " Mr",
  "1320": " roll",
  "1321": " adventure",
  "1322": " fire",
  "1323": " does",
  "1324": "ike",
  "1325": " cr",
  "1326": " hungry",
  "1327": " hair",
  "1328": " Suddenly",
  "1329": " paper",
  "1330": " feeling",
  "1331": " yellow",
  "1332": " full",
  "1333": " prin",
  "1334": "bo",
  "1335": "Sue",
  "1336": " touch",
  "1337": " As",
  "1338": "Anna",
  "1339": "Sam",
  "1340": " wet",
  "1341": " friendly",
  "1342": " per",
  "1343": "oom",
  "1344": "ken",
  "1345": "cked",
  "1346": "ached",
  "1347": " swing",
  "1348": " fruit",
  "1349": "ient",
  "1350": " broken",
  "1351": " ready",
  "1352": "bye",
  "1353": "ppy",
  "1354": " prom",
  "1355": " That",
  "1356": " another",
  "1357": " light",
  "1358": " pretend",
  "1359": " dance",
  "1360": "ater",
  "1361": " climbed",
  "1362": "where",
  "1363": " listened",
  "1364": " Bobo",
  "1365": " danc",
  "1366": " running",
  "1367": " only",
  "1368": " plan",
  "1369": " gone",
  "1370": " swim",
  "1371": "bbed",
  "1372": "Suddenly",
  "1373": "sh",
  "1374": " train",
  "1375": "ila",
  "1376": "ndma",
  "1377": "Sara",
  "1378": " Jane",
  "1379": " close",
  "1380": "av",
  "1381": "She",
  "1382": " smell",
  "1383": "So",
  "1384": "aby",
  "1385": " amaz",
  "1386": " hold",
  "1387": " blocks",
  "1388": " wonder",
  "1389": " Timmy",
  "1390": " repl",
  "1391": " All",
  "1392": " butterf",
  "1393": " sees",
  "1394": " reached",
  "1395": " wall",
  "1396": " pu",
  "1397": "oney",
  "1398": "red",
  "1399": " slow",
  "1400": " helping",
  "1401": " dri",
  "1402": " cream",
  "1403": " cool",
  "1404": " glad",
  "1405": "af",
  "1406": " ant",
  "1407": " less",
  "1408": " been",
  "1409": " goodbye",
  "1410": " ac",
  "1411": " fight",
  "1412": "ather",
  "1413": "Mia",
  "1414": " pushed",
  "1415": "iced",
  "1416": " fair",
  "1417": " must",
  "1418": " hide",
  "1419": " moment",
  "1420": " window",
  "1421": " O",
  "1422": " sit",
  "1423": " balloon",
  "1424": " snow",
  "1425": " child",
  "1426": " explore",
  "1427": " Everyone",
  "1428": " ar",
  "1429": " wished",
  "1430": " baby",
  "1431": " done",
  "1432": " wag",
  "1433": " ste",
  "1434": " buy",
  "1435": " stuck",
  "1436": " perf",
  "1437": " thank",
  "1438": " might",
  "1439": "icy",
  "1440": " name",
  "1441": "ized",
  "1442": " trying",
  "1443": " bit",
  "1444": " coming",
  "1445": " bar",
  "1446": " quick",
  "1447": " fall",
  "1448": " apple",
  "1449": "ash",
  "1450": " scary",
  "1451": " looks",
  "1452": " build",
  "1453": " doing",
  "1454": " win",
  "1455": " underst",
  "1456": "aisy",
  "1457": " din",
  "1458": " dream",
  "1459": " dirty",
  "1460": " held",
  "1461": "ames",
  "1462": " books",
  "1463": " mar",
  "1464": "In",
  "1465": " butterfly",
  "1466": " left",
  "1467": " shouted",
  "1468": " count",
  "1469": " replied",
  "1470": "avy",
  "1471": " reach",
  "1472": " tiny",
  "1473": " through",
  "1474": "ott",
  "1475": " dro",
  "1476": " why",
  "1477": " air",
  "1478": " bran",
  "1479": " land",
  "1480": "key",
  "1481": " three",
  "1482": " pulled",
  "1483": " spl",
  "1484": " grow",
  "1485": " treat",
  "1486": " brother",
  "1487": " wise",
  "1488": " woods",
  "1489": " sure",
  "1490": "'re",
  "1491": " chair",
  "1492": "ix",
  "1493": " mat",
  "1494": "ins",
  "1495": " seen",
  "1496": " pink",
  "1497": " clapped",
  "1498": " plant",
  "1499": "ely",
  "1500": " owl",
  "1501": " cup",
  "1502": "ield",
  "1503": " sometimes",
  "1504": "andy",
  "1505": " fill",
  "1506": " cloud",
  "1507": "ask",
  "1508": " swam",
  "1509": "outh",
  "1510": " job",
  "1511": " colorful",
  "1512": " remembered",
  "1513": " bigger",
  "1514": " nest",
  "1515": " mouth",
  "1516": "pe",
  "1517": "Okay",
  "1518": " lesson",
  "1519": " join",
  "1520": " cre",
  "1521": "ph",
  "1522": " There",
  "1523": "oup",
  "1524": "room",
  "1525": "art",
  "1526": " waved",
  "1527": "uddy",
  "1528": " grabbed",
  "1529": " stayed",
  "1530": "Oh",
  "1531": " paint",
  "1532": "This",
  "1533": " clot",
  "1534": " cont",
  "1535": " clothes",
  "1536": " ve",
  "1537": "ower",
  "1538": " After",
  "1539": " waited",
  "1540": " quickly",
  "1541": "cle",
  "1542": " word",
  "1543": " broke",
  "1544": "ucky",
  "1545": " games",
  "1546": " cast",
  "1547": " blew",
  "1548": " gent",
  "1549": "inging",
  "1550": " Mommy",
  "1551": " enjoyed",
  "1552": " noticed",
  "1553": "Jo",
  "1554": "ries",
  "1555": "ation",
  "1556": " set",
  "1557": " likes",
  "1558": " pictures",
  "1559": "ton",
  "1560": " sea",
  "1561": " heavy",
  "1562": " mus",
  "1563": " alone",
  "1564": " gif",
  "1565": "asure",
  "1566": " anything",
  "1567": " spot",
  "1568": " miss",
  "1569": " hopped",
  "1570": " world",
  "1571": " turns",
  "1572": "orm",
  "1573": " year",
  "1574": "der",
  "1575": " bott",
  "1576": " pat",
  "1577": " pot",
  "1578": " pen",
  "1579": "lc",
  "1580": "Her",
  "1581": " mix",
  "1582": " arm",
  "1583": " bike",
  "1584": " tight",
  "1585": " everywhere",
  "1586": " won",
  "1587": "Lucy",
  "1588": " tower",
  "1589": " threw",
  "1590": " himself",
  "1591": " followed",
  "1592": " Buddy",
  "1593": " ride",
  "1594": "man",
  "1595": "less",
  "1596": " ju",
  "1597": " je",
  "1598": "amp",
  "1599": "Bob",
  "1600": "ape",
  "1601": " comp",
  "1602": " key",
  "1603": "row",
  "1604": "\".",
  "1605": " white",
  "1606": "ctor",
  "1607": " wrong",
  "1608": " Daisy",
  "1609": " makes",
  "1610": " What",
  "1611": " break",
  "1612": " black",
  "1613": "arent",
  "1614": "ee",
  "1615": "ner",
  "1616": "Spot",
  "1617": "Do",
  "1618": " deep",
  "1619": "thy",
  "1620": " music",
  "1621": " pol",
  "1622": " delic",
  "1623": "inin",
  "1624": "cess",
  "1625": "ued",
  "1626": " forgot",
  "1627": " bee",
  "1628": " parent",
  "1629": " castle",
  "1630": "ves",
  "1631": "olly",
  "1632": " em",
  "1633": "iet",
  "1634": " wear",
  "1635": " hit",
  "1636": "ister",
  "1637": "oun",
  "1638": " quiet",
  "1639": " round",
  "1640": "ance",
  "1641": " stu",
  "1642": " danced",
  "1643": " vis",
  "1644": "ully",
  "1645": " wants",
  "1646": " leaf",
  "1647": " monster",
  "1648": " nap",
  "1649": " John",
  "1650": " understand",
  "1651": "ang",
  "1652": " bowl",
  "1653": "os",
  "1654": "rot",
  "1655": "ren",
  "1656": " bor",
  "1657": " talked",
  "1658": "itten",
  "1659": " dry",
  "1660": " faster",
  "1661": " cookies",
  "1662": " brought",
  "1663": "fully",
  "1664": " leg",
  "1665": "ross",
  "1666": " mum",
  "1667": "zz",
  "1668": "anan",
  "1669": " side",
  "1670": "ts",
  "1671": "From",
  "1672": " sign",
  "1673": " Inside",
  "1674": " smart",
  "1675": "cy",
  "1676": " rocks",
  "1677": " someone",
  "1678": "His",
  "1679": " poin",
  "1680": " sec",
  "1681": " sharing",
  "1682": " fox",
  "1683": " well",
  "1684": " res",
  "1685": " rel",
  "1686": " happen",
  "1687": " button",
  "1688": " branch",
  "1689": " Lila",
  "1690": " really",
  "1691": " finished",
  "1692": "ence",
  "1693": "ards",
  "1694": " dinner",
  "1695": " sister",
  "1696": " flying",
  "1697": "eddy",
  "1698": " contin",
  "1699": " worried",
  "1700": " ele",
  "1701": " To",
  "1702": " visit",
  "1703": " Maybe",
  "1704": " beach",
  "1705": " que",
  "1706": " secret",
  "1707": " el",
  "1708": " Sarah",
  "1709": " king",
  "1710": "John",
  "1711": "gy",
  "1712": " today",
  "1713": " perfect",
  "1714": " river",
  "1715": " everything",
  "1716": " silly",
  "1717": " shin",
  "1718": " Joe",
  "1719": " danger",
  "1720": "ipp",
  "1721": " children",
  "1722": " gu",
  "1723": " Soon",
  "1724": " field",
  "1725": " filled",
  "1726": " fur",
  "1727": " else",
  "1728": " smiles",
  "1729": " welc",
  "1730": " At",
  "1731": " wish",
  "1732": " Em",
  "1733": "While",
  "1734": " sang",
  "1735": " gi",
  "1736": "ze",
  "1737": " pudd",
  "1738": " snack",
  "1739": " eating",
  "1740": " realized",
  "1741": " pieces",
  "1742": " promised",
  "1743": "ord",
  "1744": " spr",
  "1745": " pig",
  "1746": " free",
  "1747": " continued",
  "1748": " bite",
  "1749": "ead",
  "1750": " parents",
  "1751": " carefully",
  "1752": "ated",
  "1753": "itting",
  "1754": " ear",
  "1755": "Just",
  "1756": " jar",
  "1757": "Maybe",
  "1758": " cow",
  "1759": "Amy",
  "1760": " blank",
  "1761": " drag",
  "1762": "stead",
  "1763": " orange",
  "1764": " mud",
  "1765": " crying",
  "1766": " blanket",
  "1767": " enough",
  "1768": " rolled",
  "1769": "cket",
  "1770": " soup",
  "1771": " sail",
  "1772": " purp",
  "1773": "imi",
  "1774": " yes",
  "1775": "ale",
  "1776": " drink",
  "1777": " snake",
  "1778": "ses",
  "1779": " boun",
  "1780": " pet",
  "1781": " crab",
  "1782": " throw",
  "1783": " laughing",
  "1784": " fairy",
  "1785": " words",
  "1786": " amazing",
  "1787": " bath",
  "1788": "ich",
  "1789": " purple",
  "1790": " Z",
  "1791": " without",
  "1792": "ire",
  "1793": " bottle",
  "1794": " Billy",
  "1795": " gift",
  "1796": " grandma",
  "1797": "Fin",
  "1798": "used",
  "1799": "ons",
  "1800": " past",
  "1801": " money",
  "1802": "iver",
  "1803": "fort",
  "1804": " mail",
  "1805": " Gra",
  "1806": " barked",
  "1807": " wagged",
  "1808": " att",
  "1809": "chool",
  "1810": " monkey",
  "1811": " doctor",
  "1812": "unch",
  "1813": " brown",
  "1814": " moved",
  "1815": "ises",
  "1816": " asks",
  "1817": " getting",
  "1818": " closed",
  "1819": " whe",
  "1820": " welcome",
  "1821": " su",
  "1822": " candy",
  "1823": " school",
  "1824": " morning",
  "1825": " owner",
  "1826": "gg",
  "1827": " lon",
  "1828": " mother",
  "1829": " higher",
  "1830": " sitting",
  "1831": " treasure",
  "1832": ".”",
  "1833": " smo",
  "1834": "!”",
  "1835": " dangerous",
  "1836": " lonely",
  "1837": " Ch",
  "1838": " living",
  "1839": " apples",
  "1840": "ush",
  "1841": " shop",
  "1842": "ased",
  "1843": " strange",
  "1844": "vel",
  "1845": " shining",
  "1846": " road",
  "1847": "ere",
  "1848": " Tommy",
  "1849": " creat",
  "1850": "una",
  "1851": " paw",
  "1852": "ey",
  "1853": " ra",
  "1854": " shoes",
  "1855": " pre",
  "1856": "ible",
  "1857": " -",
  "1858": " stre",
  "1859": " talking",
  "1860": "althy",
  "1861": " caught",
  "1862": " egg",
  "1863": "ol",
  "1864": " pass",
  "1865": " lake",
  "1866": " runs",
  "1867": " buck",
  "1868": " letter",
  "1869": " wings",
  "1870": " chee",
  "1871": "fish",
  "1872": " mad",
  "1873": " fan",
  "1874": "asket",
  "1875": " basket",
  "1876": "ass",
  "1877": " dragon",
  "1878": "app",
  "1879": "est",
  "1880": "Mommy",
  "1881": "set",
  "1882": "cks",
  "1883": " stone",
  "1884": " thinks",
  "1885": " stand",
  "1886": " delicious",
  "1887": " nose",
  "1888": " puddle",
  "1889": " tom",
  "1890": " Bl",
  "1891": " Mimi",
  "1892": " belie",
  "1893": " sam",
  "1894": " farmer",
  "1895": " same",
  "1896": " years",
  "1897": "board",
  "1898": " teddy",
  "1899": " bat",
  "1900": "isk",
  "1901": "itch",
  "1902": " mine",
  "1903": " sear",
  "1904": " coat",
  "1905": "ches",
  "1906": "igh",
  "1907": " days",
  "1908": " gentle",
  "1909": " fit",
  "1910": " start",
  "1911": " finally",
  "1912": " whist",
  "1913": " cray",
  "1914": "igg",
  "1915": " scream",
  "1916": " kite",
  "1917": " pill",
  "1918": "phant",
  "1919": "arm",
  "1920": " vill",
  "1921": " cho",
  "1922": " singing",
  "1923": "ella",
  "1924": "sw",
  "1925": "ined",
  "1926": " tasty",
  "1927": " ph",
  "1928": " ben",
  "1929": " trou",
  "1930": " shell",
  "1931": " herself",
  "1932": " hoped",
  "1933": " answ",
  "1934": " wore",
  "1935": " swings",
  "1936": "sy",
  "1937": " hor",
  "1938": " belong",
  "1939": "Please",
  "1940": " push",
  "1941": " bush",
  "1942": "iskers",
  "1943": " carrot",
  "1944": " arri",
  "1945": "aughty",
  "1946": " teach",
  "1947": "bow",
  "1948": "ract",
  "1949": " naughty",
  "1950": " elephant",
  "1951": " dropped",
  "1952": " shap",
  "1953": "ier",
  "1954": " coll",
  "1955": "sc",
  "1956": " teac",
  "1957": "emy",
  "1958": " woke",
  "1959": "ball",
  "1960": " pile",
  "1961": " hiding",
  "1962": " cour",
  "1963": "isa",
  "1964": "erry",
  "1965": " touc",
  "1966": " min",
  "1967": " puppy",
  "1968": "'ll",
  "1969": " seem",
  "1970": "llie",
  "1971": " twins",
  "1972": "ama",
  "1973": " lunch",
  "1974": " bow",
  "1975": " sack",
  "1976": " bring",
  "1977": " pers",
  "1978": " course",
  "1979": " cheered",
  "1980": " shapes",
  "1981": " Jen",
  "1982": " grew",
  "1983": "fused",
  "1984": " rope",
  "1985": " village",
  "1986": "irth",
  "1987": "irthday",
  "1988": " juice",
  "1989": "ipped",
  "1990": " rainbow",
  "1991": " spin",
  "1992": "OK",
  "1993": " shook",
  "1994": "Jack",
  "1995": " spoon",
  "1996": " bench",
  "1997": " street",
  "1998": " fence",
  "1999": " Fred",
  "2000": " rob",
  "2001": " nut",
  "2002": " cheese",
  "2003": " prob",
  "2004": " cute",
  "2005": " touched",
  "2006": "idge",
  "2007": "col",
  "2008": " joy",
  "2009": " Whiskers",
  "2010": " arrived",
  "2011": " seed",
  "2012": " war",
  "2013": " teacher",
  "2014": " corn",
  "2015": "Good",
  "2016": " forever",
  "2017": " able",
  "2018": " bell",
  "2019": " few",
  "2020": " carry",
  "2021": " most",
  "2022": " plane",
  "2023": " Blue",
  "2024": "lem",
  "2025": " eas",
  "2026": " sounds",
  "2027": "lla",
  "2028": " des",
  "2029": " spo",
  "2030": " problem",
  "2031": " birthday",
  "2032": " power",
  "2033": " inc",
  "2034": "umb",
  "2035": "br",
  "2036": "\n ",
  "2037": " bugs",
  "2038": "ilk",
  "2039": " wonderful",
  "2040": " dolls",
  "2041": " busy",
  "2042": "ato",
  "2043": "irp",
  "2044": "eb",
  "2045": " wra",
  "2046": " promise",
  "2047": " Thank",
  "2048": " feels",
  "2049": "ian",
  "2050": " Emma",
  "2051": "eter",
  "2052": " bread",
  "2053": " neck",
  "2054": "Finally",
  "2055": " milk",
  "2056": " robot",
  "2057": " rec",
  "2058": " shy",
  "2059": "ountain",
  "2060": " kiss",
  "2061": "irt",
  "2062": " heart",
  "2063": " band",
  "2064": " cave",
  "2065": " pocket",
  "2066": "ub",
  "2067": " helpful",
  "2068": "gly",
  "2069": " slowly",
  "2070": " believe",
  "2071": " shake",
  "2072": "umpy",
  "2073": "eared",
  "2074": " patient",
  "2075": " pop",
  "2076": " ob",
  "2077": "arp",
  "2078": " live",
  "2079": " storm",
  "2080": " holding",
  "2081": " ugly",
  "2082": " towards",
  "2083": " upset",
  "2084": " turt",
  "2085": " shr",
  "2086": "adow",
  "2087": " cover",
  "2088": " kitten",
  "2089": "ost",
  "2090": " Remy",
  "2091": " sharp",
  "2092": " disapp",
  "2093": " stories",
  "2094": " suc",
  "2095": " honey",
  "2096": "ove",
  "2097": " Bella",
  "2098": "read",
  "2099": " noises",
  "2100": " Le",
  "2101": " cir",
  "2102": " balls",
  "2103": " spark",
  "2104": " gray",
  "2105": " dist",
  "2106": " dirt",
  "2107": "oggy",
  "2108": " late",
  "2109": " driver",
  "2110": " seat",
  "2111": " bucket",
  "2112": " meet",
  "2113": " young",
  "2114": " amazed",
  "2115": "alm",
  "2116": " turtle",
  "2117": " spid",
  "2118": " treats",
  "2119": " magical",
  "2120": "unt",
  "2121": "ator",
  "2122": " glow",
  "2123": " seek",
  "2124": " zoom",
  "2125": " lem",
  "2126": " sandw",
  "2127": "fortable",
  "2128": "umber",
  "2129": " trip",
  "2130": " mist",
  "2131": "ourn",
  "2132": " splas",
  "2133": " mark",
  "2134": " journ",
  "2135": " fold",
  "2136": " mach",
  "2137": " puzz",
  "2138": " part",
  "2139": "ling",
  "2140": " horse",
  "2141": " organ",
  "2142": " wild",
  "2143": " princess",
  "2144": "pping",
  "2145": "oose",
  "2146": " cookie",
  "2147": "Sure",
  "2148": "ens",
  "2149": " hugs",
  "2150": " Mark",
  "2151": " taking",
  "2152": "ung",
  "2153": " wheel",
  "2154": "epend",
  "2155": " cloth",
  "2156": " Lisa",
  "2157": " sug",
  "2158": " instead",
  "2159": " bubb",
  "2160": " rud",
  "2161": " string",
  "2162": " net",
  "2163": " drove",
  "2164": "iling",
  "2165": " rude",
  "2166": " huge",
  "2167": " Jim",
  "2168": " coin",
  "2169": " stars",
  "2170": " fighting",
  "2171": " spicy",
  "2172": " lucky",
  "2173": "Be",
  "2174": "Of",
  "2175": " craw",
  "2176": "Hey",
  "2177": " bone",
  "2178": " inv",
  "2179": " Grandma",
  "2180": "ors",
  "2181": "not",
  "2182": " ca",
  "2183": "pper",
  "2184": " forget",
  "2185": "up",
  "2186": " di",
  "2187": "aur",
  "2188": " sal",
  "2189": " Finally",
  "2190": " cannot",
  "2191": " whistle",
  "2192": " card",
  "2193": " sick",
  "2194": " path",
  "2195": " cou",
  "2196": " spider",
  "2197": " wide",
  "2198": "Lila",
  "2199": " foot",
  "2200": " snowman",
  "2201": " songs",
  "2202": " life",
  "2203": " pillow",
  "2204": "ize",
  "2205": "ular",
  "2206": " Just",
  "2207": "Later",
  "2208": " Ann",
  "2209": "ert",
  "2210": " fixed",
  "2211": " giant",
  "2212": "oph",
  "2213": "rill",
  "2214": " nod",
  "2215": " boss",
  "2216": " last",
  "2217": " comes",
  "2218": " joke",
  "2219": " moon",
  "2220": " taste",
  "2221": " machine",
  "2222": " grumpy",
  "2223": "den",
  "2224": " wave",
  "2225": " thin",
  "2226": " drive",
  "2227": " cart",
  "2228": " ash",
  "2229": " ser",
  "2230": " grab",
  "2231": " peace",
  "2232": "lower",
  "2233": " daddy",
  "2234": " On",
  "2235": " Leo",
  "2236": "ery",
  "2237": " sel",
  "2238": " shelf",
  "2239": " hidden",
  "2240": "erest",
  "2241": " suddenly",
  "2242": " wasn",
  "2243": " write",
  "2244": " landed",
  "2245": " confused",
  "2246": " change",
  "2247": " worm",
  "2248": " interest",
  "2249": " chased",
  "2250": "oop",
  "2251": " fruits",
  "2252": " sour",
  "2253": "ity",
  "2254": " myster",
  "2255": " bark",
  "2256": " rad",
  "2257": " smooth",
  "2258": " Come",
  "2259": " adventures",
  "2260": " val",
  "2261": " stepped",
  "2262": " fle",
  "2263": "ope",
  "2264": " oven",
  "2265": " takes",
  "2266": " missed",
  "2267": " selfish",
  "2268": "kin",
  "2269": " sheep",
  "2270": " messy",
  "2271": "To",
  "2272": " across",
  "2273": " ent",
  "2274": " exp",
  "2275": "to",
  "2276": " ce",
  "2277": " later",
  "2278": "elly",
  "2279": " N",
  "2280": "ife",
  "2281": " sticks",
  "2282": " tie",
  "2283": "St",
  "2284": "ever",
  "2285": " Luna",
  "2286": " step",
  "2287": " bought",
  "2288": " drew",
  "2289": " tea",
  "2290": "pect",
  "2291": "irpy",
  "2292": "box",
  "2293": "?”",
  "2294": " wash",
  "2295": " lay",
  "2296": " pour",
  "2297": " beak",
  "2298": "ose",
  "2299": " jog",
  "2300": " grate",
  "2301": " ducks",
  "2302": " spe",
  "2303": " legs",
  "2304": "ugg",
  "2305": " fil",
  "2306": " Bu",
  "2307": " emp",
  "2308": "mer",
  "2309": " hope",
  "2310": " empty",
  "2311": " slid",
  "2312": " feather",
  "2313": " sleepy",
  "2314": " drum",
  "2315": "amed",
  "2316": "ars",
  "2317": "eth",
  "2318": " zoo",
  "2319": " pan",
  "2320": " phone",
  "2321": " grateful",
  "2322": " fing",
  "2323": "ions",
  "2324": " lemon",
  "2325": "let",
  "2326": " Cat",
  "2327": " clever",
  "2328": " Molly",
  "2329": " smelly",
  "2330": " imag",
  "2331": " splash",
  "2332": " interesting",
  "2333": " Jill",
  "2334": " save",
  "2335": " chick",
  "2336": " calm",
  "2337": " med",
  "2338": " watching",
  "2339": "Soon",
  "2340": "izzy",
  "2341": "izz",
  "2342": " plate",
  "2343": " ign",
  "2344": "yard",
  "2345": " clouds",
  "2346": " banan",
  "2347": " line",
  "2348": " faces",
  "2349": " ba",
  "2350": " act",
  "2351": " lift",
  "2352": " though",
  "2353": " wolf",
  "2354": " backyard",
  "2355": "wel",
  "2356": " seemed",
  "2357": " dogs",
  "2358": " spray",
  "2359": "Come",
  "2360": " prot",
  "2361": " whole",
  "2362": " mot",
  "2363": " fancy",
  "2364": " Daddy",
  "2365": " quest",
  "2366": " arms",
  "2367": " puzzle",
  "2368": " healthy",
  "2369": " supp",
  "2370": "ward",
  "2371": " finish",
  "2372": "erly",
  "2373": " along",
  "2374": "llo",
  "2375": " rocket",
  "2376": " explain",
  "2377": " rod",
  "2378": "dge",
  "2379": " easy",
  "2380": " jewel",
  "2381": "ont",
  "2382": " pract",
  "2383": " jelly",
  "2384": " Chirpy",
  "2385": " tid",
  "2386": " fake",
  "2387": " crayons",
  "2388": " wondered",
  "2389": " maybe",
  "2390": " scar",
  "2391": " ship",
  "2392": " nothing",
  "2393": "onest",
  "2394": " emb",
  "2395": "iger",
  "2396": " pool",
  "2397": " longer",
  "2398": " anyone",
  "2399": " Be",
  "2400": " Jerry",
  "2401": "ually",
  "2402": " front",
  "2403": " working",
  "2404": " gives",
  "2405": "irr",
  "2406": " pack",
  "2407": " such",
  "2408": " Bunny",
  "2409": "ocked",
  "2410": "ment",
  "2411": " bossy",
  "2412": " Doggy",
  "2413": " trouble",
  "2414": " smelled",
  "2415": " saved",
  "2416": " pin",
  "2417": " ring",
  "2418": "rass",
  "2419": " neigh",
  "2420": "arrass",
  "2421": "iting",
  "2422": " honest",
  "2423": " av",
  "2424": "arge",
  "2425": " embarrass",
  "2426": " van",
  "2427": " forgive",
  "2428": " tidy",
  "2429": " weak",
  "2430": "urse",
  "2431": " puts",
  "2432": "unk",
  "2433": " kick",
  "2434": " shirt",
  "2435": " With",
  "2436": " mind",
  "2437": " Ollie",
  "2438": " neighb",
  "2439": " plants",
  "2440": " sol",
  "2441": " Momo",
  "2442": " gently",
  "2443": " cozy",
  "2444": "orrow",
  "2445": "ming",
  "2446": " explor",
  "2447": "sp",
  "2448": " mistake",
  "2449": " yog",
  "2450": "oc",
  "2451": "oomy",
  "2452": " pointed",
  "2453": " lad",
  "2454": " af",
  "2455": " stood",
  "2456": "ork",
  "2457": " onto",
  "2458": " waiting",
  "2459": " jumping",
  "2460": " prince",
  "2461": " cross",
  "2462": " lock",
  "2463": " cheer",
  "2464": " queen",
  "2465": " Why",
  "2466": " Mary",
  "2467": " wing",
  "2468": "ones",
  "2469": "we",
  "2470": " large",
  "2471": " lovely",
  "2472": "ult",
  "2473": " sur",
  "2474": " ret",
  "2475": "And",
  "2476": " deer",
  "2477": " chew",
  "2478": " couch",
  "2479": " bal",
  "2480": "aughter",
  "2481": " stret",
  "2482": "era",
  "2483": " Their",
  "2484": " places",
  "2485": " My",
  "2486": " ladder",
  "2487": "oof",
  "2488": " return",
  "2489": "raid",
  "2490": " ants",
  "2491": " dish",
  "2492": " afraid",
  "2493": " cleaned",
  "2494": " tomorrow",
  "2495": " building",
  "2496": " sandwich",
  "2497": " person",
  "2498": "Sally",
  "2499": "ned",
  "2500": " pretended",
  "2501": " bounce",
  "2502": " wip",
  "2503": "gest",
  "2504": " match",
  "2505": " rich",
  "2506": "uce",
  "2507": " pizz",
  "2508": " gather",
  "2509": " search",
  "2510": " boring",
  "2511": "oman",
  "2512": " Somet",
  "2513": " teeth",
  "2514": " hum",
  "2515": "Kitty",
  "2516": "My",
  "2517": "aced",
  "2518": " daughter",
  "2519": " woman",
  "2520": " scarf",
  "2521": " goes",
  "2522": " Together",
  "2523": " law",
  "2524": " stra",
  "2525": " swimming",
  "2526": " furry",
  "2527": " splashed",
  "2528": " pri",
  "2529": " loves",
  "2530": " true",
  "2531": " screamed",
  "2532": " lazy",
  "2533": " gen",
  "2534": " answer",
  "2535": " number",
  "2536": " eag",
  "2537": " ashamed",
  "2538": " pizza",
  "2539": "aw",
  "2540": " appeared",
  "2541": " fear",
  "2542": " nearby",
  "2543": " powerful",
  "2544": " flag",
  "2545": " St",
  "2546": " hang",
  "2547": "vous",
  "2548": " clown",
  "2549": "ek",
  "2550": " chase",
  "2551": " motor",
  "2552": " wand",
  "2553": " TV",
  "2554": " rub",
  "2555": " success",
  "2556": " chocol",
  "2557": " If",
  "2558": " creative",
  "2559": " trust",
  "2560": " wearing",
  "2561": " noisy",
  "2562": " matter",
  "2563": "pa",
  "2564": " dig",
  "2565": " hello",
  "2566": " ner",
  "2567": " tool",
  "2568": " saf",
  "2569": " Bird",
  "2570": "ado",
  "2571": " nervous",
  "2572": "elp",
  "2573": " test",
  "2574": " smiling",
  "2575": " sold",
  "2576": "icked",
  "2577": "oppy",
  "2578": "osaur",
  "2579": " circle",
  "2580": "mb",
  "2581": " map",
  "2582": " drank",
  "2583": " class",
  "2584": " tries",
  "2585": " chocolate",
  "2586": " Please",
  "2587": " impress",
  "2588": " knee",
  "2589": " gener",
  "2590": " dinosaur",
  "2591": " polite",
  "2592": " mirr",
  "2593": " Bobby",
  "2594": " Tiny",
  "2595": " balloons",
  "2596": " gold",
  "2597": " rare",
  "2598": " protect",
  "2599": " cand",
  "2600": "Stop",
  "2601": " carried",
  "2602": " Go",
  "2603": "ensive",
  "2604": " ap",
  "2605": " shadow",
  "2606": " mirror",
  "2607": " Don",
  "2608": " bald",
  "2609": " gun",
  "2610": "ina",
  "2611": " expensive",
  "2612": " reg",
  "2613": "iff",
  "2614": " mysterious",
  "2615": " Sp",
  "2616": " pump",
  "2617": " note",
  "2618": " hero",
  "2619": " march",
  "2620": " har",
  "2621": "arl",
  "2622": " icy",
  "2623": " respect",
  "2624": " weird",
  "2625": " snee",
  "2626": " cri",
  "2627": " gate",
  "2628": " soap",
  "2629": "rag",
  "2630": "ute",
  "2631": "issors",
  "2632": " these",
  "2633": " poor",
  "2634": " towel",
  "2635": " whale",
  "2636": " feet",
  "2637": " tape",
  "2638": " dizzy",
  "2639": "itter",
  "2640": " generous",
  "2641": "ndpa",
  "2642": " pres",
  "2643": " Benny",
  "2644": "nic",
  "2645": " disco",
  "2646": "Help",
  "2647": "ventually",
  "2648": " picnic",
  "2649": " mic",
  "2650": " lead",
  "2651": " sque",
  "2652": " embarrassed",
  "2653": " journey",
  "2654": " sugar",
  "2655": "isp",
  "2656": "scape",
  "2657": " boot",
  "2658": " tent",
  "2659": " peaceful",
  "2660": " fat",
  "2661": " Bear",
  "2662": " scissors",
  "2663": " tasted",
  "2664": " yelled",
  "2665": "Tommy",
  "2666": " tick",
  "2667": " mel",
  "2668": " brush",
  "2669": " dancing",
  "2670": "ness",
  "2671": " glue",
  "2672": " hur",
  "2673": " rough",
  "2674": " clap",
  "2675": " bridge",
  "2676": "ote",
  "2677": " decor",
  "2678": " closet",
  "2679": " crown",
  "2680": " stir",
  "2681": "ual",
  "2682": "imp",
  "2683": " print",
  "2684": " Sometimes",
  "2685": "owed",
  "2686": "airs",
  "2687": " How",
  "2688": "ume",
  "2689": " cap",
  "2690": " mod",
  "2691": " lamp",
  "2692": " vase",
  "2693": " scare",
  "2694": "lebr",
  "2695": " relie",
  "2696": "lves",
  "2697": "any",
  "2698": " eld",
  "2699": " tele",
  "2700": " celebr",
  "2701": " gigg",
  "2702": " whisp",
  "2703": " log",
  "2704": " sco",
  "2705": " blow",
  "2706": " painted",
  "2707": " Ducky",
  "2708": " pay",
  "2709": "erries",
  "2710": " wis",
  "2711": " berries",
  "2712": " mixed",
  "2713": " spread",
  "2714": " wouldn",
  "2715": " cage",
  "2716": " bake",
  "2717": "rob",
  "2718": "getable",
  "2719": " mountain",
  "2720": " adm",
  "2721": " drawing",
  "2722": " become",
  "2723": " famous",
  "2724": " knocked",
  "2725": " bean",
  "2726": " norm",
  "2727": " vegetable",
  "2728": "asp",
  "2729": " kicked",
  "2730": "ustr",
  "2731": " shark",
  "2732": "ser",
  "2733": " incred",
  "2734": " lose",
  "2735": " normal",
  "2736": " wrap",
  "2737": "ced",
  "2738": " group",
  "2739": " thick",
  "2740": " 3",
  "2741": " fine",
  "2742": " glass",
  "2743": " ignor",
  "2744": " clock",
  "2745": " team",
  "2746": " elderly",
  "2747": " clear",
  "2748": " corner",
  "2749": " frustr",
  "2750": " mighty",
  "2751": "robe",
  "2752": " cone",
  "2753": " incredible",
  "2754": " Br",
  "2755": "ighed",
  "2756": "Dad",
  "2757": " moms",
  "2758": " balance",
  "2759": " sock",
  "2760": " space",
  "2761": " jam",
  "2762": "ragile",
  "2763": " fright",
  "2764": " organized",
  "2765": " branches",
  "2766": " roar",
  "2767": "port",
  "2768": " sword",
  "2769": "alous",
  "2770": " Mama",
  "2771": " guess",
  "2772": " fool",
  "2773": " sell",
  "2774": " feed",
  "2775": " Some",
  "2776": " which",
  "2777": " horn",
  "2778": " present",
  "2779": " jealous",
  "2780": " yarn",
  "2781": "ony",
  "2782": " fragile",
  "2783": " burn",
  "2784": " understood",
  "2785": " mis",
  "2786": " stubb",
  "2787": " ter",
  "2788": " frustrated",
  "2789": "Where",
  "2790": "ray",
  "2791": " hose",
  "2792": "cient",
  "2793": "anged",
  "2794": " spent",
  "2795": " shoe",
  "2796": " taught",
  "2797": " stubborn",
  "2798": " twist",
  "2799": " creature",
  "2800": " chest",
  "2801": " spoiled",
  "2802": " relieved",
  "2803": "ym",
  "2804": " ancient",
  "2805": "ique",
  "2806": " wake",
  "2807": " fier",
  "2808": " pray",
  "2809": " fierce",
  "2810": " eggs",
  "2811": " cab",
  "2812": " terri",
  "2813": " barn",
  "2814": " ord",
  "2815": " pumpkin",
  "2816": " comfortable",
  "2817": " frightened",
  "2818": "orry",
  "2819": " toug",
  "2820": " unique",
  "2821": " measure",
  "2822": " goat",
  "2823": " wagon",
  "2824": " unus",
  "2825": " breath",
  "2826": " foolish",
  "2827": " useful",
  "2828": " exploring",
  "2829": "dle",
  "2830": " straw",
  "2831": " unusual",
  "2832": " dug",
  "2833": " clay",
  "2834": " discover",
  "2835": " tomato",
  "2836": " Pe",
  "2837": " dead",
  "2838": " finding",
  "2839": " police",
  "2840": " wrote",
  "2841": " clum",
  "2842": " exam",
  "2843": "lace",
  "2844": " waves",
  "2845": " square",
  "2846": " hears",
  "2847": " cabin",
  "2848": " tells",
  "2849": " necklace",
  "2850": " dull",
  "2851": " clumsy",
  "2852": " tough",
  "2853": " bubbles",
  "2854": " nosy",
  "2855": "kn",
  "2856": " searched",
  "2857": "Together",
  "2858": " washed",
  "2859": " bathroom",
  "2860": " paws",
  "2861": "bby",
  "2862": "ond",
  "2863": "unn",
  "2864": " board",
  "2865": "fic",
  "2866": "known",
  "2867": " asking",
  "2868": " crazy",
  "2869": " thankful",
  "2870": " sunf",
  "2871": " bitter",
  "2872": "yal",
  "2873": " pir",
  "2874": "berry",
  "2875": "alk",
  "2876": " ind",
  "2877": " diffic",
  "2878": " rose",
  "2879": "cil",
  "2880": " swan",
  "2881": " bloom",
  "2882": " unknown",
  "2883": " Ella",
  "2884": " covered",
  "2885": " difficult",
  "2886": " add",
  "2887": " pencil",
  "2888": " finger",
  "2889": " ham",
  "2890": " hoop",
  "2891": " jet",
  "2892": " witch",
  "2893": " drop",
  "2894": "Me",
  "2895": " '",
  "2896": " chicken",
  "2897": " gloomy",
  "2898": "apped",
  "2899": " loyal",
  "2900": "als",
  "2901": "Here",
  "2902": " wealthy",
  "2903": "com",
  "2904": "light",
  "2905": " unl",
  "2906": " cats",
  "2907": " ending",
  "2908": " guit",
  "2909": "bled",
  "2910": "shine",
  "2911": " dove",
  "2912": " joined",
  "2913": " cher",
  "2914": "anut",
  "2915": " mov",
  "2916": " terrible",
  "2917": " yours",
  "2918": "iant",
  "2919": " U",
  "2920": " Rex",
  "2921": " salad",
  "2922": " Andy",
  "2923": " nuts",
  "2924": " rat",
  "2925": "ground",
  "2926": " tiger",
  "2927": " potato",
  "2928": " mask",
  "2929": "xible",
  "2930": "selves",
  "2931": " value",
  "2932": " changed",
  "2933": " moving",
  "2934": " exciting",
  "2935": "ormous",
  "2936": " Many",
  "2937": " body",
  "2938": " Tr",
  "2939": " toast",
  "2940": " record",
  "2941": "erp",
  "2942": " zip",
  "2943": " disg",
  "2944": " cheap",
  "2945": " guitar",
  "2946": "irsty",
  "2947": " knowing",
  "2948": " adventur",
  "2949": " yourself",
  "2950": " enormous",
  "2951": " hairy",
  "2952": "Every",
  "2953": " shoot",
  "2954": " Brown",
  "2955": " bored",
  "2956": " pepper",
  "2957": " remind",
  "2958": "ory",
  "2959": "land",
  "2960": " acorn",
  "2961": " adventurous",
  "2962": " sunshine",
  "2963": " smaller",
  "2964": " stuff",
  "2965": " hats",
  "2966": " solve",
  "2967": " Jimmy",
  "2968": " flexible",
  "2969": " cost",
  "2970": "rilliant",
  "2971": " knife",
  "2972": " perform",
  "2973": " snacks",
  "2974": " nods",
  "2975": " shore",
  "2976": " brilliant",
  "2977": " thirsty",
  "2978": " delicate",
  "2979": " frown",
  "2980": " disgust",
  "2981": " collect",
  "2982": " stri",
  "2983": " seeds",
  "2984": " counted",
  "2985": " asleep",
  "2986": " banana",
  "2987": "reen",
  "2988": " mailbox",
  "2989": " dough",
  "2990": "iness",
  "2991": " trick",
  "2992": " neighbor",
  "2993": "ungle",
  "2994": " heal",
  "2995": "live",
  "2996": "Who",
  "2997": " stage",
  "2998": "ident",
  "2999": " market",
  "3000": " cube",
  "3001": " stat",
  "3002": " jungle",
  "3003": " squee",
  "3004": "mbre",
  "3005": " explained",
  "3006": "ates",
  "3007": " umbre",
  "3008": " disgusting",
  "3009": "Jim",
  "3010": "fted",
  "3011": " lab",
  "3012": " jolly",
  "3013": " flash",
  "3014": "und",
  "3015": " fridge",
  "3016": "inal",
  "3017": "pid",
  "3018": "ilt",
  "3019": " crane",
  "3020": "corn",
  "3021": " suit",
  "3022": " rh",
  "3023": "iddle",
  "3024": " sunflower",
  "3025": " times",
  "3026": " Al",
  "3027": "erpill",
  "3028": " caterpill",
  "3029": " relax",
  "3030": " shiver",
  "3031": " four",
  "3032": " island",
  "3033": "iginal",
  "3034": " harm",
  "3035": "ict",
  "3036": " While",
  "3037": "ying",
  "3038": " stupid",
  "3039": " medic",
  "3040": " Instead",
  "3041": " comb",
  "3042": " goose",
  "3043": " cro",
  "3044": "edient",
  "3045": " Will",
  "3046": " stove",
  "3047": "If",
  "3048": "Are",
  "3049": " independ",
  "3050": "Mum",
  "3051": "most",
  "3052": " gem",
  "3053": " batter",
  "3054": " sighed",
  "3055": " vegetables",
  "3056": " stones",
  "3057": "pes",
  "3058": " shine",
  "3059": "How",
  "3060": " medicine",
  "3061": " depend",
  "3062": " rug",
  "3063": " Your",
  "3064": " careless",
  "3065": " original",
  "3066": " stamp",
  "3067": " gar",
  "3068": " cries",
  "3069": "Inside",
  "3070": "gu",
  "3071": " carrots",
  "3072": " scr",
  "3073": " successful",
  "3074": " sauce",
  "3075": " jeep",
  "3076": " popcorn",
  "3077": " meal",
  "3078": " obedient",
  "3079": " almost",
  "3080": " middle",
  "3081": " magn",
  "3082": " study",
  "3083": " independent",
  "3084": " fearful",
  "3085": " jack",
  "3086": "met",
  "3087": "inky",
  "3088": "Sorry",
  "3089": " Sammy",
  "3090": " escape",
  "3091": " caterpillar",
  "3092": " serious",
  "3093": " peanut",
  "3094": " bedroom",
  "3095": " eager",
  "3096": "aken",
  "3097": " gets",
  "3098": " parrot",
  "3099": " statue",
  "3100": " helmet",
  "3101": " pebb",
  "3102": " No",
  "3103": " fountain",
  "3104": " raven",
  "3105": " ang",
  "3106": " pasta",
  "3107": " umbrella",
  "3108": " compet",
  "3109": "There",
  "3110": " jacket",
  "3111": " belonged",
  "3112": " dest",
  "3113": " filthy",
  "3114": " design",
  "3115": " borrow",
  "3116": " cam",
  "3117": "erable",
  "3118": " houses",
  "3119": " prize",
  "3120": " hay",
  "3121": " brace",
  "3122": " standing",
  "3123": " miserable",
  "3124": " raced",
  "3125": " taken",
  "3126": "ages",
  "3127": " fork",
  "3128": " crayon",
  "3129": " painting",
  "3130": "io",
  "3131": " triang",
  "3132": " impressive",
  "3133": "ud",
  "3134": " choose",
  "3135": " fig",
  "3136": " tied",
  "3137": "iable",
  "3138": " spotted",
  "3139": " lifted",
  "3140": " slipped",
  "3141": "ours",
  "3142": " tank",
  "3143": " spring",
  "3144": " thoughtful",
  "3145": " dependable",
  "3146": " steal",
  "3147": " garage",
  "3148": "enny",
  "3149": " built",
  "3150": " mush",
  "3151": " er",
  "3152": "ipe",
  "3153": " mole",
  "3154": " crawled",
  "3155": " scale",
  "3156": " boats",
  "3157": " pian",
  "3158": " pant",
  "3159": " hammer",
  "3160": " bottom",
  "3161": "lph",
  "3162": " cheerful",
  "3163": " using",
  "3164": " smoke",
  "3165": " picks",
  "3166": " moder",
  "3167": "berries",
  "3168": " shows",
  "3169": "rn",
  "3170": " piano",
  "3171": " magnet",
  "3172": "dile",
  "3173": "codile",
  "3174": " hurts",
  "3175": "inary",
  "3176": " ref",
  "3177": " crack",
  "3178": " eng",
  "3179": " aunt",
  "3180": " melon",
  "3181": " waff",
  "3182": " modern",
  "3183": " dolph",
  "3184": "unnel",
  "3185": "cream",
  "3186": "pack",
  "3187": " tunnel",
  "3188": "oin",
  "3189": " arrow",
  "3190": " reliable",
  "3191": " hopping",
  "3192": " mushroom",
  "3193": " jug",
  "3194": "Timmy",
  "3195": " squash",
  "3196": " gum",
  "3197": " sink",
  "3198": " movie",
  "3199": " tax",
  "3200": " flute",
  "3201": " beet",
  "3202": " lean",
  "3203": "Their",
  "3204": "iv",
  "3205": " popular",
  "3206": "opter",
  "3207": "icopter",
  "3208": " cryst",
  "3209": " ones",
  "3210": " sil",
  "3211": " competit",
  "3212": " helicopter",
  "3213": "aser",
  "3214": " needs",
  "3215": "ipop",
  "3216": "llipop",
  "3217": " crocodile",
  "3218": " liz",
  "3219": "Molly",
  "3220": " press",
  "3221": " troubled",
  "3222": " pige",
  "3223": " locked",
  "3224": " tricks",
  "3225": " lollipop",
  "3226": " playful",
  "3227": " humble",
  "3228": " taxi",
  "3229": " kissed",
  "3230": " low",
  "3231": "appy",
  "3232": "comfortable",
  "3233": "amond",
  "3234": " uncomfortable",
  "3235": " rid",
  "3236": "host",
  "3237": " wander",
  "3238": "atch",
  "3239": " angel",
  "3240": "edy",
  "3241": "cles",
  "3242": " torn",
  "3243": " grace",
  "3244": " anx",
  "3245": " wrapped",
  "3246": " muff",
  "3247": " twig",
  "3248": " pants",
  "3249": " disappoin",
  "3250": " Sn",
  "3251": " helps",
  "3252": " diamond",
  "3253": " camera",
  "3254": "atter",
  "3255": "oto",
  "3256": " anxious",
  "3257": " ghost",
  "3258": " tears",
  "3259": " ruined",
  "3260": "cident",
  "3261": " Jenny",
  "3262": "ilty",
  "3263": " quar",
  "3264": "aff",
  "3265": " Even",
  "3266": " fis",
  "3267": "opl",
  "3268": " belt",
  "3269": "eropl",
  "3270": " env",
  "3271": " guilty",
  "3272": " bull",
  "3273": " aeropl",
  "3274": " helpless",
  "3275": " happiness",
  "3276": " lizard",
  "3277": " boys",
  "3278": "cut",
  "3279": "ext",
  "3280": " cere",
  "3281": " walks",
  "3282": "cean",
  "3283": " passed",
  "3284": " meant",
  "3285": " ocean",
  "3286": " fluffy",
  "3287": " wire",
  "3288": " nail",
  "3289": " bracelet",
  "3290": " deaf",
  "3291": "zed",
  "3292": " stretch",
  "3293": " candle",
  "3294": " cact",
  "3295": "tt",
  "3296": " beetle",
  "3297": " mop",
  "3298": " harmless",
  "3299": "umpet",
  "3300": " ordinary",
  "3301": " answered",
  "3302": " collar",
  "3303": " cop",
  "3304": " bees",
  "3305": " tire",
  "3306": " shape",
  "3307": " quarrel",
  "3308": " radio",
  "3309": " flashlight",
  "3310": " crystal",
  "3311": " harder",
  "3312": " poured",
  "3313": " trumpet",
  "3314": " engine",
  "3315": "Mama",
  "3316": " persist",
  "3317": " hunt",
  "3318": " tooth",
  "3319": " cereal",
  "3320": " invited",
  "3321": " comput",
  "3322": " tag",
  "3323": " office",
  "3324": " melt",
  "3325": " spill",
  "3326": " charm",
  "3327": "coa",
  "3328": " lit",
  "3329": " scoot",
  "3330": " comet",
  "3331": " triangle",
  "3332": "ief",
  "3333": " mug",
  "3334": " rep",
  "3335": "ube",
  "3336": " yogurt",
  "3337": " spend",
  "3338": " compass",
  "3339": " accident",
  "3340": " shade",
  "3341": "hett",
  "3342": "aghett",
  "3343": "aghetti",
  "3344": " disappointed",
  "3345": " licked",
  "3346": " cactus",
  "3347": " pale",
  "3348": " cush",
  "3349": " figure",
  "3350": " regular",
  "3351": " giving",
  "3352": " avoc",
  "3353": " pro",
  "3354": " sheet",
  "3355": " whispered",
  "3356": "aze",
  "3357": "uth",
  "3358": "ellig",
  "3359": " create",
  "3360": " barber",
  "3361": " intellig",
  "3362": " pipe",
  "3363": " rode",
  "3364": " roof",
  "3365": "Jane",
  "3366": " thread",
  "3367": "ither",
  "3368": " vi",
  "3369": " load",
  "3370": " libr",
  "3371": " gifted",
  "3372": "ccol",
  "3373": " practiced",
  "3374": " delight",
  "3375": "ccoli",
  "3376": " harsh",
  "3377": "asses",
  "3378": " pow",
  "3379": " dust",
  "3380": " True",
  "3381": " bicy",
  "3382": "azz",
  "3383": " spaghetti",
  "3384": " compassion",
  "3385": " sailed",
  "3386": "urkey",
  "3387": "ubby",
  "3388": " forward",
  "3389": " persistent",
  "3390": " mitten",
  "3391": " cocoa",
  "3392": " envel",
  "3393": " questions",
  "3394": " computer",
  "3395": " coo",
  "3396": " feathers",
  "3397": "hip",
  "3398": " speed",
  "3399": " glove",
  "3400": "ging",
  "3401": "Bobo",
  "3402": " rice",
  "3403": " shrimp",
  "3404": " desk",
  "3405": " stream",
  "3406": " inse",
  "3407": " pigeon",
  "3408": " charming",
  "3409": " ears",
  "3410": " carp",
  "3411": "lcan",
  "3412": " raft",
  "3413": " envious",
  "3414": " knot",
  "3415": " turkey",
  "3416": " stronger",
  "3417": "omes",
  "3418": " coins",
  "3419": " tap",
  "3420": "lcano",
  "3421": "weet",
  "3422": " trap",
  "3423": "umbers",
  "3424": " aeroplane",
  "3425": " trunk",
  "3426": " wheat",
  "3427": " boxes",
  "3428": " chubby",
  "3429": " carpet",
  "3430": " restless",
  "3431": " intelligent",
  "3432": " tube",
  "3433": " spun",
  "3434": " dreams",
  "3435": " friendship",
  "3436": "ulif",
  "3437": "olin",
  "3438": " half",
  "3439": " loop",
  "3440": " crawl",
  "3441": " broccoli",
  "3442": " onion",
  "3443": " deliver",
  "3444": "anger",
  "3445": " acce",
  "3446": " vide",
  "3447": " volcano",
  "3448": " Jake",
  "3449": " sle",
  "3450": " track",
  "3451": " bri",
  "3452": " caulif",
  "3453": " vine",
  "3454": "ye",
  "3455": " ticket",
  "3456": " thief",
  "3457": "essie",
  "3458": "cycle",
  "3459": " louder",
  "3460": " insect",
  "3461": " numbers",
  "3462": "asing",
  "3463": " yaw",
  "3464": " haircut",
  "3465": "ital",
  "3466": " sleeping",
  "3467": " mill",
  "3468": " eventually",
  "3469": " alert",
  "3470": " excite",
  "3471": " pebble",
  "3472": " hosp",
  "3473": " attract",
  "3474": " planet",
  "3475": " Today",
  "3476": " univer",
  "3477": "isted",
  "3478": "ulu",
  "3479": " hospital",
  "3480": " eraser",
  "3481": " returned",
  "3482": " destro",
  "3483": " graceful",
  "3484": " happening",
  "3485": "ache",
  "3486": " OK",
  "3487": " Emily",
  "3488": " decide",
  "3489": " learning",
  "3490": " screen",
  "3491": "rework",
  "3492": " nicely",
  "3493": " leop",
  "3494": " cauliflower",
  "3495": " competitive",
  "3496": " poem",
  "3497": " celebrate",
  "3498": " curt",
  "3499": " peach",
  "3500": " soldier",
  "3501": " saus",
  "3502": " parade",
  "3503": "atient",
  "3504": " attractive",
  "3505": " curtain",
  "3506": " dolphin",
  "3507": " base",
  "3508": " violin",
  "3509": " ways",
  "3510": "Go",
  "3511": "ats",
  "3512": " travel",
  "3513": "ten",
  "3514": " ignorant",
  "3515": "ulb",
  "3516": " wheels",
  "3517": " yach",
  "3518": " scatter",
  "3519": " deter",
  "3520": " compassionate",
  "3521": " barrel",
  "3522": " envelope",
  "3523": " bubble",
  "3524": " lying",
  "3525": " firework",
  "3526": " sort",
  "3527": " question",
  "3528": "zzy",
  "3529": " Pipp",
  "3530": " scooter",
  "3531": " determ",
  "3532": " rag",
  "3533": " bicycle",
  "3534": "elery",
  "3535": " needle",
  "3536": " Fr",
  "3537": " judge",
  "3538": " bulb",
  "3539": " leopard",
  "3540": " tem",
  "3541": " yacht",
  "3542": " pony",
  "3543": " cricket",
  "3544": " order",
  "3545": " homes",
  "3546": " ador",
  "3547": "tern",
  "3548": " truth",
  "3549": " hook",
  "3550": "dom",
  "3551": " rubbed",
  "3552": "ete",
  "3553": "igator",
  "3554": " bushes",
  "3555": "Sarah",
  "3556": " uncle",
  "3557": " cushion",
  "3558": " spell",
  "3559": " grown",
  "3560": " cooked",
  "3561": " adorable",
  "3562": " chalk",
  "3563": " soar",
  "3564": " purse",
  "3565": " skin",
  "3566": " themselves",
  "3567": " impatient",
  "3568": " celery",
  "3569": " tray",
  "3570": " shells",
  "3571": " pengu",
  "3572": " sniff",
  "3573": " prun",
  "3574": " walls",
  "3575": " seal",
  "3576": " lively",
  "3577": " case",
  "3578": " alligator",
  "3579": " distant",
  "3580": " radish",
  "3581": " saying",
  "3582": " speak",
  "3583": " motorcycle",
  "3584": " meat",
  "3585": " send",
  "3586": "illa",
  "3587": " spinning",
  "3588": " forth",
  "3589": " counting",
  "3590": " enth",
  "3591": " bounced",
  "3592": " chain",
  "3593": " ed",
  "3594": " cleaning",
  "3595": "ebra",
  "3596": " film",
  "3597": " slept",
  "3598": " pit",
  "3599": " surf",
  "3600": " marry",
  "3601": "usia",
  "3602": " wallet",
  "3603": " enthusia",
  "3604": " metal",
  "3605": "urb",
  "3606": "ebook",
  "3607": " bin",
  "3608": " week",
  "3609": " notebook",
  "3610": " wiped",
  "3611": " skip",
  "3612": "ision",
  "3613": "chair",
  "3614": " biggest",
  "3615": " impro",
  "3616": " avocado",
  "3617": " behave",
  "3618": " destroy",
  "3619": "vator",
  "3620": " bandage",
  "3621": " laughs",
  "3622": " steak",
  "3623": " pattern",
  "3624": " Sh",
  "3625": " post",
  "3626": " elevator",
  "3627": " Buzz",
  "3628": "usie",
  "3629": " dive",
  "3630": " shut",
  "3631": " skipped",
  "3632": " unlock",
  "3633": " diary",
  "3634": "ject",
  "3635": " zebra",
  "3636": " bags",
  "3637": "ating",
  "3638": " armchair",
  "3639": "rage",
  "3640": "aged",
  "3641": "under",
  "3642": " disturb",
  "3643": " oy",
  "3644": " pole",
  "3645": " showing",
  "3646": " gathered",
  "3647": " club",
  "3648": " nurse",
  "3649": "bul",
  "3650": " earth",
  "3651": " enc",
  "3652": " stranger",
  "3653": " sweater",
  "3654": " jellyfish",
  "3655": " screw",
  "3656": " temp",
  "3657": " Poppy",
  "3658": " compl",
  "3659": " mixer",
  "3660": "Give",
  "3661": " skull",
  "3662": " lime",
  "3663": " bump",
  "3664": "bulance",
  "3665": " ambulance",
  "3666": "nam",
  "3667": " father",
  "3668": " journal",
  "3669": "Gra",
  "3670": " loudly",
  "3671": "ito",
  "3672": " folder",
  "3673": " shield",
  "3674": " Bet",
  "3675": " Lulu",
  "3676": " library",
  "3677": " Peter",
  "3678": " buttons",
  "3679": " playground",
  "3680": " trucks",
  "3681": " ink",
  "3682": " lights",
  "3683": " tummy",
  "3684": " pointing",
  "3685": " city",
  "3686": " decorate",
  "3687": " station",
  "3688": "irit",
  "3689": " prep",
  "3690": " falls",
  "3691": "quito",
  "3692": " Polly",
  "3693": "Billy",
  "3694": " Fo",
  "3695": " fu",
  "3696": "ention",
  "3697": "nger",
  "3698": " Birdy",
  "3699": "lies",
  "3700": " herb",
  "3701": "nament",
  "3702": " ornament",
  "3703": " modest",
  "3704": " guard",
  "3705": " mos",
  "3706": " knows",
  "3707": " cord",
  "3708": " polish",
  "3709": " marble",
  "3710": "oby",
  "3711": " mosquito",
  "3712": "umbled",
  "3713": " salt",
  "3714": " attic",
  "3715": " whenever",
  "3716": " vest",
  "3717": "ctop",
  "3718": " resc",
  "3719": " yet",
  "3720": " ple",
  "3721": " disappeared",
  "3722": " strawberry",
  "3723": " once",
  "3724": " Mum",
  "3725": " kay",
  "3726": " brothers",
  "3727": " itch",
  "3728": " pirate",
  "3729": " football",
  "3730": " split",
  "3731": "kele",
  "3732": "keleton",
  "3733": " hipp",
  "3734": " aut",
  "3735": " led",
  "3736": "uring",
  "3737": "ctopus",
  "3738": " driving",
  "3739": " cable",
  "3740": " support",
  "3741": " calling",
  "3742": " cupboard",
  "3743": "aky",
  "3744": "ushed",
  "3745": " wishes",
  "3746": " complet",
  "3747": " tripped",
  "3748": " succe",
  "3749": " root",
  "3750": " kayak",
  "3751": " octopus",
  "3752": "obile",
  "3753": " added",
  "3754": " edge",
  "3755": " mild",
  "3756": "stic",
  "3757": " determined",
  "3758": "?\".",
  "3759": " reading",
  "3760": "omobile",
  "3761": " coal",
  "3762": "Well",
  "3763": "gl",
  "3764": "utes",
  "3765": "par",
  "3766": " suggest",
  "3767": " stack",
  "3768": " thunder",
  "3769": " kindness",
  "3770": " automobile",
  "3771": " complain",
  "3772": " enthusiastic",
  "3773": " sneeze",
  "3774": " cartoon",
  "3775": " yoga",
  "3776": " Little",
  "3777": " growl",
  "3778": "htub",
  "3779": " flea",
  "3780": "la",
  "3781": " meadow",
  "3782": " drawer",
  "3783": " bathtub",
  "3784": " ribb",
  "3785": "ophone",
  "3786": " means",
  "3787": " hall",
  "3788": " golf",
  "3789": " skeleton",
  "3790": " math",
  "3791": " veil",
  "3792": " hunter",
  "3793": " gor",
  "3794": " flame",
  "3795": " poke",
  "3796": " video",
  "3797": " chess",
  "3798": " troph",
  "3799": " cups",
  "3800": " glowing",
  "3801": " matt",
  "3802": " oyster",
  "3803": "work",
  "3804": " penny",
  "3805": " spear",
  "3806": " itself",
  "3807": " drawings",
  "3808": " hippo",
  "3809": " repair",
  "3810": " switch",
  "3811": "glasses",
  "3812": " sunglasses",
  "3813": " teleph",
  "3814": " costume",
  "3815": " dess",
  "3816": " zipp",
  "3817": ",”",
  "3818": " repe",
  "3819": " muffin",
  "3820": " arg",
  "3821": " pastry",
  "3822": " pun",
  "3823": " rolling",
  "3824": " minutes",
  "3825": " packed",
  "3826": " makeup",
  "3827": "iron",
  "3828": "ric",
  "3829": " People",
  "3830": " waffle",
  "3831": "case",
  "3832": " handle",
  "3833": " pear",
  "3834": " maze",
  "3835": " telephone",
  "3836": " pine",
  "3837": "ait",
  "3838": " gear",
  "3839": " hedge",
  "3840": " mattress",
  "3841": " package",
  "3842": "aving",
  "3843": " Miss",
  "3844": " shocked",
  "3845": "ines",
  "3846": " trophy",
  "3847": " powder",
  "3848": " knight",
  "3849": " cob",
  "3850": " missile",
  "3851": " managed",
  "3852": " frame",
  "3853": " encou",
  "3854": " wife",
  "3855": " ok",
  "3856": " separ",
  "3857": "web",
  "3858": " stairs",
  "3859": " rot",
  "3860": " camp",
  "3861": "urch",
  "3862": "rophone",
  "3863": " magaz",
  "3864": " strugg",
  "3865": " colour",
  "3866": " grapes",
  "3867": "time",
  "3868": " file",
  "3869": "head",
  "3870": " Tina",
  "3871": " basketball",
  "3872": "Bye",
  "3873": "old",
  "3874": "per",
  "3875": " cobweb",
  "3876": "Re",
  "3877": "Jimmy",
  "3878": " Tweet",
  "3879": "See",
  "3880": " perm",
  "3881": " wool",
  "3882": " Dan",
  "3883": " microphone",
  "3884": "esday",
  "3885": " eye",
  "3886": " leash",
  "3887": " gasp",
  "3888": "iew",
  "3889": "keep",
  "3890": " weep",
  "3891": " barking",
  "3892": "ature",
  "3893": " safely",
  "3894": " tear",
  "3895": " view",
  "3896": "ffe",
  "3897": " slides",
  "3898": " steps",
  "3899": "istol",
  "3900": "ffee",
  "3901": " bananas",
  "3902": " staff",
  "3903": " spirit",
  "3904": " task",
  "3905": " giggled",
  "3906": " hoc",
  "3907": " hockey",
  "3908": " vend",
  "3909": " those",
  "3910": " gorilla",
  "3911": "Jill",
  "3912": " cooler",
  "3913": " Rose",
  "3914": "was",
  "3915": "cing",
  "3916": " early",
  "3917": " marched",
  "3918": "rosc",
  "3919": " mint",
  "3920": " Look",
  "3921": "washer",
  "3922": " flour",
  "3923": " hotel",
  "3924": "hic",
  "3925": " sailor",
  "3926": " dessert",
  "3927": " photo",
  "3928": "roscope",
  "3929": " vehic",
  "3930": "ilot",
  "3931": " often",
  "3932": " church",
  "3933": " Pete",
  "3934": " cooking",
  "3935": " remain",
  "3936": " five",
  "3937": " sausage",
  "3938": "otter",
  "3939": " ten",
  "3940": " tools",
  "3941": " medal",
  "3942": " either",
  "3943": " fireman",
  "3944": "chor",
  "3945": " grandpa",
  "3946": " otter",
  "3947": " baseball",
  "3948": " pretending",
  "3949": " pistol",
  "3950": " dishwasher",
  "3951": " rever",
  "3952": " organize",
  "3953": " pee",
  "3954": " vendor",
  "3955": " knock",
  "3956": " sight",
  "3957": " grill",
  "3958": " temple",
  "3959": " battery",
  "3960": " thinking",
  "3961": " opens",
  "3962": " ow",
  "3963": " realised",
  "3964": " iron",
  "3965": " laser",
  "3966": " sne",
  "3967": " sandbox",
  "3968": " oil",
  "3969": " patch",
  "3970": " hours",
  "3971": " rise",
  "3972": " whip",
  "3973": "'d",
  "3974": "ctory",
  "3975": " Give",
  "3976": " anchor",
  "3977": " trash",
  "3978": "ense",
  "3979": " short",
  "3980": "ney",
  "3981": " Betty",
  "3982": " rhin",
  "3983": " factory",
  "3984": "seum",
  "3985": " may",
  "3986": " ward",
  "3987": "ately",
  "3988": " cardboard",
  "3989": "ugged",
  "3990": " lotion",
  "3991": "Al",
  "3992": " message",
  "3993": " valu",
  "3994": " wardrobe",
  "3995": " cell",
  "3996": " museum",
  "3997": "apers",
  "3998": " ur",
  "3999": "ination",
  "4000": " hanging",
  "4001": "ucet",
  "4002": "ailable",
  "4003": " Sunny",
  "4004": " Zoom",
  "4005": " hive",
  "4006": "eer",
  "4007": " towers",
  "4008": "keeper",
  "4009": " blackboard",
  "4010": " mem",
  "4011": " excitement",
  "4012": " coffee",
  "4013": " pilot",
  "4014": "ready",
  "4015": "Fluffy",
  "4016": " napkin",
  "4017": " penguin",
  "4018": "ron",
  "4019": " check",
  "4020": " reward",
  "4021": "loo",
  "4022": " quit",
  "4023": " Pippin",
  "4024": " cane",
  "4025": " picking",
  "4026": "place",
  "4027": " Snow",
  "4028": "azor",
  "4029": " faucet",
  "4030": " ig",
  "4031": " passport",
  "4032": " Rob",
  "4033": " stumbled",
  "4034": " dreamed",
  "4035": " igloo",
  "4036": " Bessie",
  "4037": "aroo",
  "4038": "angaroo",
  "4039": " freez",
  "4040": " juicy",
  "4041": " allowed",
  "4042": "play",
  "4043": " holds",
  "4044": " already",
  "4045": " available",
  "4046": " sett",
  "4047": " bathe",
  "4048": " tornado",
  "4049": "imney",
  "4050": " fingers",
  "4051": "htray",
  "4052": " hanger",
  "4053": " newsp",
  "4054": " size",
  "4055": " laund",
  "4056": " lend",
  "4057": " chimney",
  "4058": " laundry",
  "4059": " oak",
  "4060": " fisher",
  "4061": " kangaroo",
  "4062": " men",
  "4063": " Everywhere",
  "4064": " telling",
  "4065": "Em",
  "4066": " novel",
  "4067": "body",
  "4068": " mummy",
  "4069": " pal",
  "4070": " mule",
  "4071": " cherries",
  "4072": " notice",
  "4073": " practice",
  "4074": " spilled",
  "4075": " reind",
  "4076": " complete",
  "4077": " enjoying",
  "4078": " microscope",
  "4079": "arian",
  "4080": "ampoo",
  "4081": " gain",
  "4082": " sub",
  "4083": " fireplace",
  "4084": " imagine",
  "4085": "anda",
  "4086": " display",
  "4087": "ocer",
  "4088": " Zip",
  "4089": " fastest",
  "4090": " magazine",
  "4091": " hurry",
  "4092": " cabinet",
  "4093": " shrink",
  "4094": " ashtray",
  "4095": "Wait",
  "4096": " cows",
  "4097": " Spike",
  "4098": "Joe",
  "4099": "gen",
  "4100": " palace",
  "4101": " improve",
  "4102": "aches",
  "4103": " rake",
  "4104": " reindeer",
  "4105": " falling",
  "4106": "oceros",
  "4107": " skirt",
  "4108": "ured",
  "4109": " discovered",
  "4110": " stared",
  "4111": " roared",
  "4112": "aid",
  "4113": " silver",
  "4114": " tub",
  "4115": " trail",
  "4116": "Is",
  "4117": " miner",
  "4118": "come",
  "4119": " bill",
  "4120": "iction",
  "4121": " fog",
  "4122": " ax",
  "4123": "stairs",
  "4124": "ilet",
  "4125": " hut",
  "4126": " happier",
  "4127": " taller",
  "4128": "ictionary",
  "4129": " oats",
  "4130": " fisherman",
  "4131": " object",
  "4132": " por",
  "4133": "vision",
  "4134": " valuable",
  "4135": " shampoo",
  "4136": " holes",
  "4137": " offered",
  "4138": " boots",
  "4139": " rhinoceros",
  "4140": " names",
  "4141": " toilet",
  "4142": " climbing",
  "4143": " blin",
  "4144": "vice",
  "4145": "Ow",
  "4146": " stretched",
  "4147": "iest",
  "4148": " zipper",
  "4149": " listening",
  "4150": " sym",
  "4151": " bathrobe",
  "4152": "alend",
  "4153": " jewelry",
  "4154": " Here",
  "4155": " jokes",
  "4156": " television",
  "4157": " prov",
  "4158": " calend",
  "4159": " stops",
  "4160": " axe",
  "4161": " jumps",
  "4162": " fuel",
  "4163": " sparkly",
  "4164": "cu",
  "4165": " perfume",
  "4166": " Susie",
  "4167": " bury",
  "4168": "bol",
  "4169": "Mummy",
  "4170": " pressed",
  "4171": " Kim",
  "4172": "reek",
  "4173": " rece",
  "4174": "fa",
  "4175": " Toby",
  "4176": " neat",
  "4177": " creek",
  "4178": " popped",
  "4179": " opera",
  "4180": " calendar",
  "4181": " snap",
  "4182": " gasped",
  "4183": " attach",
  "4184": " symbol",
  "4185": " tuna",
  "4186": " Mar",
  "4187": " papers",
  "4188": "Mr",
  "4189": " unpack",
  "4190": " resist",
  "4191": "lud",
  "4192": " dictionary",
  "4193": " subway",
  "4194": " letters",
  "4195": " freezer",
  "4196": " chose",
  "4197": " pinch",
  "4198": "zag",
  "4199": " spoke",
  "4200": " anyway",
  "4201": " super",
  "4202": " porch",
  "4203": " helper",
  "4204": "affe",
  "4205": " bikes",
  "4206": " lie",
  "4207": "arry",
  "4208": "iches",
  "4209": " tightly",
  "4210": " comfort",
  "4211": " shaking",
  "4212": " bookcase",
  "4213": " son",
  "4214": " razor",
  "4215": "aurant",
  "4216": " sandwiches",
  "4217": " Are",
  "4218": "igzag",
  "4219": " weigh",
  "4220": " against",
  "4221": " stickers",
  "4222": " restaurant",
  "4223": " newspaper",
  "4224": " blouse",
  "4225": " vehicle",
  "4226": " swinging",
  "4227": " ped",
  "4228": " disag",
  "4229": " nature",
  "4230": " squirrels",
  "4231": "ival",
  "4232": " belongs",
  "4233": " swamp",
  "4234": " butterflies",
  "4235": " gym",
  "4236": " includ",
  "4237": " growing",
  "4238": " buckle",
  "4239": "omed",
  "4240": " stirred",
  "4241": " mustache",
  "4242": " billboard",
  "4243": "xy",
  "4244": " beep",
  "4245": "te",
  "4246": " alarm",
  "4247": " lightning",
  "4248": " lip",
  "4249": " fest",
  "4250": " hung",
  "4251": "utor",
  "4252": " distance",
  "4253": "ogn",
  "4254": " cards",
  "4255": " obser",
  "4256": " agree",
  "4257": "Little",
  "4258": " ext",
  "4259": " tease",
  "4260": " recogn",
  "4261": " rubber",
  "4262": "ik",
  "4263": " hate",
  "4264": "fast",
  "4265": "ef",
  "4266": "Ouch",
  "4267": " doesn",
  "4268": " musician",
  "4269": " advice",
  "4270": " beef",
  "4271": " serve",
  "4272": "aspoon",
  "4273": " sweetie",
  "4274": " model",
  "4275": "lter",
  "4276": " crib",
  "4277": " blueberries",
  "4278": " sofa",
  "4279": " circles",
  "4280": " breakfast",
  "4281": " tutor",
  "4282": "asis",
  "4283": " bookshe",
  "4284": " giraffe",
  "4285": "stri",
  "4286": " festival",
  "4287": " separate",
  "4288": " shelter",
  "4289": " gas",
  "4290": " airport",
  "4291": " olive",
  "4292": " rail",
  "4293": " bookshelf",
  "4294": " frogs",
  "4295": " teaspoon",
  "4296": " reverse",
  "4297": " junk",
  "4298": " riding",
  "4299": " pleased",
  "4300": " drain",
  "4301": " Mrs",
  "4302": " wipe",
  "4303": " oasis",
  "4304": " soil",
  "4305": " ahead",
  "4306": " rescue",
  "4307": " leaving",
  "4308": "ummer",
  "4309": " painter",
  "4310": " squeeze",
  "4311": " chance",
  "4312": " poked",
  "4313": " knob",
  "4314": " Teddy",
  "4315": " peeked",
  "4316": " lumber",
  "4317": " trains",
  "4318": " extra",
  "4319": " slipp",
  "4320": " quiz",
  "4321": " refused",
  "4322": "res",
  "4323": "rmomet",
  "4324": " page",
  "4325": " rules",
  "4326": " happens",
  "4327": " sounded",
  "4328": " ins",
  "4329": " point",
  "4330": " winter",
  "4331": " dancer",
  "4332": " Grandpa",
  "4333": " birdc",
  "4334": " disappear",
  "4335": "rmometer",
  "4336": " Dolly",
  "4337": " weather",
  "4338": " waste",
  "4339": " lic",
  "4340": " birdcage",
  "4341": " theater",
  "4342": " reef",
  "4343": " carrying",
  "4344": "Daisy",
  "4345": " invite",
  "4346": "iform",
  "4347": " goal",
  "4348": " ostri",
  "4349": " uniform",
  "4350": " swung",
  "4351": " trade",
  "4352": " cliff",
  "4353": "ience",
  "4354": " lawn",
  "4355": "ola",
  "4356": " leaned",
  "4357": " Pandy",
  "4358": "angu",
  "4359": " accept",
  "4360": " admire",
  "4361": " fort",
  "4362": " accidentally",
  "4363": " pastel",
  "4364": "bbles",
  "4365": " stom",
  "4366": " langu",
  "4367": " twir",
  "4368": " suff",
  "4369": " panda",
  "4370": "riger",
  "4371": " bet",
  "4372": "rigerator",
  "4373": " peek",
  "4374": "render",
  "4375": " blinked",
  "4376": " starts",
  "4377": " refrigerator",
  "4378": " anywhere",
  "4379": "!\".",
  "4380": " imagined",
  "4381": " dreaming",
  "4382": " remove",
  "4383": "night",
  "4384": " shower",
  "4385": " Lee",
  "4386": " Co",
  "4387": " classroom",
  "4388": " ceiling",
  "4389": " caring",
  "4390": "ium",
  "4391": " grand",
  "4392": " missing",
  "4393": "aked",
  "4394": " license",
  "4395": " stable",
  "4396": " thermometer",
  "4397": " monkeys",
  "4398": "astic",
  "4399": " warned",
  "4400": " summer",
  "4401": " Where",
  "4402": " above",
  "4403": " brick",
  "4404": "ected",
  "4405": " cudd",
  "4406": " problems",
  "4407": "amber",
  "4408": " chasing",
  "4409": " label",
  "4410": " apron",
  "4411": " sent",
  "4412": "urnit",
  "4413": "urniture",
  "4414": " lawy",
  "4415": " lid",
  "4416": "uggage",
  "4417": "med",
  "4418": " respectful",
  "4419": " furniture",
  "4420": " frowned",
  "4421": " zoomed",
  "4422": " pages",
  "4423": " prevent",
  "4424": " bent",
  "4425": " luggage",
  "4426": " mistakes",
  "4427": " sunset",
  "4428": " ostrich",
  "4429": "ison",
  "4430": " suggested",
  "4431": " windows",
  "4432": "ations",
  "4433": " jail",
  "4434": "low",
  "4435": " wine",
  "4436": " ribbon",
  "4437": " older",
  "4438": " shouts",
  "4439": " grape",
  "4440": " Cl",
  "4441": " wigg",
  "4442": "ucture",
  "4443": " structure",
  "4444": " spoil",
  "4445": "eor",
  "4446": " fixing",
  "4447": " chamber",
  "4448": " lions",
  "4449": " delay",
  "4450": " finds",
  "4451": " handed",
  "4452": " searching",
  "4453": " unite",
  "4454": "Did",
  "4455": " fought",
  "4456": " lawyer",
  "4457": " brightly",
  "4458": " pair",
  "4459": " meeting",
  "4460": " choice",
  "4461": " surprises",
  "4462": " Un",
  "4463": " Ellie",
  "4464": " art",
  "4465": "Ch",
  "4466": " favour",
  "4467": "eterin",
  "4468": "eterinarian",
  "4469": "adium",
  "4470": " stadium",
  "4471": " proudly",
  "4472": "iki",
  "4473": " veterinarian",
  "4474": "vet",
  "4475": "rod",
  "4476": " chairs",
  "4477": " slip",
  "4478": " Spe",
  "4479": " sadly",
  "4480": " Bow",
  "4481": " incre",
  "4482": " Carl",
  "4483": " puddles",
  "4484": " berry",
  "4485": " introd",
  "4486": " ranch",
  "4487": "veal",
  "4488": " Boun",
  "4489": " argue",
  "4490": " V",
  "4491": " admired",
  "4492": " cur",
  "4493": " favourite",
  "4494": "Your",
  "4495": " inf",
  "4496": " excitedly",
  "4497": " rac",
  "4498": " grabs",
  "4499": "mend",
  "4500": " steam",
  "4501": "thank",
  "4502": " human",
  "4503": "eorge",
  "4504": "sity",
  "4505": " Hel",
  "4506": " pushing",
  "4507": " saving",
  "4508": " Red",
  "4509": " reveal",
  "4510": "ommend",
  "4511": "alley",
  "4512": " yield",
  "4513": "olog",
  "4514": " mall",
  "4515": " reminded",
  "4516": " recommend",
  "4517": " succeed",
  "4518": " leak",
  "4519": " surrender",
  "4520": " harb",
  "4521": " appl",
  "4522": "cuss",
  "4523": "aul",
  "4524": " weap",
  "4525": " regret",
  "4526": " putting",
  "4527": " valley",
  "4528": " mineral",
  "4529": " evening",
  "4530": "elcome",
  "4531": " matches",
  "4532": " forgave",
  "4533": " sneezed",
  "4534": " pup",
  "4535": " aw",
  "4536": " rushed",
  "4537": "ecause",
  "4538": " spade",
  "4539": " apolog",
  "4540": " plates",
  "4541": " discuss",
  "4542": " prepare",
  "4543": " harbor",
  "4544": " ignore",
  "4545": " Big",
  "4546": " country",
  "4547": " language",
  "4548": " Buzzy",
  "4549": " pulls",
  "4550": " plastic",
  "4551": " supply",
  "4552": " float",
  "4553": " sniffed",
  "4554": " Jazz",
  "4555": " replace",
  "4556": " meas",
  "4557": " shovel",
  "4558": " Bill",
  "4559": " raise",
  "4560": " Next",
  "4561": " fre",
  "4562": " cared",
  "4563": " socks",
  "4564": " strip",
  "4565": " doors",
  "4566": " mystery",
  "4567": " lives",
  "4568": " restore",
  "4569": " sticker",
  "4570": " sudden",
  "4571": "ari",
  "4572": " kinds",
  "4573": " slippery",
  "4574": "ero",
  "4575": " Ow",
  "4576": " player",
  "4577": " panic",
  "4578": "ricane",
  "4579": " hoping",
  "4580": "iday",
  "4581": " shone",
  "4582": "lex",
  "4583": "hero",
  "4584": " beg",
  "4585": "aud",
  "4586": " Mike",
  "4587": " Binky",
  "4588": " superhero",
  "4589": " delighted",
  "4590": " gro",
  "4591": "Yay",
  "4592": "chan",
  "4593": " chickens",
  "4594": " shoulder",
  "4595": " rained",
  "4596": " colourful",
  "4597": " breat",
  "4598": " Alice",
  "4599": " claw",
  "4600": " Bubbles",
  "4601": "Yuck",
  "4602": " softly",
  "4603": "rise",
  "4604": " port",
  "4605": "Grandma",
  "4606": " hol",
  "4607": "icer",
  "4608": " holiday",
  "4609": "b' \\xe2\\x80'",
  "4610": " barks",
  "4611": "ason",
  "4612": " throwing",
  "4613": " planes",
  "4614": "Mary",
  "4615": " bend",
  "4616": " Freddy",
  "4617": " shakes",
  "4618": " infant",
  "4619": " ended",
  "4620": " shivering",
  "4621": " kneel",
  "4622": " sunrise",
  "4623": " pushes",
  "4624": " Olive",
  "4625": " thanks",
  "4626": " fresh",
  "4627": " suffer",
  "4628": " points",
  "4629": "imed",
  "4630": "wards",
  "4631": " Pat",
  "4632": " tip",
  "4633": " Speedy",
  "4634": " freeze",
  "4635": " keeping",
  "4636": " Would",
  "4637": " giggle",
  "4638": " copper",
  "4639": " smells",
  "4640": " dear",
  "4641": "ah",
  "4642": " enter",
  "4643": " provide",
  "4644": "cast",
  "4645": "chanic",
  "4646": " dishes",
  "4647": " End",
  "4648": "cond",
  "4649": " applaud",
  "4650": " unh",
  "4651": "Next",
  "4652": " heads",
  "4653": " hurricane",
  "4654": " cherry",
  "4655": " thumb",
  "4656": " menu",
  "4657": " meowed",
  "4658": " mass",
  "4659": " second",
  "4660": " brighter",
  "4661": "ince",
  "4662": " sandcast",
  "4663": " mechanic",
  "4664": " wre",
  "4665": " sprayed",
  "4666": " letting",
  "4667": " event",
  "4668": " weapon",
  "4669": " laught",
  "4670": " x",
  "4671": " laughter",
  "4672": " clapping",
  "4673": " feelings",
  "4674": "Will",
  "4675": "icky",
  "4676": " splashing",
  "4677": "ement",
  "4678": " Or",
  "4679": "acked",
  "4680": " castles",
  "4681": " Fl",
  "4682": "cer",
  "4683": " score",
  "4684": "apping",
  "4685": " universe",
  "4686": " navy",
  "4687": " dem",
  "4688": " sticky",
  "4689": "ophie",
  "4690": " rooms",
  "4691": " row",
  "4692": " flies",
  "4693": "igi",
  "4694": " Dave",
  "4695": " unhappy",
  "4696": " greedy",
  "4697": " dare",
  "4698": " alive",
  "4699": " breaks",
  "4700": " ener",
  "4701": " courage",
  "4702": " invit",
  "4703": "Ready",
  "4704": " repeat",
  "4705": " demand",
  "4706": " trusted",
  "4707": "Lisa",
  "4708": " somewhere",
  "4709": "arlie",
  "4710": " prune",
  "4711": "bles",
  "4712": " wreck",
  "4713": " Y",
  "4714": " skill",
  "4715": " examine",
  "4716": " parts",
  "4717": "year",
  "4718": " eaten",
  "4719": "oe",
  "4720": "All",
  "4721": "erc",
  "4722": "enry",
  "4723": " mention",
  "4724": " raining",
  "4725": " Help",
  "4726": "Buddy",
  "4727": " throws",
  "4728": " jogged",
  "4729": "quest",
  "4730": " starting",
  "4731": " rush",
  "4732": " poison",
  "4733": " pirates",
  "4734": "heart",
  "4735": " vac",
  "4736": " content",
  "4737": "Emma",
  "4738": " Kiki",
  "4739": " sigh",
  "4740": " flapped",
  "4741": " drops",
  "4742": " chirp",
  "4743": " sport",
  "4744": "Qu",
  "4745": " sparkled",
  "4746": " Zoomy",
  "4747": " given",
  "4748": " streng",
  "4749": " steel",
  "4750": "Ann",
  "4751": " bumped",
  "4752": " yawned",
  "4753": " stud",
  "4754": " request",
  "4755": " scold",
  "4756": " myself",
  "4757": " strength",
  "4758": " shrugged",
  "4759": "Mark",
  "4760": " coats",
  "4761": " punish",
  "4762": " equ",
  "4763": " snugg",
  "4764": " university",
  "4765": " paid",
  "4766": " Johnny",
  "4767": " pigs",
  "4768": " scratch",
  "4769": " toe",
  "4770": " exerc",
  "4771": " tracks",
  "4772": " upstairs",
  "4773": " prayed",
  "4774": " crossed",
  "4775": " squeezed",
  "4776": " impressed",
  "4777": " flood",
  "4778": " bouncing",
  "4779": "Alice",
  "4780": " rabbits",
  "4781": "ges",
  "4782": " badly",
  "4783": "..",
  "4784": " warn",
  "4785": " leather",
  "4786": " expect",
  "4787": " news",
  "4788": " tide",
  "4789": " Ted",
  "4790": " minute",
  "4791": " bears",
  "4792": " claws",
  "4793": " buzz",
  "4794": " sweetheart",
  "4795": " Sm",
  "4796": "yth",
  "4797": " nation",
  "4798": "Sh",
  "4799": "ythm",
  "4800": " vacation",
  "4801": " hist",
  "4802": " heat",
  "4803": " strawberries",
  "4804": " observe",
  "4805": " explored",
  "4806": " settle",
  "4807": " sandcastle",
  "4808": " yawn",
  "4809": " history",
  "4810": " Lilly",
  "4811": " Lola",
  "4812": "mare",
  "4813": " Mummy",
  "4814": " Sque",
  "4815": "ially",
  "4816": "inking",
  "4817": " believed",
  "4818": " horses",
  "4819": "Daddy",
  "4820": " Hoppy",
  "4821": " checked",
  "4822": " Mandy",
  "4823": " tour",
  "4824": " network",
  "4825": " cheek",
  "4826": " Under",
  "4827": " offer",
  "4828": " easily",
  "4829": " placed",
  "4830": "spec",
  "4831": " spots",
  "4832": " snowball",
  "4833": "ween",
  "4834": "men",
  "4835": " energy",
  "4836": " Bee",
  "4837": " imagination",
  "4838": " blueberry",
  "4839": "otten",
  "4840": " between",
  "4841": "specially",
  "4842": " Gigi",
  "4843": "izes",
  "4844": " daisy",
  "4845": " waving",
  "4846": "reeze",
  "4847": "reat",
  "4848": " vroom",
  "4849": " soak",
  "4850": " safari",
  "4851": " rhythm",
  "4852": " massage",
  "4853": " stomach",
  "4854": " baking",
  "4855": "quake",
  "4856": " nightmare",
  "4857": " insisted",
  "4858": " blowing",
  "4859": " entered",
  "4860": "Before",
  "4861": " stair",
  "4862": " palm",
  "4863": " beauty",
  "4864": " twisted",
  "4865": " bother",
  "4866": " writing",
  "4867": " scoop",
  "4868": " prunes",
  "4869": " brain",
  "4870": " ing",
  "4871": "ipment",
  "4872": " poppy",
  "4873": " hills",
  "4874": "noon",
  "4875": " afternoon",
  "4876": " equipment",
  "4877": " especially",
  "4878": " Ru",
  "4879": "hest",
  "4880": " sir",
  "4881": " pad",
  "4882": " See",
  "4883": " ingred",
  "4884": " calls",
  "4885": " ingredient",
  "4886": " Fox",
  "4887": " earthquake",
  "4888": " ignored",
  "4889": " Snowy",
  "4890": " burned",
  "4891": " nobody",
  "4892": "mble",
  "4893": " sty",
  "4894": "apa",
  "4895": " sew",
  "4896": " tug",
  "4897": "isty",
  "4898": "xygen",
  "4899": " hearts",
  "4900": " lear",
  "4901": " learnt",
  "4902": " lemonade",
  "4903": " increase",
  "4904": "illie",
  "4905": "Jenny",
  "4906": " gaz",
  "4907": " backpack",
  "4908": " mailman",
  "4909": " whistled",
  "4910": " pedal",
  "4911": " Sk",
  "4912": "Fred",
  "4913": " shopkeeper",
  "4914": "ffic",
  "4915": " permit",
  "4916": " tremble",
  "4917": " yucky",
  "4918": "anges",
  "4919": " moves",
  "4920": " introduce",
  "4921": " lemons",
  "4922": " crash",
  "4923": " beans",
  "4924": " floated",
  "4925": "edn",
  "4926": "ednesday",
  "4927": "ittens",
  "4928": "Welcome",
  "4929": " planned",
  "4930": " strike",
  "4931": " traffic",
  "4932": " include",
  "4933": " slap",
  "4934": " racing",
  "4935": " Lucky",
  "4936": "resses",
  "4937": " wisdom",
  "4938": " pur",
  "4939": " wags",
  "4940": " Finny",
  "4941": "laimed",
  "4942": " George",
  "4943": " luck",
  "4944": " following",
  "4945": " price",
  "4946": "ecting",
  "4947": " mama",
  "4948": " pitch",
  "4949": " below",
  "4950": " Elly",
  "4951": " Have",
  "4952": "Le",
  "4953": " weight",
  "4954": " exclaimed",
  "4955": "house",
  "4956": " buried",
  "4957": " follows",
  "4958": " comf",
  "4959": " recognize",
  "4960": " ingredients",
  "4961": " \n",
  "4962": " furt",
  "4963": "tain",
  "4964": " candles",
  "4965": "Mimi",
  "4966": " marbles",
  "4967": "riage",
  "4968": "emem",
  "4969": "unday",
  "4970": "emember",
  "4971": "eration",
  "4972": " Alex",
  "4973": " apart",
  "4974": " Wednesday",
  "4975": " growled",
  "4976": "uct",
  "4977": "ores",
  "4978": " conf",
  "4979": " teaching",
  "4980": " hopes",
  "4981": " folded",
  "4982": " closely",
  "4983": " Finn",
  "4984": " Who",
  "4985": " heel",
  "4986": " Su",
  "4987": " Sunday",
  "4988": " encourage",
  "4989": " Paul",
  "4990": " Owl",
  "4991": " zigzag",
  "4992": " pulling",
  "4993": " digg",
  "4994": " bouncy",
  "4995": " further",
  "4996": " chewed",
  "4997": " digging",
  "4998": " winning",
  "4999": "Woof",
  "5000": "With",
  "5001": " dresses",
  "5002": " image",
  "5003": "rec",
  "5004": "cery",
  "5005": " shouting",
  "5006": " grocery",
  "5007": " twisty",
  "5008": " peanuts",
  "5009": " puzzles",
  "5010": "bbing",
  "5011": " Dog",
  "5012": "look",
  "5013": " scrat",
  "5014": " chores",
  "5015": " whisper",
  "5016": " Is",
  "5017": " spike",
  "5018": " Froggy",
  "5019": " cape",
  "5020": " snail",
  "5021": " acorns",
  "5022": " worms",
  "5023": "hood",
  "5024": " deeper",
  "5025": " urge",
  "5026": "ifi",
  "5027": " exper",
  "5028": " Whenever",
  "5029": " Tilly",
  "5030": " Squeaky",
  "5031": " Grace",
  "5032": " planted",
  "5033": " attention",
  "5034": "ecture",
  "5035": " exercise",
  "5036": " Danny",
  "5037": " cub",
  "5038": " operation",
  "5039": " underground",
  "5040": " hon",
  "5041": " agre",
  "5042": " quite",
  "5043": " creatures",
  "5044": " simp",
  "5045": "Everyone",
  "5046": " struggle",
  "5047": "oral",
  "5048": " Mittens",
  "5049": "ddy",
  "5050": " blood",
  "5051": " lecture",
  "5052": " washing",
  "5053": " hurting",
  "5054": " vanished",
  "5055": " gifts",
  "5056": " dressed",
  "5057": " invitation",
  "5058": " solved",
  "5059": " licks",
  "5060": " snuggled",
  "5061": " Sharing",
  "5062": "ippy",
  "5063": " ble",
  "5064": " marriage",
  "5065": " quietly",
  "5066": "gie",
  "5067": " warning",
  "5068": " jazz",
  "5069": " breathe",
  "5070": "reci",
  "5071": " elephants",
  "5072": " sizes",
  "5073": " dried",
  "5074": " fallen",
  "5075": " landscape",
  "5076": "ories",
  "5077": " sprink",
  "5078": " neighbour",
  "5079": " mice",
  "5080": "uesday",
  "5081": " appreci",
  "5082": " Sophie",
  "5083": " Joey",
  "5084": " –",
  "5085": " eagerly",
  "5086": " sailing",
  "5087": " Coco",
  "5088": " paused",
  "5089": "ips",
  "5090": " counter",
  "5091": " Good",
  "5092": " Bounce",
  "5093": " Penny",
  "5094": " worth",
  "5095": "looking",
  "5096": " Rock",
  "5097": " oxygen",
  "5098": "Because",
  "5099": " release",
  "5100": " shined",
  "5101": "Not",
  "5102": "pted",
  "5103": " reaches",
  "5104": " balan",
  "5105": " Zara",
  "5106": "isses",
  "5107": " oh",
  "5108": " kisses",
  "5109": " style",
  "5110": " bricks",
  "5111": " plays",
  "5112": " glo",
  "5113": " Tuesday",
  "5114": " ideas",
  "5115": "sed",
  "5116": " inst",
  "5117": " wob",
  "5118": " fireworks",
  "5119": "Bella",
  "5120": "iggly",
  "5121": "ucked",
  "5122": " seeing",
  "5123": " flap",
  "5124": "ops",
  "5125": " accepted",
  "5126": "right",
  "5127": " Pip",
  "5128": "Today",
  "5129": " blink",
  "5130": "mm",
  "5131": " Ros",
  "5132": " tremb",
  "5133": "These",
  "5134": " muddy",
  "5135": " memory",
  "5136": " married",
  "5137": " tomatoes",
  "5138": " exit",
  "5139": " Annie",
  "5140": " wagging",
  "5141": " fash",
  "5142": "Remy",
  "5143": " Charlie",
  "5144": " wandered",
  "5145": "unately",
  "5146": "ipping",
  "5147": " gloves",
  "5148": " captain",
  "5149": " pillows",
  "5150": " receive",
  "5151": " resp",
  "5152": " Pinky",
  "5153": "raged",
  "5154": " during",
  "5155": " Everything",
  "5156": "etch",
  "5157": " web",
  "5158": " petals",
  "5159": " watered",
  "5160": " Eventually",
  "5161": " si",
  "5162": "ived",
  "5163": " manage",
  "5164": " pinched",
  "5165": " brings",
  "5166": "ux",
  "5167": " vanish",
  "5168": " cakes",
  "5169": " fashion",
  "5170": " Bluey",
  "5171": " printer",
  "5172": " destroyed",
  "5173": " treasures",
  "5174": "nce",
  "5175": " allow",
  "5176": "ups",
  "5177": " hadn",
  "5178": " worse",
  "5179": " Fifi",
  "5180": "Surpr",
  "5181": " vel",
  "5182": " hits",
  "5183": " bur",
  "5184": "uxu",
  "5185": " velvet",
  "5186": " appear",
  "5187": " disagree",
  "5188": "do",
  "5189": " catching",
  "5190": " scattered",
  "5191": " Ro",
  "5192": " memories",
  "5193": " sorts",
  "5194": " Papa",
  "5195": " hers",
  "5196": " scolded",
  "5197": " signs",
  "5198": " pears",
  "5199": " oranges",
  "5200": " bones",
  "5201": " rang",
  "5202": " snapped",
  "5203": " sits",
  "5204": " seats",
  "5205": "Bl",
  "5206": " gazed",
  "5207": " raised",
  "5208": " Maria",
  "5209": " zipped",
  "5210": " pies",
  "5211": " prints",
  "5212": " shot",
  "5213": " sliding",
  "5214": " God",
  "5215": " fro",
  "5216": " easier",
  "5217": "ssible",
  "5218": " skills",
  "5219": " climbs",
  "5220": " twirled",
  "5221": "ccer",
  "5222": " blankets",
  "5223": "ester",
  "5224": " forgotten",
  "5225": " baked",
  "5226": "Yum",
  "5227": "esterday",
  "5228": " difference",
  "5229": "orted",
  "5230": " luxu",
  "5231": " golden",
  "5232": "ising",
  "5233": " kitty",
  "5234": " Tw",
  "5235": " cutting",
  "5236": " season",
  "5237": "aggie",
  "5238": " nowhere",
  "5239": " crow",
  "5240": " soccer",
  "5241": " dared",
  "5242": " bites",
  "5243": " Henry",
  "5244": " Harry",
  "5245": "anny",
  "5246": " lung",
  "5247": " celebrated",
  "5248": "choo",
  "5249": "chie",
  "5250": " straight",
  "5251": " unlocked",
  "5252": "sters",
  "5253": " sorting",
  "5254": " collected",
  "5255": " bleed",
  "5256": "aped",
  "5257": " welcomed",
  "5258": " visited",
  "5259": " spoons",
  "5260": " ours",
  "5261": " stitch",
  "5262": " jogging",
  "5263": "Surprise",
  "5264": "medi",
  "5265": " emer",
  "5266": " Spark",
  "5267": "mediately",
  "5268": " isn",
  "5269": " tong",
  "5270": " trave",
  "5271": " winner",
  "5272": "umble",
  "5273": " since",
  "5274": " ruin",
  "5275": " prett",
  "5276": "Ok",
  "5277": "Moral",
  "5278": " Tony",
  "5279": " attached",
  "5280": " weeping",
  "5281": " marching",
  "5282": " luxury",
  "5283": " simple",
  "5284": " Each",
  "5285": " shouldn",
  "5286": " guessed",
  "5287": " zero",
  "5288": "ann",
  "5289": " created",
  "5290": " stuffed",
  "5291": " pets",
  "5292": "ction",
  "5293": " waist",
  "5294": " famil",
  "5295": " urged",
  "5296": " selling",
  "5297": " bowed",
  "5298": " floating",
  "5299": "rr",
  "5300": " Smith",
  "5301": " bye",
  "5302": " King",
  "5303": " vict",
  "5304": " kingdom",
  "5305": " olives",
  "5306": " kicking",
  "5307": " Wiggly",
  "5308": " punished",
  "5309": " Liz",
  "5310": " Baby",
  "5311": "sit",
  "5312": " toes",
  "5313": " An",
  "5314": " grant",
  "5315": " muscles",
  "5316": " jewels",
  "5317": " Rosie",
  "5318": " beds",
  "5319": " melted",
  "5320": "Goodbye",
  "5321": " slice",
  "5322": " grin",
  "5323": " understanding",
  "5324": " collection",
  "5325": " tore",
  "5326": " measured",
  "5327": "aker",
  "5328": " cras",
  "5329": "omeday",
  "5330": "iers",
  "5331": " trapped",
  "5332": " lined",
  "5333": "'ve",
  "5334": " acted",
  "5335": "fortunately",
  "5336": " encouraged",
  "5337": "va",
  "5338": " Sandy",
  "5339": " received",
  "5340": " waffles",
  "5341": " Before",
  "5342": " Wally",
  "5343": " west",
  "5344": " meow",
  "5345": "ents",
  "5346": " patterns",
  "5347": "rin",
  "5348": "ino",
  "5349": "eath",
  "5350": " brus",
  "5351": " mouths",
  "5352": "kins",
  "5353": " bang",
  "5354": " Kate",
  "5355": "Meow",
  "5356": " peaches",
  "5357": " breeze",
  "5358": "aded",
  "5359": "une",
  "5360": "ring",
  "5361": " printed",
  "5362": " soldiers",
  "5363": " someday",
  "5364": " potatoes",
  "5365": " pupil",
  "5366": "umes",
  "5367": " Millie",
  "5368": " drinks",
  "5369": " shed",
  "5370": " experience",
  "5371": " Tuna",
  "5372": "eep",
  "5373": " presents",
  "5374": " firef",
  "5375": " Ruby",
  "5376": " surround",
  "5377": " none",
  "5378": "osed",
  "5379": " voices",
  "5380": " drinking",
  "5381": " Uncle",
  "5382": "ishing",
  "5383": " relaxed",
  "5384": " victory",
  "5385": "cus",
  "5386": " paints",
  "5387": " breaking",
  "5388": "eve",
  "5389": " hurried",
  "5390": "ission",
  "5391": " twink",
  "5392": " tongue",
  "5393": " costumes",
  "5394": " flat",
  "5395": " mentioned",
  "5396": " begged",
  "5397": " teasing",
  "5398": " whistling",
  "5399": " fetch",
  "5400": " permission",
  "5401": " sip",
  "5402": " disagreed",
  "5403": " pearl",
  "5404": "akes",
  "5405": " stro",
  "5406": "vest",
  "5407": " These",
  "5408": " esc",
  "5409": " appro",
  "5410": " skipping",
  "5411": " fishing",
  "5412": " May",
  "5413": "Leo",
  "5414": " highest",
  "5415": " pra",
  "5416": " watches",
  "5417": " sorted",
  "5418": " ringing",
  "5419": "ship",
  "5420": " tonight",
  "5421": " Bo",
  "5422": " opin",
  "5423": " lets",
  "5424": "icing",
  "5425": " Qu",
  "5426": " perfectly",
  "5427": " shadows",
  "5428": " immediately",
  "5429": " herbs",
  "5430": " warmth",
  "5431": " spit",
  "5432": " remained",
  "5433": "ther",
  "5434": " Its",
  "5435": "walk",
  "5436": "Bobby",
  "5437": "irring",
  "5438": "Jen",
  "5439": " sneak",
  "5440": " six",
  "5441": " lips",
  "5442": " kneeled",
  "5443": "Blue",
  "5444": " contest",
  "5445": " Che",
  "5446": "utter",
  "5447": " cartoons",
  "5448": " sidewalk",
  "5449": " colours",
  "5450": " stamps",
  "5451": " ago",
  "5452": "Ha",
  "5453": " Toto",
  "5454": " Boo",
  "5455": " Follow",
  "5456": " east",
  "5457": " headed",
  "5458": "oved",
  "5459": "\",",
  "5460": " strang",
  "5461": " ladyb",
  "5462": " fed",
  "5463": " supposed",
  "5464": " roots",
  "5465": " lick",
  "5466": " crunch",
  "5467": " mixing",
  "5468": " works",
  "5469": " decorations",
  "5470": " melting",
  "5471": " known",
  "5472": " emergen",
  "5473": "Mandy",
  "5474": " rested",
  "5475": " Ab",
  "5476": " lines",
  "5477": " Suzy",
  "5478": " lily",
  "5479": " Jul",
  "5480": " instr",
  "5481": " laid",
  "5482": " Gr",
  "5483": " succeeded",
  "5484": " cones",
  "5485": " wiggle",
  "5486": "ety",
  "5487": " shock",
  "5488": " setting",
  "5489": " Slow",
  "5490": "sing",
  "5491": " studied",
  "5492": " strangers",
  "5493": " Rocky",
  "5494": "Really",
  "5495": " twigs",
  "5496": " brid",
  "5497": " theirs",
  "5498": " Dr",
  "5499": " girls",
  "5500": "boo",
  "5501": "!\",",
  "5502": " screams",
  "5503": " lands",
  "5504": " ordered",
  "5505": " stirring",
  "5506": " moments",
  "5507": " fields",
  "5508": " alright",
  "5509": " stealing",
  "5510": "Andy",
  "5511": " rul",
  "5512": " bravely",
  "5513": "avid",
  "5514": " Both",
  "5515": " mister",
  "5516": "!'",
  "5517": " invest",
  "5518": " scratched",
  "5519": " playtime",
  "5520": " ripped",
  "5521": " investig",
  "5522": " tucked",
  "5523": " resting",
  "5524": " burning",
  "5525": "ishes",
  "5526": " Clara",
  "5527": " Chicky",
  "5528": " bridges",
  "5529": " officer",
  "5530": "please",
  "5531": "Sammy",
  "5532": "Bird",
  "5533": "abies",
  "5534": " settled",
  "5535": " matched",
  "5536": " achie",
  "5537": " tex",
  "5538": " texture",
  "5539": "Happy",
  "5540": " waits",
  "5541": " turning",
  "5542": " Sky",
  "5543": "Peter",
  "5544": "ored",
  "5545": " trembling",
  "5546": "isten",
  "5547": " nails",
  "5548": "atie",
  "5549": " muffins",
  "5550": " Someone",
  "5551": "ids",
  "5552": " escaped",
  "5553": " James",
  "5554": " piles",
  "5555": " investigate",
  "5556": "osity",
  "5557": " broom",
  "5558": " ladybug",
  "5559": " sore",
  "5560": " Pepper",
  "5561": " appreciate",
  "5562": " admir",
  "5563": " threat",
  "5564": " babies",
  "5565": " silence",
  "5566": " sisters",
  "5567": " emergency",
  "5568": " area",
  "5569": "ides",
  "5570": " dads",
  "5571": " answers",
  "5572": " pupp",
  "5573": " keys",
  "5574": " chewing",
  "5575": " slapped",
  "5576": " wiz",
  "5577": " importance",
  "5578": "Boo",
  "5579": " served",
  "5580": " Hop",
  "5581": " safety",
  "5582": "izing",
  "5583": "Would",
  "5584": "Bu",
  "5585": " sparkle",
  "5586": " touching",
  "5587": " Later",
  "5588": " soared",
  "5589": "igail",
  "5590": " sings",
  "5591": " hen",
  "5592": "allen",
  "5593": "Ella",
  "5594": "bers",
  "5595": "antly",
  "5596": "Momo",
  "5597": " Dino",
  "5598": " keeps",
  "5599": " amazement",
  "5600": " challen",
  "5601": " twin",
  "5602": " hesit",
  "5603": " revealed",
  "5604": "achel",
  "5605": " item",
  "5606": " dire",
  "5607": " soaked",
  "5608": "zing",
  "5609": " writ",
  "5610": " foods",
  "5611": " rides",
  "5612": " dinosaurs",
  "5613": " recorded",
  "5614": " tickle",
  "5615": " inch",
  "5616": " Zigzag",
  "5617": " Me",
  "5618": " wizard",
  "5619": " vet",
  "5620": " trips",
  "5621": " glowed",
  "5622": " Frog",
  "5623": "Mmm",
  "5624": " hi",
  "5625": " beamed",
  "5626": " quack",
  "5627": " curled",
  "5628": " hated",
  "5629": " wink",
  "5630": " shopping",
  "5631": " eats",
  "5632": "Eventually",
  "5633": " Bug",
  "5634": " praised",
  "5635": " wooden",
  "5636": " bringing",
  "5637": " mittens",
  "5638": " studying",
  "5639": " guy",
  "5640": " brushes",
  "5641": " spaceship",
  "5642": " gust",
  "5643": " crawling",
  "5644": " Something",
  "5645": "Cat",
  "5646": " ruler",
  "5647": " flav",
  "5648": " downstairs",
  "5649": " shooting",
  "5650": " tastes",
  "5651": " napping",
  "5652": " sprinkles",
  "5653": " marks",
  "5654": " cuddled",
  "5655": " dot",
  "5656": "hello",
  "5657": "plash",
  "5658": " fut",
  "5659": "ales",
  "5660": "aved",
  "5661": " future",
  "5662": " monsters",
  "5663": " collecting",
  "5664": " measuring",
  "5665": " Happy",
  "5666": "'.",
  "5667": " families",
  "5668": " Out",
  "5669": " First",
  "5670": " Mo",
  "5671": " thrill",
  "5672": " oat",
  "5673": "irts",
  "5674": " result",
  "5675": "Jake",
  "5676": " approached",
  "5677": " Rabbit",
  "5678": " crunchy",
  "5679": "act",
  "5680": "Un",
  "5681": " remem",
  "5682": " bleeding",
  "5683": " remembers",
  "5684": " nicer",
  "5685": " beat",
  "5686": "ding",
  "5687": " sneaky",
  "5688": " disturbed",
  "5689": " leader",
  "5690": " scaring",
  "5691": "Or",
  "5692": "hind",
  "5693": " peel",
  "5694": " Hope",
  "5695": " firemen",
  "5696": " neighborhood",
  "5697": " Star",
  "5698": " grey",
  "5699": " Not",
  "5700": " motion",
  "5701": " noon",
  "5702": " possible",
  "5703": "Emily",
  "5704": "Somet",
  "5705": " apologized",
  "5706": "ues",
  "5707": " weighed",
  "5708": "Cl",
  "5709": " Did",
  "5710": " tickets",
  "5711": " naps",
  "5712": " loose",
  "5713": " pride",
  "5714": " youth",
  "5715": " swims",
  "5716": "ped",
  "5717": " strings",
  "5718": " recognized",
  "5719": " siren",
  "5720": " poking",
  "5721": "fied",
  "5722": " Ho",
  "5723": "cious",
  "5724": "elvet",
  "5725": " tricked",
  "5726": " wonders",
  "5727": " gained",
  "5728": "ha",
  "5729": " wanting",
  "5730": " crashed",
  "5731": " obe",
  "5732": " seesaw",
  "5733": " worker",
  "5734": "unnies",
  "5735": "ls",
  "5736": "oming",
  "5737": " draws",
  "5738": " scooped",
  "5739": ".'",
  "5740": " zooming",
  "5741": " opinion",
  "5742": " yelling",
  "5743": " prepared",
  "5744": " grinned",
  "5745": " Slowly",
  "5746": " awe",
  "5747": " poems",
  "5748": " doggy",
  "5749": " acting",
  "5750": " Beep",
  "5751": " happiest",
  "5752": " chef",
  "5753": " sneaked",
  "5754": " respons",
  "5755": " eff",
  "5756": " Always",
  "5757": " Lizzy",
  "5758": " owned",
  "5759": " bunnies",
  "5760": " anytime",
  "5761": " struck",
  "5762": " pedals",
  "5763": "oys",
  "5764": " knelt",
  "5765": "ena",
  "5766": "Ollie",
  "5767": " secrets",
  "5768": " pause",
  "5769": " decorated",
  "5770": " horns",
  "5771": " agreement",
  "5772": " Squ",
  "5773": "ided",
  "5774": " frost",
  "5775": " tallest",
  "5776": " obey",
  "5777": "Remember",
  "5778": "riends",
  "5779": "ogo",
  "5780": " Stop",
  "5781": "Have",
  "5782": " decides",
  "5783": " Once",
  "5784": " behaved",
  "5785": " tugged",
  "5786": " sides",
  "5787": " woof",
  "5788": " slim",
  "5789": "zen",
  "5790": " goodnight",
  "5791": " keeper",
  "5792": " sparkling",
  "5793": " chirped",
  "5794": " precious",
  "5795": "mother",
  "5796": "lier",
  "5797": "ien",
  "5798": "Tr",
  "5799": " repeated",
  "5800": " claps",
  "5801": "indy",
  "5802": "affes",
  "5803": " snowballs",
  "5804": " contain",
  "5805": "rs",
  "5806": " Ray",
  "5807": " ourselves",
  "5808": "allow",
  "5809": " giraffes",
  "5810": " balancing",
  "5811": " kindly",
  "5812": " spending",
  "5813": " writes",
  "5814": "ays",
  "5815": "ppers",
  "5816": " Like",
  "5817": "omas",
  "5818": " prop",
  "5819": " hissed",
  "5820": "First",
  "5821": " frozen",
  "5822": " frosting",
  "5823": " effort",
  "5824": " buzzing",
  "5825": " struggled",
  "5826": "oh",
  "5827": " Steve",
  "5828": " admiring",
  "5829": " rele",
  "5830": "iggy",
  "5831": " sweeties",
  "5832": " Velvet",
  "5833": " slimy",
  "5834": " brushed",
  "5835": " Am",
  "5836": " bloomed",
  "5837": "Susie",
  "5838": " polished",
  "5839": " Zoe",
  "5840": "arth",
  "5841": "anted",
  "5842": " comfy",
  "5843": " boo",
  "5844": " staying",
  "5845": " rubbing",
  "5846": "Ducky",
  "5847": " rocking",
  "5848": " pockets",
  "5849": " thrilled",
  "5850": " beside",
  "5851": " comple",
  "5852": " Aunt",
  "5853": " Maggie",
  "5854": "Ah",
  "5855": " eight",
  "5856": "urry",
  "5857": "isdom",
  "5858": " machines",
  "5859": " earlier",
  "5860": " yesterday",
  "5861": " seems",
  "5862": " rust",
  "5863": " Keep",
  "5864": "Sp",
  "5865": " traveled",
  "5866": " folding",
  "5867": " boom",
  "5868": " cracked",
  "5869": "ities",
  "5870": " hugging",
  "5871": " radishes",
  "5872": " Stitch",
  "5873": " opening",
  "5874": " loving",
  "5875": " circus",
  "5876": " surrounded",
  "5877": " curiosity",
  "5878": " Rachel",
  "5879": " spraying",
  "5880": " demanded",
  "5881": " paintings",
  "5882": "amie",
  "5883": " Green",
  "5884": " removed",
  "5885": " gaze",
  "5886": " honk",
  "5887": " pebbles",
  "5888": " zookeeper",
  "5889": " hardly",
  "5890": " catches",
  "5891": "edding",
  "5892": " stripes",
  "5893": " powers",
  "5894": " loaded",
  "5895": " Pippa",
  "5896": "Sometimes",
  "5897": " splashes",
  "5898": " pots",
  "5899": " petted",
  "5900": " matching",
  "5901": " David",
  "5902": "Thanks",
  "5903": " toss",
  "5904": " stare",
  "5905": " belly",
  "5906": "Yummy",
  "5907": "ibb",
  "5908": " whatever",
  "5909": " apologize",
  "5910": " rocked",
  "5911": " comforted",
  "5912": " Bree",
  "5913": " decision",
  "5914": " ribbons",
  "5915": " Joy",
  "5916": " Birdie",
  "5917": "ern",
  "5918": " struggling",
  "5919": " expected",
  "5920": " deser",
  "5921": " steep",
  "5922": "wh",
  "5923": " protected",
  "5924": " neighbors",
  "5925": " smiley",
  "5926": " chases",
  "5927": "During",
  "5928": " granted",
  "5929": " crumb",
  "5930": " Mat",
  "5931": " purred",
  "5932": " diving",
  "5933": " sadness",
  "5934": "Whiskers",
  "5935": " organizing",
  "5936": "lowers",
  "5937": " eagle",
  "5938": " heroes",
  "5939": " dipped",
  "5940": " sunlight",
  "5941": " lied",
  "5942": " pastels",
  "5943": " Frank",
  "5944": "Ex",
  "5945": " safer",
  "5946": " roads",
  "5947": " sting",
  "5948": " scru",
  "5949": " argued",
  "5950": " Milly",
  "5951": " goals",
  "5952": " Water",
  "5953": " discovery",
  "5954": " Abigail",
  "5955": " villag",
  "5956": " peered",
  "5957": "Ro",
  "5958": " Bouncy",
  "5959": "use",
  "5960": "loe",
  "5961": " tim",
  "5962": " dragons",
  "5963": " buildings",
  "5964": " buckets",
  "5965": " parties",
  "5966": " beard",
  "5967": " wedding",
  "5968": "Rex",
  "5969": " padd",
  "5970": " flutter",
  "5971": " planets",
  "5972": " ann",
  "5973": " Robby",
  "5974": " polishing",
  "5975": " fasc",
  "5976": "ira",
  "5977": " released",
  "5978": " Chr",
  "5979": " crabs",
  "5980": " Gogo",
  "5981": " tails",
  "5982": " Watch",
  "5983": " sausages",
  "5984": " argu",
  "5985": " contro",
  "5986": " bottles",
  "5987": " wiggled",
  "5988": " teased",
  "5989": "uke",
  "5990": " arguing",
  "5991": " sled",
  "5992": " dragged",
  "5993": " Car",
  "5994": " roaring",
  "5995": " clearing",
  "5996": " shirts",
  "5997": " movies",
  "5998": " gathering",
  "5999": " airpl",
  "6000": " wid",
  "6001": "joyed",
  "6002": " teaches",
  "6003": " spiders",
  "6004": " limes",
  "6005": " Remember",
  "6006": " Dare",
  "6007": " overjoyed",
  "6008": " actually",
  "6009": " sighs",
  "6010": " continue",
  "6011": " cuddle",
  "6012": " soaring",
  "6013": " smallest",
  "6014": " Jess",
  "6015": " drives",
  "6016": " Ju",
  "6017": " sparkles",
  "6018": " rip",
  "6019": " situ",
  "6020": " cubes",
  "6021": " refres",
  "6022": " talent",
  "6023": " challenge",
  "6024": " Olly",
  "6025": " grandmother",
  "6026": " Splash",
  "6027": " pouring",
  "6028": "umm",
  "6029": " pretends",
  "6030": " fascin",
  "6031": " cuts",
  "6032": " quarreling",
  "6033": " peppers",
  "6034": " bank",
  "6035": " shivered",
  "6036": " mane",
  "6037": " dusty",
  "6038": " Jenn",
  "6039": "ley",
  "6040": " wondering",
  "6041": " villagers",
  "6042": " stretching",
  "6043": "njoy",
  "6044": "ib",
  "6045": " weeks",
  "6046": " wherever",
  "6047": " darker",
  "6048": "jam",
  "6049": "Tiny",
  "6050": "sses",
  "6051": " X",
  "6052": " rings",
  "6053": " onwards",
  "6054": " Katie",
  "6055": " united",
  "6056": "Achoo",
  "6057": " bead",
  "6058": " Everyday",
  "6059": " Being",
  "6060": " prettiest",
  "6061": "Johnny",
  "6062": " caut",
  "6063": " realize",
  "6064": " company",
  "6065": " penguins",
  "6066": "annah",
  "6067": "Luna",
  "6068": "Fr",
  "6069": " bedtime",
  "6070": " completed",
  "6071": " Wisdom",
  "6072": " Leave",
  "6073": "”.",
  "6074": " knights",
  "6075": " Spring",
  "6076": " flags",
  "6077": " Je",
  "6078": " Because",
  "6079": " playroom",
  "6080": " Prin",
  "6081": " actions",
  "6082": " Zero",
  "6083": " learns",
  "6084": " gotten",
  "6085": "ana",
  "6086": " patience",
  "6087": "inda",
  "6088": "dam",
  "6089": " shrug",
  "6090": " kites",
  "6091": " responsible",
  "6092": " fears",
  "6093": " destination",
  "6094": " wires",
  "6095": " reply",
  "6096": " wrist",
  "6097": " dam",
  "6098": "aws",
  "6099": " packing",
  "6100": " mountains",
  "6101": " fault",
  "6102": " applauded",
  "6103": " scrubbed",
  "6104": " ma",
  "6105": " crept",
  "6106": " Ava",
  "6107": "Uh",
  "6108": " Earth",
  "6109": " satis",
  "6110": " third",
  "6111": " phot",
  "6112": " pencils",
  "6113": " wins",
  "6114": " sticking",
  "6115": " baker",
  "6116": " visiting",
  "6117": " wound",
  "6118": " uses",
  "6119": " peas",
  "6120": " reminder",
  "6121": " control",
  "6122": "ashed",
  "6123": "Grandpa",
  "6124": " joking",
  "6125": " awake",
  "6126": " instruct",
  "6127": " staring",
  "6128": " healed",
  "6129": " Put",
  "6130": "An",
  "6131": " hitting",
  "6132": " Fish",
  "6133": " screaming",
  "6134": " begin",
  "6135": "Rob",
  "6136": "uckily",
  "6137": " Friends",
  "6138": " Moo",
  "6139": "icorn",
  "6140": " helmets",
  "6141": " crowd",
  "6142": "enty",
  "6143": " unicorn",
  "6144": "ler",
  "6145": "seek",
  "6146": " towels",
  "6147": "Silly",
  "6148": " Lou",
  "6149": " chips",
  "6150": "ica",
  "6151": " creation",
  "6152": " wasted",
  "6153": "bie",
  "6154": "Mar",
  "6155": " Behind",
  "6156": "laire",
  "6157": " masks",
  "6158": " items",
  "6159": " forgi",
  "6160": " firefight",
  "6161": " outdo",
  "6162": " lollipops",
  "6163": "Watch",
  "6164": " heav",
  "6165": " guns",
  "6166": " died",
  "6167": " Hippy",
  "6168": " seas",
  "6169": " glitter",
  "6170": "uddles",
  "6171": " arrive",
  "6172": " weren",
  "6173": " stole",
  "6174": " scales",
  "6175": " perched",
  "6176": " accom",
  "6177": " logs",
  "6178": " achieve",
  "6179": "die",
  "6180": " practicing",
  "6181": "ining",
  "6182": " whose",
  "6183": "Stay",
  "6184": " pumpkins",
  "6185": " instructions",
  "6186": " swoop",
  "6187": " batteries",
  "6188": " candies",
  "6189": " agrees",
  "6190": " project",
  "6191": " snakes",
  "6192": " chirping",
  "6193": "Benny",
  "6194": " shelves",
  "6195": " protecting",
  "6196": " parked",
  "6197": " exact",
  "6198": " Cra",
  "6199": " patiently",
  "6200": " activ",
  "6201": " videos",
  "6202": " shoulders",
  "6203": " blows",
  "6204": "hee",
  "6205": "Fo",
  "6206": " promises",
  "6207": "go",
  "6208": " dent",
  "6209": "usan",
  "6210": "uest",
  "6211": "jamas",
  "6212": " examined",
  "6213": " airplane",
  "6214": "Doggy",
  "6215": " roses",
  "6216": " accompl",
  "6217": " tasks",
  "6218": "Dave",
  "6219": " Hoot",
  "6220": "Poppy",
  "6221": " Bop",
  "6222": "Bunny",
  "6223": " beads",
  "6224": " bowls",
  "6225": " crumbs",
  "6226": "zes",
  "6227": " listens",
  "6228": " Love",
  "6229": " Catty",
  "6230": " Brownie",
  "6231": "Pete",
  "6232": " Ol",
  "6233": " dolphins",
  "6234": " cough",
  "6235": " bunch",
  "6236": " guest",
  "6237": "cakes",
  "6238": " requested",
  "6239": " remote",
  "6240": " improved",
  "6241": "anta",
  "6242": " reaching",
  "6243": " brand",
  "6244": "ayla",
  "6245": " alien",
  "6246": " Bye",
  "6247": "irm",
  "6248": " copy",
  "6249": " Sun",
  "6250": " cheering",
  "6251": " photos",
  "6252": " Julie",
  "6253": " Chew",
  "6254": "Bad",
  "6255": " Jan",
  "6256": " Blink",
  "6257": "Time",
  "6258": " cans",
  "6259": " Cuddles",
  "6260": " timer",
  "6261": " By",
  "6262": " replaced",
  "6263": "athy",
  "6264": " workers",
  "6265": " stern",
  "6266": "ners",
  "6267": " Enjoy",
  "6268": "aster",
  "6269": " neither",
  "6270": "Mike",
  "6271": " passing",
  "6272": " misses",
  "6273": " curtains",
  "6274": " confl",
  "6275": "Chirpy",
  "6276": " rainbows",
  "6277": " rubs",
  "6278": "George",
  "6279": "uctantly",
  "6280": " rolls",
  "6281": " patted",
  "6282": "ilo",
  "6283": " pajamas",
  "6284": " outdoors",
  "6285": "esome",
  "6286": "dies",
  "6287": " complaining",
  "6288": " Squirrel",
  "6289": "Lola",
  "6290": "Run",
  "6291": " puppet",
  "6292": " Princess",
  "6293": " closes",
  "6294": " beneath",
  "6295": " lap",
  "6296": " drums",
  "6297": " tune",
  "6298": " Beth",
  "6299": " Mouse",
  "6300": " filling",
  "6301": "Miss",
  "6302": "angled",
  "6303": " refuse",
  "6304": " Sorry",
  "6305": " sweat",
  "6306": " faced",
  "6307": "...",
  "6308": " seven",
  "6309": " balanced",
  "6310": "eal",
  "6311": " rescued",
  "6312": "neath",
  "6313": "bl",
  "6314": " quacked",
  "6315": " Abby",
  "6316": "Paul",
  "6317": "istle",
  "6318": " awesome",
  "6319": " 1",
  "6320": " mission",
  "6321": " However",
  "6322": " guys",
  "6323": " conflict",
  "6324": " cautious",
  "6325": " vent",
  "6326": " observed",
  "6327": " cause",
  "6328": " introduc",
  "6329": " Thomas",
  "6330": " pastries",
  "6331": "  ",
  "6332": " Our",
  "6333": " exactly",
  "6334": " doctors",
  "6335": " rule",
  "6336": " becoming",
  "6337": " policeman",
  "6338": " mes",
  "6339": "uly",
  "6340": " rockets",
  "6341": "you",
  "6342": " Yes",
  "6343": " Dot",
  "6344": " fairies",
  "6345": "lay",
  "6346": " pout",
  "6347": " insist",
  "6348": " blooming",
  "6349": " tractor",
  "6350": " farther",
  "6351": " Sad",
  "6352": "avi",
  "6353": "Oops",
  "6354": "Great",
  "6355": " remembering",
  "6356": " included",
  "6357": " curly",
  "6358": "Zoom",
  "6359": "Fine",
  "6360": " teamwork",
  "6361": "zie",
  "6362": " fascinated",
  "6363": " wobbled",
  "6364": " slam",
  "6365": " truly",
  "6366": " helpers",
  "6367": " sights",
  "6368": " paddle",
  "6369": " stumble",
  "6370": " firm",
  "6371": "onn",
  "6372": "Henry",
  "6373": " Jilly",
  "6374": "acob",
  "6375": " caused",
  "6376": " prayer",
  "6377": " spong",
  "6378": " recording",
  "6379": "kelly",
  "6380": "ais",
  "6381": " traded",
  "6382": " starfish",
  "6383": " supplies",
  "6384": " thro",
  "6385": " pointy",
  "6386": " situation",
  "6387": " inviting",
  "6388": "eah",
  "6389": "gers",
  "6390": " neighbourhood",
  "6391": " everyday",
  "6392": " ornaments",
  "6393": " Ally",
  "6394": "inkle",
  "6395": " valued",
  "6396": " adding",
  "6397": "Some",
  "6398": " reluctantly",
  "6399": " dots",
  "6400": " stays",
  "6401": " tables",
  "6402": " prettier",
  "6403": " bare",
  "6404": " desert",
  "6405": " snowmen",
  "6406": " steady",
  "6407": " minerals",
  "6408": "araway",
  "6409": " thorn",
  "6410": "ody",
  "6411": " ast",
  "6412": " glasses",
  "6413": " faraway",
  "6414": "sm",
  "6415": " Get",
  "6416": " Foxy",
  "6417": " swooped",
  "6418": " Welcome",
  "6419": " Two",
  "6420": " Sure",
  "6421": " unf",
  "6422": " forks",
  "6423": " usually",
  "6424": " usual",
  "6425": "Polly",
  "6426": " dar",
  "6427": " Jamie",
  "6428": " winked",
  "6429": " sneezing",
  "6430": " solut",
  "6431": " loading",
  "6432": " sponge",
  "6433": " Quick",
  "6434": " insects",
  "6435": " pans",
  "6436": "Dog",
  "6437": " sobbed",
  "6438": " Santa",
  "6439": "James",
  "6440": " growling",
  "6441": "arter",
  "6442": " throat",
  "6443": " Chloe",
  "6444": " noses",
  "6445": " Josh",
  "6446": " Dizzy",
  "6447": " scarves",
  "6448": " confident",
  "6449": " yourselves",
  "6450": " Want",
  "6451": "agull",
  "6452": " homework",
  "6453": " superheroes",
  "6454": " Stay",
  "6455": "Joey",
  "6456": " smarter",
  "6457": " windy",
  "6458": " librarian",
  "6459": "Tina",
  "6460": " Kids",
  "6461": " gems",
  "6462": "Days",
  "6463": "ora",
  "6464": " underneath",
  "6465": " kicks",
  "6466": " knowled",
  "6467": " itchy",
  "6468": " knowledge",
  "6469": " jackets",
  "6470": " Skelly",
  "6471": " For",
  "6472": " surface",
  "6473": " untie",
  "6474": " comm",
  "6475": " Duck",
  "6476": " princesses",
  "6477": "...\"",
  "6478": "Those",
  "6479": "ido",
  "6480": "Hold",
  "6481": "Yeah",
  "6482": "coon",
  "6483": " squares",
  "6484": " Henny",
  "6485": " warnings",
  "6486": " giggling",
  "6487": "iar",
  "6488": " reads",
  "6489": "vin",
  "6490": "Our",
  "6491": " choo",
  "6492": "son",
  "6493": " younger",
  "6494": " clowns",
  "6495": " Mix",
  "6496": "Toby",
  "6497": " ropes",
  "6498": " biting",
  "6499": " Unfortunately",
  "6500": "pite",
  "6501": "Danny",
  "6502": "eed",
  "6503": "True",
  "6504": " seagull",
  "6505": " paddled",
  "6506": " wears",
  "6507": " delivered",
  "6508": " Mon",
  "6509": " twirl",
  "6510": " onions",
  "6511": " buzzed",
  "6512": " complained",
  "6513": " bumpy",
  "6514": " stem",
  "6515": "Ew",
  "6516": " piggy",
  "6517": "Mrs",
  "6518": " Anne",
  "6519": " direction",
  "6520": "ouch",
  "6521": " dived",
  "6522": "Roar",
  "6523": " tangled",
  "6524": " startled",
  "6525": "ults",
  "6526": " leaning",
  "6527": "bbie",
  "6528": " Ant",
  "6529": " Jones",
  "6530": " badge",
  "6531": " Po",
  "6532": "Grace",
  "6533": " unp",
  "6534": " deal",
  "6535": "though",
  "6536": "Annie",
  "6537": " vowed",
  "6538": " napkins",
  "6539": "anes",
  "6540": " tickled",
  "6541": " risk",
  "6542": " covers",
  "6543": " pec",
  "6544": "Shh",
  "6545": " yells",
  "6546": " satisfied",
  "6547": "int",
  "6548": " knocks",
  "6549": " refreshed",
  "6550": "tuce",
  "6551": " Sc",
  "6552": "cuse",
  "6553": " cous",
  "6554": " arrows",
  "6555": "Maggie",
  "6556": " Whistle",
  "6557": "Pe",
  "6558": " wipes",
  "6559": " speaking",
  "6560": " lettuce",
  "6561": " guessing",
  "6562": "Unfortunately",
  "6563": " Quack",
  "6564": " ripe",
  "6565": " Susan",
  "6566": " hides",
  "6567": " choices",
  "6568": " Dodo",
  "6569": " Rover",
  "6570": "Buzz",
  "6571": " signed",
  "6572": " slower",
  "6573": " seeker",
  "6574": " introduced",
  "6575": " singer",
  "6576": " creating",
  "6577": " Matt",
  "6578": " froze",
  "6579": " cent",
  "6580": "uggles",
  "6581": " joked",
  "6582": " squeal",
  "6583": " toaster",
  "6584": " explorers",
  "6585": "fit",
  "6586": " avo",
  "6587": "anging",
  "6588": "Sophie",
  "6589": " praying",
  "6590": " written",
  "6591": " discovering",
  "6592": " provided",
  "6593": " Dara",
  "6594": " refle",
  "6595": " Lion",
  "6596": "Excuse",
  "6597": " mushrooms",
  "6598": " Jeff",
  "6599": " Paws",
  "6600": " paying",
  "6601": " knees",
  "6602": "ences",
  "6603": " hider",
  "6604": " wandering",
  "6605": " Ash",
  "6606": " images",
  "6607": "Charlie",
  "6608": " stung",
  "6609": " Wink",
  "6610": " magnets",
  "6611": " barely",
  "6612": " behaving",
  "6613": " tipto",
  "6614": "?\",",
  "6615": " marked",
  "6616": "brush",
  "6617": "rrr",
  "6618": " restored",
  "6619": " Dee",
  "6620": " leading",
  "6621": "lled",
  "6622": " chuck",
  "6623": "ados",
  "6624": " nine",
  "6625": " greet",
  "6626": "Teddy",
  "6627": " gears",
  "6628": " bravery",
  "6629": " Snuggles",
  "6630": "ky",
  "6631": " competition",
  "6632": " outfit",
  "6633": "oline",
  "6634": " wishing",
  "6635": " properly",
  "6636": " ventured",
  "6637": "tle",
  "6638": "aa",
  "6639": " muscle",
  "6640": " dances",
  "6641": " chat",
  "6642": " salty",
  "6643": " pens",
  "6644": "amb",
  "6645": " Betsy",
  "6646": " ranger",
  "6647": " Ziggy",
  "6648": " deserve",
  "6649": " however",
  "6650": "sequ",
  "6651": " matters",
  "6652": " darkness",
  "6653": " burst",
  "6654": " Fu",
  "6655": " rainy",
  "6656": " cobwebs",
  "6657": " ruining",
  "6658": " chefs",
  "6659": " consequ",
  "6660": " blocking",
  "6661": " bak",
  "6662": "usted",
  "6663": "itely",
  "6664": "sty",
  "6665": " scur",
  "6666": " vines",
  "6667": " fab",
  "6668": "abel",
  "6669": " fabric",
  "6670": " entire",
  "6671": " basement",
  "6672": " performed",
  "6673": " least",
  "6674": " Buggy",
  "6675": "Sn",
  "6676": " scratches",
  "6677": " heavier",
  "6678": " Claire",
  "6679": " mints",
  "6680": " twirling",
  "6681": " avocados",
  "6682": "However",
  "6683": " Linda",
  "6684": "rink",
  "6685": "fl",
  "6686": " scurried",
  "6687": " losing",
  "6688": " sunflowers",
  "6689": " Jenna",
  "6690": " rainco",
  "6691": " swords",
  "6692": "Tweet",
  "6693": "ssss",
  "6694": " click",
  "6695": "agic",
  "6696": " Laser",
  "6697": " silent",
  "6698": " jobs",
  "6699": " necklaces",
  "6700": " flames",
  "6701": " Luke",
  "6702": " relief",
  "6703": " Grumpy",
  "6704": " snat",
  "6705": " sewed",
  "6706": " rotting",
  "6707": "len",
  "6708": "Listen",
  "6709": "Follow",
  "6710": " tricky",
  "6711": "Jerry",
  "6712": " lighter",
  "6713": "ophia",
  "6714": " bows",
  "6715": " Skip",
  "6716": " exha",
  "6717": " solution",
  "6718": " consequences",
  "6719": "Alex",
  "6720": " Lena",
  "6721": " tires",
  "6722": " stain",
  "6723": "Beep",
  "6724": " unpacked",
  "6725": "Ab",
  "6726": " partic",
  "6727": "rance",
  "6728": " races",
  "6729": " pins",
  "6730": " bumps",
  "6731": " wraps",
  "6732": "aisies",
  "6733": " wow",
  "6734": " decorating",
  "6735": " backed",
  "6736": "cher",
  "6737": " dentist",
  "6738": " purr",
  "6739": " needles",
  "6740": " cautiously",
  "6741": " lifting",
  "6742": "izzie",
  "6743": " Pr",
  "6744": " accomplish",
  "6745": "ude",
  "6746": " triangles",
  "6747": " daisies",
  "6748": "ept",
  "6749": " hesitated",
  "6750": " annoy",
  "6751": " Those",
  "6752": " growls",
  "6753": " crackers",
  "6754": "oke",
  "6755": " stomped",
  "6756": " grabbing",
  "6757": " cott",
  "6758": " figured",
  "6759": " bodies",
  "6760": " mater",
  "6761": " buying",
  "6762": " Tree",
  "6763": " material",
  "6764": " Rolly",
  "6765": " Fido",
  "6766": " Adam",
  "6767": " swans",
  "6768": " ties",
  "6769": " gri",
  "6770": "vers",
  "6771": " grows",
  "6772": " \n ",
  "6773": " sweets",
  "6774": " Goodbye",
  "6775": " El",
  "6776": " owners",
  "6777": " flavor",
  "6778": " cheeks",
  "6779": " Cathy",
  "6780": "Big",
  "6781": " suffering",
  "6782": " Jessie",
  "6783": "vroom",
  "6784": " fact",
  "6785": " groups",
  "6786": "bly",
  "6787": " forehead",
  "6788": " lungs",
  "6789": "Harry",
  "6790": " repa",
  "6791": " interested",
  "6792": " bakery",
  "6793": " Milo",
  "6794": " freed",
  "6795": "Lilly",
  "6796": "itches",
  "6797": " Nothing",
  "6798": " chuckled",
  "6799": "For",
  "6800": " swept",
  "6801": " conn",
  "6802": "?'",
  "6803": " thud",
  "6804": " exhausted",
  "6805": "Tw",
  "6806": " twinkling",
  "6807": " tapped",
  "6808": " nect",
  "6809": "rosty",
  "6810": " nectar",
  "6811": "elle",
  "6812": " feast",
  "6813": " darling",
  "6814": "indr",
  "6815": " Mad",
  "6816": " worries",
  "6817": " uns",
  "6818": " tunnels",
  "6819": " fuzzy",
  "6820": " repaired",
  "6821": " reason",
  "6822": " Trust",
  "6823": " Copper",
  "6824": " Ball",
  "6825": " activities",
  "6826": "lets",
  "6827": " pecked",
  "6828": " Hannah",
  "6829": " entrance",
  "6830": " Try",
  "6831": " raindr",
  "6832": " meals",
  "6833": " Listen",
  "6834": " particular",
  "6835": " completely",
  "6836": " mailed",
  "6837": "ctions",
  "6838": " nests",
  "6839": " waiter",
  "6840": " cuddly",
  "6841": " sense",
  "6842": "Ru",
  "6843": " Nana",
  "6844": " colored",
  "6845": "arky",
  "6846": " leap",
  "6847": "step",
  "6848": "band",
  "6849": " plenty",
  "6850": " peeking",
  "6851": " slammed",
  "6852": " Cara",
  "6853": "no",
  "6854": " players",
  "6855": " month",
  "6856": " budge",
  "6857": " Birthday",
  "6858": " Q",
  "6859": " scra",
  "6860": " forgets",
  "6861": " den",
  "6862": " handful",
  "6863": " Oliver",
  "6864": " mer",
  "6865": "ossible",
  "6866": " genie",
  "6867": " Christ",
  "6868": " stool",
  "6869": "iggie",
  "6870": " talks",
  "6871": " Pup",
  "6872": " Suzie",
  "6873": " passports",
  "6874": " feeding",
  "6875": " films",
  "6876": " baths",
  "6877": " impossible",
  "6878": " determination",
  "6879": "May",
  "6880": " printing",
  "6881": "boat",
  "6882": " designed",
  "6883": " buses",
  "6884": " opp",
  "6885": "ueen",
  "6886": "lephant",
  "6887": " suitcase",
  "6888": " bars",
  "6889": " counts",
  "6890": " stolen",
  "6891": " spreading",
  "6892": " spikes",
  "6893": " Snap",
  "6894": " wiping",
  "6895": " steer",
  "6896": " lamb",
  "6897": " Rain",
  "6898": " honked",
  "6899": "etty",
  "6900": "Whee",
  "6901": " cowb",
  "6902": " separated",
  "6903": "blings",
  "6904": " siblings",
  "6905": " hops",
  "6906": "od",
  "6907": " chop",
  "6908": " sewing",
  "6909": " fires",
  "6910": " Twinkle",
  "6911": " fever",
  "6912": " twinkle",
  "6913": " ty",
  "6914": " camping",
  "6915": " Mira",
  "6916": " lower",
  "6917": " changing",
  "6918": "yes",
  "6919": "retch",
  "6920": " behavi",
  "6921": " Bloom",
  "6922": "mas",
  "6923": " liqu",
  "6924": " celebration",
  "6925": "but",
  "6926": " squealed",
  "6927": " dollhouse",
  "6928": "Sunny",
  "6929": " backward",
  "6930": " age",
  "6931": " snatched",
  "6932": " cash",
  "6933": " twice",
  "6934": "lee",
  "6935": " sway",
  "6936": "itched",
  "6937": " celebrating",
  "6938": " Peanut",
  "6939": " shrinking",
  "6940": " ache",
  "6941": "weed",
  "6942": " kings",
  "6943": "rious",
  "6944": " shops",
  "6945": " kittens",
  "6946": "cope",
  "6947": "Rose",
  "6948": " Jessica",
  "6949": " Jacob",
  "6950": " Gina",
  "6951": "aura",
  "6952": " hus",
  "6953": " touches",
  "6954": "airy",
  "6955": " pancakes",
  "6956": "nies",
  "6957": " avoid",
  "6958": " spat",
  "6959": " Frosty",
  "6960": "rig",
  "6961": "hog",
  "6962": " Nina",
  "6963": " paths",
  "6964": "ives",
  "6965": "cky",
  "6966": " Hold",
  "6967": " rotten",
  "6968": " calmed",
  "6969": "Sandy",
  "6970": " seaweed",
  "6971": " dropping",
  "6972": " Mel",
  "6973": "iles",
  "6974": "Pipp",
  "6975": " twisting",
  "6976": " stroked",
  "6977": " Jon",
  "6978": " untied",
  "6979": "llen",
  "6980": " playhouse",
  "6981": "Millie",
  "6982": " students",
  "6983": " puppies",
  "6984": "cl",
  "6985": " Sof",
  "6986": "ho",
  "6987": "hi",
  "6988": " screws",
  "6989": " astron",
  "6990": " Re",
  "6991": " somebody",
  "6992": "igning",
  "6993": " liquid",
  "6994": "aren",
  "6995": "ammy",
  "6996": " wakes",
  "6997": " squish",
  "6998": " Woof",
  "6999": " bracelets",
  "7000": " astronaut",
  "7001": "immer",
  "7002": " thrown",
  "7003": " loops",
  "7004": " Other",
  "7005": "Luckily",
  "7006": " wrapping",
  "7007": " plain",
  "7008": " tramp",
  "7009": " planning",
  "7010": " skunk",
  "7011": " aimed",
  "7012": " pennies",
  "7013": " shoo",
  "7014": " lifts",
  "7015": " dancers",
  "7016": " sparks",
  "7017": " firefly",
  "7018": "pen",
  "7019": " poster",
  "7020": "yan",
  "7021": "endy",
  "7022": " cust",
  "7023": " Christmas",
  "7024": "Dan",
  "7025": " rewarded",
  "7026": " objects",
  "7027": " directions",
  "7028": "using",
  "7029": "ingo",
  "7030": " reflection",
  "7031": " husband",
  "7032": "—",
  "7033": "Take",
  "7034": "river",
  "7035": " clues",
  "7036": "uppy",
  "7037": " leads",
  "7038": " increased",
  "7039": " blocked",
  "7040": " rising",
  "7041": " dod",
  "7042": " cousin",
  "7043": " Yesterday",
  "7044": " Without",
  "7045": " forgetting",
  "7046": "rigued",
  "7047": " custom",
  "7048": "Kate",
  "7049": " trampoline",
  "7050": " beginning",
  "7051": " storekeeper",
  "7052": " pouted",
  "7053": " zebras",
  "7054": " hedgehog",
  "7055": " aff",
  "7056": " ‘",
  "7057": " borrowed",
  "7058": " Rollie",
  "7059": " snowfl",
  "7060": " countryside",
  "7061": "Jump",
  "7062": " mesmer",
  "7063": " Jay",
  "7064": " vehicles",
  "7065": " instrum",
  "7066": " Mic",
  "7067": " Kayla",
  "7068": " Up",
  "7069": " frowning",
  "7070": "ivity",
  "7071": "Pat",
  "7072": "Under",
  "7073": " marker",
  "7074": "yond",
  "7075": " presses",
  "7076": " beyond",
  "7077": " Queen",
  "7078": " damage",
  "7079": " Only",
  "7080": "iece",
  "7081": "ivery",
  "7082": " fart",
  "7083": " Tara",
  "7084": " Biggie",
  "7085": "jo",
  "7086": " health",
  "7087": " whispers",
  "7088": " swimsuit",
  "7089": " slips",
  "7090": " nibb",
  "7091": " Julia",
  "7092": "armer",
  "7093": " warmer",
  "7094": " flapping",
  "7095": " tiptoed",
  "7096": " regretted",
  "7097": "itted",
  "7098": "Zip",
  "7099": " laying",
  "7100": " Robo",
  "7101": "ades",
  "7102": " yelp",
  "7103": " Fire",
  "7104": " rains",
  "7105": " glued",
  "7106": " everybody",
  "7107": " creations",
  "7108": " hearing",
  "7109": " swir",
  "7110": " colder",
  "7111": "iversity",
  "7112": "ael",
  "7113": " shaped",
  "7114": " Elephant",
  "7115": " streets",
  "7116": " fins",
  "7117": " rusty",
  "7118": " cushions",
  "7119": "Out",
  "7120": " san",
  "7121": " farthest",
  "7122": " creativity",
  "7123": " Mikey",
  "7124": "ans",
  "7125": " sale",
  "7126": "Always",
  "7127": " strongest",
  "7128": "ibbit",
  "7129": " fits",
  "7130": " Sparky",
  "7131": "Co",
  "7132": " bells",
  "7133": " dollars",
  "7134": " Larry",
  "7135": " earn",
  "7136": "iam",
  "7137": "angle",
  "7138": " lending",
  "7139": " Moon",
  "7140": " Chirp",
  "7141": "eese",
  "7142": " cashier",
  "7143": "Milly",
  "7144": " including",
  "7145": " sniffs",
  "7146": " sank",
  "7147": " raincoat",
  "7148": " Rich",
  "7149": " trembled",
  "7150": " stopping",
  "7151": " source",
  "7152": "iti",
  "7153": "imon",
  "7154": "ae",
  "7155": " Missy",
  "7156": " wobbly",
  "7157": " indeed",
  "7158": "ters",
  "7159": " guests",
  "7160": " single",
  "7161": " recommended",
  "7162": " wee",
  "7163": " spells",
  "7164": " accomplishment",
  "7165": " belts",
  "7166": " surprising",
  "7167": " ends",
  "7168": " hopeful",
  "7169": "eet",
  "7170": " seasons",
  "7171": " Take",
  "7172": " Snowman",
  "7173": " Els",
  "7174": "Bear",
  "7175": " plans",
  "7176": "ichael",
  "7177": " encourag",
  "7178": " supported",
  "7179": "stick",
  "7180": "illed",
  "7181": " suffered",
  "7182": " artist",
  "7183": " performance",
  "7184": "Nina",
  "7185": " slowed",
  "7186": " gross",
  "7187": " flavors",
  "7188": "iding",
  "7189": "ertain",
  "7190": " spins",
  "7191": "cho",
  "7192": "Quack",
  "7193": " labels",
  "7194": "uing",
  "7195": " raindrops",
  "7196": " delivery",
  "7197": "arac",
  "7198": " raccoon",
  "7199": " forgiving",
  "7200": "obody",
  "7201": " Woo",
  "7202": " pours",
  "7203": "the",
  "7204": "ility",
  "7205": " vanilla",
  "7206": " turtles",
  "7207": " stands",
  "7208": "Bill",
  "7209": "uess",
  "7210": " recipe",
  "7211": " beam",
  "7212": " tying",
  "7213": " Sw",
  "7214": " geese",
  "7215": " willing",
  "7216": " robber",
  "7217": " drawn",
  "7218": "Vroom",
  "7219": " wept",
  "7220": " Bones",
  "7221": " charac",
  "7222": " pops",
  "7223": " corners",
  "7224": " Sophia",
  "7225": "elia",
  "7226": " queens",
  "7227": " sailboat",
  "7228": " grip",
  "7229": " die",
  "7230": " drivers",
  "7231": "itude",
  "7232": " moo",
  "7233": " hallway",
  "7234": " imagining",
  "7235": " seconds",
  "7236": " Fuzzy",
  "7237": "Mine",
  "7238": " preparing",
  "7239": " widened",
  "7240": " adult",
  "7241": " Spirit",
  "7242": " grocer",
  "7243": " coop",
  "7244": " talented",
  "7245": " Pam",
  "7246": " Beaky",
  "7247": " Izzy",
  "7248": "ummies",
  "7249": " sailors",
  "7250": "lling",
  "7251": " softer",
  "7252": " aside",
  "7253": " watering",
  "7254": " sending",
  "7255": " knots",
  "7256": " unsure",
  "7257": " tipped",
  "7258": "Lulu",
  "7259": " treehouse",
  "7260": " horiz",
  "7261": " Lizzie",
  "7262": " notes",
  "7263": " echo",
  "7264": "igers",
  "7265": " achieved",
  "7266": " horizon",
  "7267": " squeak",
  "7268": " delivering",
  "7269": " pleasure",
  "7270": " hotter",
  "7271": " Stella",
  "7272": "Clara",
  "7273": " pupils",
  "7274": " burrow",
  "7275": " angels",
  "7276": " curiously",
  "7277": "Ellie",
  "7278": " yum",
  "7279": " blinking",
  "7280": " June",
  "7281": " tweet",
  "7282": " symbols",
  "7283": " det",
  "7284": " Stretch",
  "7285": "wk",
  "7286": " passen",
  "7287": " Rudy",
  "7288": " Cindy",
  "7289": " tummies",
  "7290": " tiss",
  "7291": " pigeons",
  "7292": " figures",
  "7293": "umbling",
  "7294": "oey",
  "7295": " bandages",
  "7296": " Robert",
  "7297": " coup",
  "7298": " Doctor",
  "7299": " robots",
  "7300": "alph",
  "7301": " tossed",
  "7302": " hour",
  "7303": " backwards",
  "7304": " roars",
  "7305": "Baby",
  "7306": " merma",
  "7307": "uzz",
  "7308": " rather",
  "7309": "atur",
  "7310": "Maria",
  "7311": "cited",
  "7312": " Play",
  "7313": " Crab",
  "7314": "Moo",
  "7315": "ighting",
  "7316": "Dolly",
  "7317": " groceries",
  "7318": " zipping",
  "7319": "Put",
  "7320": "Very",
  "7321": " unw",
  "7322": "prin",
  "7323": " among",
  "7324": " blown",
  "7325": " icing",
  "7326": "!”.",
  "7327": " rumble",
  "7328": " afterwards",
  "7329": "ipper",
  "7330": " screwd",
  "7331": "ushing",
  "7332": " sped",
  "7333": " prove",
  "7334": " glee",
  "7335": " Titi",
  "7336": " Tia",
  "7337": " dip",
  "7338": " overcome",
  "7339": "Ruby",
  "7340": "Quick",
  "7341": " surfboard",
  "7342": " shovels",
  "7343": " slices",
  "7344": " Toot",
  "7345": " merry",
  "7346": " wobble",
  "7347": " mate",
  "7348": " Turt",
  "7349": " Abbie",
  "7350": " heading",
  "7351": " disturbing",
  "7352": " swall",
  "7353": " reversed",
  "7354": " firefighters",
  "7355": "Jul",
  "7356": " swallowed",
  "7357": " chip",
  "7358": " scored",
  "7359": " flipped",
  "7360": "eds",
  "7361": "awn",
  "7362": " Jump",
  "7363": " squeezing",
  "7364": "usty",
  "7365": "Frank",
  "7366": "aty",
  "7367": "Su",
  "7368": " waking",
  "7369": " intrigued",
  "7370": "Sad",
  "7371": "Like",
  "7372": " maker",
  "7373": " Barky",
  "7374": "Betty",
  "7375": " puff",
  "7376": " hawk",
  "7377": " encouraging",
  "7378": " aud",
  "7379": " Ex",
  "7380": "osen",
  "7381": "onies",
  "7382": " chosen",
  "7383": "hew",
  "7384": " Farmer",
  "7385": " Ang",
  "7386": " couple",
  "7387": " designs",
  "7388": " slipping",
  "7389": " screwdriver",
  "7390": " squishy",
  "7391": " Emmy",
  "7392": " gardener",
  "7393": " center",
  "7394": " rivers",
  "7395": " respond",
  "7396": " markers",
  "7397": "iley",
  "7398": " tigers",
  "7399": " jars",
  "7400": "pecting",
  "7401": " frowns",
  "7402": "bird",
  "7403": " fluttered",
  "7404": " Sadly",
  "7405": " Kit",
  "7406": "Ribbit",
  "7407": " firefighter",
  "7408": " Sl",
  "7409": " Ryan",
  "7410": " suits",
  "7411": " secure",
  "7412": " sprinkled",
  "7413": " creamy",
  "7414": "ashes",
  "7415": " sharks",
  "7416": " ignoring",
  "7417": " bru",
  "7418": " giggles",
  "7419": " tissue",
  "7420": " tighter",
  "7421": " firmly",
  "7422": "ounce",
  "7423": " Laura",
  "7424": "fly",
  "7425": " shown",
  "7426": " familiar",
  "7427": " thorns",
  "7428": "Spike",
  "7429": " Wo",
  "7430": " drawers",
  "7431": "child",
  "7432": " Zee",
  "7433": " express",
  "7434": "Car",
  "7435": "ments",
  "7436": " def",
  "7437": " daring",
  "7438": " crossing",
  "7439": " audience",
  "7440": " performing",
  "7441": " coloured",
  "7442": " cloudy",
  "7443": " cor",
  "7444": " ais",
  "7445": " Nick",
  "7446": "rat",
  "7447": " pedaled",
  "7448": "Get",
  "7449": " mixture",
  "7450": " til",
  "7451": " gracefully",
  "7452": "ggy",
  "7453": " haircuts",
  "7454": " yielded",
  "7455": " ponies",
  "7456": " disob",
  "7457": " crowns",
  "7458": " bits",
  "7459": " todd",
  "7460": " Sleep",
  "7461": " nervously",
  "7462": " hangers",
  "7463": "bbled",
  "7464": " Patch",
  "7465": "Zoomy",
  "7466": " pays",
  "7467": " 2",
  "7468": " peck",
  "7469": " stroke",
  "7470": " ev",
  "7471": "fall",
  "7472": "Bang",
  "7473": "een",
  "7474": " respected",
  "7475": " napped",
  "7476": " Ron",
  "7477": "aven",
  "7478": " minded",
  "7479": "ddie",
  "7480": "Bessie",
  "7481": "ably",
  "7482": "Boys",
  "7483": " tested",
  "7484": "ading",
  "7485": "parent",
  "7486": " Chris",
  "7487": "Kim",
  "7488": " University",
  "7489": " Near",
  "7490": " beeh",
  "7491": " Turtle",
  "7492": " surfing",
  "7493": " neighbours",
  "7494": "arrow",
  "7495": "vered",
  "7496": " shady",
  "7497": "iona",
  "7498": "arlings",
  "7499": " magician",
  "7500": " enthusiasm",
  "7501": " darlings",
  "7502": " wisely",
  "7503": " stitches",
  "7504": " sails",
  "7505": "kend",
  "7506": "Dear",
  "7507": " weekend",
  "7508": " thoughts",
  "7509": "Freddy",
  "7510": " Tweetie",
  "7511": " reminds",
  "7512": " temper",
  "7513": "oring",
  "7514": "tha",
  "7515": "antha",
  "7516": " surroundings",
  "7517": " spits",
  "7518": " fleas",
  "7519": " teams",
  "7520": " lessons",
  "7521": " fills",
  "7522": " flip",
  "7523": " Along",
  "7524": " paintbrush",
  "7525": " melons",
  "7526": " mermaid",
  "7527": "oni",
  "7528": "Katie",
  "7529": "rac",
  "7530": " grandchild",
  "7531": " hoops",
  "7532": " elbow",
  "7533": " sports",
  "7534": "Guess",
  "7535": " lies",
  "7536": " Fighting",
  "7537": " panicked",
  "7538": " cleaner",
  "7539": " amount",
  "7540": "cused",
  "7541": " longest",
  "7542": " scooters",
  "7543": " lent",
  "7544": "ita",
  "7545": "immering",
  "7546": " sill",
  "7547": " beloved",
  "7548": "Pippin",
  "7549": " beehive",
  "7550": "Alright",
  "7551": "ongrat",
  "7552": "oga",
  "7553": "lle",
  "7554": "ongratul",
  "7555": " oysters",
  "7556": " grandparent",
  "7557": " forgiven",
  "7558": " magazines",
  "7559": " arr",
  "7560": " Wise",
  "7561": " explod",
  "7562": " elf",
  "7563": " repeating",
  "7564": " discussed",
  "7565": " sweetest",
  "7566": " Thanks",
  "7567": "Keep",
  "7568": " wadd",
  "7569": " Maya",
  "7570": " reass",
  "7571": " lace",
  "7572": " Granny",
  "7573": " nightmares",
  "7574": " tubes",
  "7575": " Willy",
  "7576": "Am",
  "7577": " understands",
  "7578": " spoonful",
  "7579": " nood",
  "7580": " bathing",
  "7581": " Zoey",
  "7582": "asty",
  "7583": " sweep",
  "7584": " manners",
  "7585": "ne",
  "7586": "onna",
  "7587": "crow",
  "7588": "Uncle",
  "7589": " wrink",
  "7590": " sprang",
  "7591": " nur",
  "7592": " bully",
  "7593": " Holly",
  "7594": " guide",
  "7595": " Yet",
  "7596": "ancy",
  "7597": " crew",
  "7598": "romise",
  "7599": "Jazz",
  "7600": " breathed",
  "7601": "while",
  "7602": "steps",
  "7603": "ilda",
  "7604": "ently",
  "7605": " Bally",
  "7606": " bulbs",
  "7607": " neare",
  "7608": " grassy",
  "7609": " wiggly",
  "7610": " testing",
  "7611": " spies",
  "7612": " coug",
  "7613": " solving",
  "7614": " sheets",
  "7615": " Roo",
  "7616": " footsteps",
  "7617": "ntil",
  "7618": "Afterwards",
  "7619": " speeding",
  "7620": " focused",
  "7621": "ounced",
  "7622": "cept",
  "7623": "?!\"",
  "7624": " mesmerized",
  "7625": " camel",
  "7626": " braver",
  "7627": " hesitant",
  "7628": " Sparkle",
  "7629": " licking",
  "7630": " rushing",
  "7631": " Well",
  "7632": " joining",
  "7633": " Puppy",
  "7634": " polar",
  "7635": " greeted",
  "7636": " Martha",
  "7637": "espite",
  "7638": "anna",
  "7639": "--",
  "7640": " Bubb",
  "7641": "Which",
  "7642": "Kiki",
  "7643": " worn",
  "7644": " materials",
  "7645": " changes",
  "7646": " aren",
  "7647": " Nobody",
  "7648": "undred",
  "7649": " stored",
  "7650": " bicycles",
  "7651": " mast",
  "7652": " anger",
  "7653": "Leave",
  "7654": " peacefully",
  "7655": " ships",
  "7656": " spice",
  "7657": " terrified",
  "7658": " nuzz",
  "7659": " gonna",
  "7660": " Show",
  "7661": " politely",
  "7662": "Snow",
  "7663": " spills",
  "7664": " scarecrow",
  "7665": " knives",
  "7666": " evil",
  "7667": " Mixy",
  "7668": "ppies",
  "7669": " burying",
  "7670": "ca",
  "7671": " healing",
  "7672": " donkey",
  "7673": " aeroplanes",
  "7674": "freeze",
  "7675": "Even",
  "7676": " seals",
  "7677": " scattering",
  "7678": " miles",
  "7679": " Chewy",
  "7680": "amboo",
  "7681": " dump",
  "7682": " worrying",
  "7683": "Bee",
  "7684": "zoom",
  "7685": "beep",
  "7686": "David",
  "7687": " Lenny",
  "7688": " puzzled",
  "7689": " stacked",
  "7690": " Kip",
  "7691": "Penny",
  "7692": " Nice",
  "7693": " loses",
  "7694": "dding",
  "7695": " travelled",
  "7696": " baskets",
  "7697": " Win",
  "7698": " Okay",
  "7699": " gazing",
  "7700": " blast",
  "7701": "ipes",
  "7702": " Tess",
  "7703": "Hurry",
  "7704": " temperature",
  "7705": " und",
  "7706": " tasting",
  "7707": " dripping",
  "7708": " clue",
  "7709": " believing",
  "7710": " pinching",
  "7711": "erm",
  "7712": " soaking",
  "7713": " rats",
  "7714": " 10",
  "7715": "isc",
  "7716": " sandy",
  "7717": "rect",
  "7718": " Isn",
  "7719": " Simon",
  "7720": "rey",
  "7721": "anwhile",
  "7722": " Abi",
  "7723": "Binky",
  "7724": " punishment",
  "7725": " banged",
  "7726": " humans",
  "7727": " crashing",
  "7728": " force",
  "7729": " Ana",
  "7730": " hundred",
  "7731": " gest",
  "7732": " Lia",
  "7733": " swimmer",
  "7734": " Chess",
  "7735": " snowflakes",
  "7736": " relaxing",
  "7737": " resisted",
  "7738": " beeped",
  "7739": " Fairy",
  "7740": " quarreled",
  "7741": "form",
  "7742": "elie",
  "7743": " ramp",
  "7744": " Wendy",
  "7745": " joins",
  "7746": "abby",
  "7747": " backpacks",
  "7748": " Ph",
  "7749": "years",
  "7750": " dressing",
  "7751": " delayed",
  "7752": " toddler",
  "7753": " Luckily",
  "7754": " flight",
  "7755": " covering",
  "7756": " Te",
  "7757": "orter",
  "7758": "Two",
  "7759": "Open",
  "7760": "By",
  "7761": " encouragement",
  "7762": " benches",
  "7763": " toward",
  "7764": " scraped",
  "7765": " purpose",
  "7766": " focus",
  "7767": " Judy",
  "7768": "Bow",
  "7769": " correct",
  "7770": "'.\"",
  "7771": " lipstick",
  "7772": " bamboo",
  "7773": "Spe",
  "7774": " twinkled",
  "7775": " potion",
  "7776": " permitted",
  "7777": " months",
  "7778": " Cow",
  "7779": " languages",
  "7780": " orders",
  "7781": " freedom",
  "7782": "Tony",
  "7783": " risks",
  "7784": " poppies",
  "7785": " master",
  "7786": "shm",
  "7787": " noodles",
  "7788": " faded",
  "7789": " wounds",
  "7790": "shmallow",
  "7791": "rier",
  "7792": "Kids",
  "7793": "isions",
  "7794": " Jojo",
  "7795": " creams",
  "7796": " birdhouse",
  "7797": " cells",
  "7798": " annoyed",
  "7799": " Herb",
  "7800": "opes",
  "7801": " sniffing",
  "7802": " cheers",
  "7803": " adults",
  "7804": "Birdy",
  "7805": " unwra",
  "7806": "ecca",
  "7807": "Buzzy",
  "7808": " puck",
  "7809": " opinions",
  "7810": " floats",
  "7811": "andas",
  "7812": "Instead",
  "7813": " flown",
  "7814": " sneezes",
  "7815": " scen",
  "7816": " handsome",
  "7817": " nodding",
  "7818": " Mint",
  "7819": " smelling",
  "7820": " burnt",
  "7821": " 5",
  "7822": " drifted",
  "7823": "ider",
  "7824": "bage",
  "7825": " within",
  "7826": " scient",
  "7827": " height",
  "7828": " damaged",
  "7829": " bothering",
  "7830": " tearing",
  "7831": " slither",
  "7832": " pleaded",
  "7833": " instruments",
  "7834": " ease",
  "7835": " Ali",
  "7836": "Back",
  "7837": " scientist",
  "7838": " Marie",
  "7839": "Mira",
  "7840": "Goodnight",
  "7841": " pound",
  "7842": " seller",
  "7843": " handing",
  "7844": " germ",
  "7845": " Say",
  "7846": " wasting",
  "7847": " files",
  "7848": " results",
  "7849": " dreamt",
  "7850": " Mabel",
  "7851": "bell",
  "7852": " explains",
  "7853": " destroying",
  "7854": " brushing",
  "7855": "ousy",
  "7856": " hiss",
  "7857": " characters",
  "7858": " Razor",
  "7859": " Cr",
  "7860": "Carl",
  "7861": " certain",
  "7862": " Ste",
  "7863": "Pandy",
  "7864": "Behind",
  "7865": " sweaty",
  "7866": " Hug",
  "7867": "unched",
  "7868": " business",
  "7869": " Robbie",
  "7870": " talents",
  "7871": " onward",
  "7872": "Try",
  "7873": " engines",
  "7874": " bravest",
  "7875": "ition",
  "7876": " sternly",
  "7877": " Pen",
  "7878": " Janie",
  "7879": "prints",
  "7880": " postman",
  "7881": " mosquitoes",
  "7882": " minds",
  "7883": "cake",
  "7884": " tuck",
  "7885": " scares",
  "7886": "urious",
  "7887": " stomp",
  "7888": " apologised",
  "7889": "uel",
  "7890": " manag",
  "7891": " snuck",
  "7892": " bitten",
  "7893": "attered",
  "7894": " tilted",
  "7895": " switched",
  "7896": " reminding",
  "7897": " decisions",
  "7898": " singers",
  "7899": " desper",
  "7900": " behavior",
  "7901": " Poor",
  "7902": "ashing",
  "7903": " Judge",
  "7904": "bbers",
  "7905": "inny",
  "7906": "da",
  "7907": " squeaked",
  "7908": " peeled",
  "7909": " Everybody",
  "7910": " yumm",
  "7911": " purrs",
  "7912": " Bra",
  "7913": " treated",
  "7914": " smashed",
  "7915": " rustling",
  "7916": " displayed",
  "7917": " Until",
  "7918": " neatly",
  "7919": " matey",
  "7920": " planting",
  "7921": " Bess",
  "7922": " marshmallow",
  "7923": " insp",
  "7924": " yelped",
  "7925": " sy",
  "7926": " grandparents",
  "7927": " cracks",
  "7928": " bellies",
  "7929": "aver",
  "7930": " shines",
  "7931": " scamp",
  "7932": " Navy",
  "7933": " hoo",
  "7934": " failed",
  "7935": " coloring",
  "7936": " Yoga",
  "7937": "line",
  "7938": " zooms",
  "7939": " Make",
  "7940": "rup",
  "7941": " nasty",
  "7942": " breathing",
  "7943": " combed",
  "7944": " pandas",
  "7945": " despite",
  "7946": " address",
  "7947": "ighing",
  "7948": " waterfall",
  "7949": "uffin",
  "7950": "omp",
  "7951": "cc",
  "7952": " Loop",
  "7953": " Angel",
  "7954": "Tilly",
  "7955": " wider",
  "7956": " robbers",
  "7957": " antic",
  "7958": "Play",
  "7959": "Abigail",
  "7960": " sweaters",
  "7961": " echoed",
  "7962": " doorway",
  "7963": " Todd",
  "7964": "evin",
  "7965": " edges",
  "7966": " inj",
  "7967": " Shadow",
  "7968": "Aunt",
  "7969": " gap",
  "7970": " disobey",
  "7971": " Blinky",
  "7972": "wise",
  "7973": "Liz",
  "7974": " Michael",
  "7975": " tar",
  "7976": " Flick",
  "7977": "oscope",
  "7978": "orking",
  "7979": "Wake",
  "7980": " taped",
  "7981": " magnif",
  "7982": "ulp",
  "7983": "father",
  "7984": " scolds",
  "7985": " flaps",
  "7986": " action",
  "7987": " crawls",
  "7988": " Mindy",
  "7989": "Ros",
  "7990": " swap",
  "7991": " gobbled",
  "7992": " backs",
  "7993": " Gary",
  "7994": " warri",
  "7995": " Fishy",
  "7996": " Eddie",
  "7997": "Slow",
  "7998": " steth",
  "7999": " sever",
  "8000": " shinier",
  "8001": " probably",
  "8002": " newspapers",
  "8003": " several",
  "8004": " occ",
  "8005": "Rock",
  "8006": "Lena",
  "8007": " encount",
  "8008": " Meg",
  "8009": " serving",
  "8010": " quieter",
  "8011": " plucked",
  "8012": " connected",
  "8013": "tock",
  "8014": " Share",
  "8015": " ouch",
  "8016": "igger",
  "8017": "Ted",
  "8018": "Adam",
  "8019": " gesture",
  "8020": "Too",
  "8021": "Fl",
  "8022": " student",
  "8023": " plot",
  "8024": " doorbell",
  "8025": " squaw",
  "8026": " cares",
  "8027": "fire",
  "8028": " rescuing",
  "8029": " grandson",
  "8030": " Se",
  "8031": " spy",
  "8032": " simply",
  "8033": " rows",
  "8034": " goo",
  "8035": "iel",
  "8036": " whistles",
  "8037": "mies",
  "8038": "vant",
  "8039": "Shrink",
  "8040": "Magic",
  "8041": " snaps",
  "8042": " shorter",
  "8043": " astronauts",
  "8044": " unpacking",
  "8045": " cottage",
  "8046": " Time",
  "8047": " swo",
  "8048": " accidents",
  "8049": "ibi",
  "8050": " swollen",
  "8051": " mood",
  "8052": " Nut",
  "8053": "Steve",
  "8054": "abelle",
  "8055": " Zippy",
  "8056": " Mousy",
  "8057": "anie",
  "8058": "Zara",
  "8059": " bothered",
  "8060": "Hannah",
  "8061": " stethoscope",
  "8062": "found",
  "8063": " trusting",
  "8064": " causing",
  "8065": "Mat",
  "8066": "Mad",
  "8067": " leapt",
  "8068": " dresser",
  "8069": "aint",
  "8070": " sou",
  "8071": " proper",
  "8072": " pills",
  "8073": "retty",
  "8074": " throughout",
  "8075": "Olive",
  "8076": " runner",
  "8077": " prayers",
  "8078": " Dina",
  "8079": " joyful",
  "8080": "Thomas",
  "8081": " Karen",
  "8082": "mates",
  "8083": " locks",
  "8084": " Prince",
  "8085": "Jamie",
  "8086": " goats",
  "8087": "what",
  "8088": " target",
  "8089": "rest",
  "8090": " Wait",
  "8091": " dears",
  "8092": " Bang",
  "8093": "artled",
  "8094": "Red",
  "8095": " waddled",
  "8096": " munch",
  "8097": " flips",
  "8098": " Cro",
  "8099": "onnie",
  "8100": " lowered",
  "8101": " stepping",
  "8102": " cons",
  "8103": " Jackie",
  "8104": " teachers",
  "8105": " cowboy",
  "8106": " Toys",
  "8107": " inches",
  "8108": " envelopes",
  "8109": "ears",
  "8110": " char",
  "8111": " Vroom",
  "8112": " explorer",
  "8113": " anticip",
  "8114": " playd",
  "8115": " Ready",
  "8116": " Ruff",
  "8117": " Ralph",
  "8118": "unity",
  "8119": "Nice",
  "8120": "Finn",
  "8121": " Bad",
  "8122": "ening",
  "8123": " knocking",
  "8124": " floors",
  "8125": " efforts",
  "8126": " Pl",
  "8127": " uniforms",
  "8128": "lied",
  "8129": " Tri",
  "8130": " aware",
  "8131": " footprints",
  "8132": "Someone",
  "8133": " nearly",
  "8134": " Fiona",
  "8135": "llas",
  "8136": " disc",
  "8137": " Ria",
  "8138": "ivi",
  "8139": " whimp",
  "8140": " trot",
  "8141": " sens",
  "8142": " glitt",
  "8143": " appreciation",
  "8144": "oosh",
  "8145": " necks",
  "8146": " collap",
  "8147": " checks",
  "8148": " lapt",
  "8149": " except",
  "8150": " plug",
  "8151": " charge",
  "8152": " Jacky",
  "8153": " fluttering",
  "8154": " umbrellas",
  "8155": "acy",
  "8156": " sandcastles",
  "8157": " Davey",
  "8158": " statues",
  "8159": " Honey",
  "8160": "omb",
  "8161": "iscuit",
  "8162": "ails",
  "8163": "Hoppy",
  "8164": " shrank",
  "8165": " Amelia",
  "8166": "rily",
  "8167": " stamped",
  "8168": " prick",
  "8169": " finishing",
  "8170": " adds",
  "8171": "rons",
  "8172": " stroll",
  "8173": " hunters",
  "8174": " dodged",
  "8175": " chocolates",
  "8176": " passengers",
  "8177": " germs",
  "8178": "oger",
  "8179": "nie",
  "8180": " wrigg",
  "8181": " aprons",
  "8182": " aisle",
  "8183": " sets",
  "8184": ".'\"",
  "8185": " Gerry",
  "8186": " weeds",
  "8187": " novels",
  "8188": "order",
  "8189": " demanding",
  "8190": " Taking",
  "8191": " scratching",
  "8192": " meows",
  "8193": "issa",
  "8194": "Dr",
  "8195": " nurses",
  "8196": "Lucky",
  "8197": " minding",
  "8198": " discussing",
  "8199": "urrender",
  "8200": " killed",
  "8201": " driveway",
  "8202": " Cari",
  "8203": " becomes",
  "8204": " toolbox",
  "8205": " laptop",
  "8206": " haird",
  "8207": " Eliz",
  "8208": " posit",
  "8209": " attack",
  "8210": " Sadie",
  "8211": " Gl",
  "8212": " Despite",
  "8213": "Speedy",
  "8214": "sol",
  "8215": " scampered",
  "8216": " bounces",
  "8217": " supplied",
  "8218": " sprays",
  "8219": " deed",
  "8220": " tempt",
  "8221": " suggestion",
  "8222": " friendships",
  "8223": " burns",
  "8224": "Coco",
  "8225": " slapping",
  "8226": " closing",
  "8227": "Arrr",
  "8228": " invites",
  "8229": " belongings",
  "8230": " anticipation",
  "8231": " springing",
  "8232": " form",
  "8233": " erase",
  "8234": " cotton",
  "8235": " Stan",
  "8236": " twists",
  "8237": " rays",
  "8238": " conc",
  "8239": " snuggle",
  "8240": " forgives",
  "8241": " models",
  "8242": "ssssssss",
  "8243": " shall",
  "8244": " massages",
  "8245": " humming",
  "8246": " responded",
  "8247": " newfound",
  "8248": " Ne",
  "8249": " ghosts",
  "8250": " expecting",
  "8251": " Shelly",
  "8252": " cheated",
  "8253": "Does",
  "8254": " Wooly",
  "8255": "Gigi",
  "8256": "otte",
  "8257": " traveling",
  "8258": " cond",
  "8259": " battle",
  "8260": " although",
  "8261": "alloween",
  "8262": " mommies",
  "8263": " invitations",
  "8264": " carries",
  "8265": " aim",
  "8266": " refreshing",
  "8267": " presented",
  "8268": "hel",
  "8269": " twenty",
  "8270": " rowed",
  "8271": " Bumpy",
  "8272": "ots",
  "8273": " squir",
  "8274": "rie",
  "8275": "arlotte",
  "8276": " foxes",
  "8277": " cooper",
  "8278": " final",
  "8279": " duckling",
  "8280": " cafe",
  "8281": " Bibi",
  "8282": "Pip",
  "8283": " marshmallows",
  "8284": " clicked",
  "8285": " Zipper",
  "8286": "oor",
  "8287": " jets",
  "8288": " designing",
  "8289": " beaver",
  "8290": "five",
  "8291": " Muffin",
  "8292": " Halloween",
  "8293": " mugs",
  "8294": " Whoever",
  "8295": " drown",
  "8296": " Although",
  "8297": " tricycle",
  "8298": " picnics",
  "8299": " oppos",
  "8300": " convin",
  "8301": " Ruth",
  "8302": " Excited",
  "8303": "iens",
  "8304": " Cle",
  "8305": " scoops",
  "8306": " congratul",
  "8307": " Pop",
  "8308": " Maddie",
  "8309": "Sadly",
  "8310": " —",
  "8311": " travels",
  "8312": " aliens",
  "8313": " tests",
  "8314": " questioned",
  "8315": " Speed",
  "8316": "inted",
  "8317": " strips",
  "8318": " craft",
  "8319": " Im",
  "8320": "Near",
  "8321": "atty",
  "8322": "Mouse",
  "8323": "covered",
  "8324": " defe",
  "8325": " Flutter",
  "8326": "Br",
  "8327": " Bubba",
  "8328": "iri",
  "8329": " fights",
  "8330": "roken",
  "8331": "Ball",
  "8332": " opposite",
  "8333": " Biggy",
  "8334": "Hmm",
  "8335": "Find",
  "8336": "Elly",
  "8337": "Chloe",
  "8338": " rout",
  "8339": " grandfather",
  "8340": " encountered",
  "8341": " afford",
  "8342": " Never",
  "8343": " decl",
  "8344": "inch",
  "8345": " raising",
  "8346": "iment",
  "8347": " upside",
  "8348": " Vivi",
  "8349": "Meanwhile",
  "8350": "Jess",
  "8351": " flashed",
  "8352": " calmly",
  "8353": " Rita",
  "8354": "po",
  "8355": " yawning",
  "8356": " sincere",
  "8357": " realizes",
  "8358": "aturday",
  "8359": "Trust",
  "8360": "Choo",
  "8361": " crystals",
  "8362": " buddy",
  "8363": " Samantha",
  "8364": " cupcakes",
  "8365": " buckled",
  "8366": "byes",
  "8367": "Both",
  "8368": " winners",
  "8369": " defin",
  "8370": "verse",
  "8371": "ris",
  "8372": "',",
  "8373": " weapons",
  "8374": " caw",
  "8375": "shadow",
  "8376": "Josh",
  "8377": " packages",
  "8378": " cheat",
  "8379": " Saturday",
  "8380": " sacks",
  "8381": " messes",
  "8382": " goodbyes",
  "8383": " coach",
  "8384": " attem",
  "8385": "quet",
  "8386": " convers",
  "8387": " Truck",
  "8388": " Flo",
  "8389": "val",
  "8390": " drift",
  "8391": " caps",
  "8392": " Mina",
  "8393": " Eva",
  "8394": "emies",
  "8395": " enemies",
  "8396": "asha",
  "8397": " yummiest",
  "8398": " scrub",
  "8399": " swallow",
  "8400": " returning",
  "8401": " admiration",
  "8402": " Softy",
  "8403": " Megan",
  "8404": "Since",
  "8405": " sprout",
  "8406": " Louise",
  "8407": " unable",
  "8408": " Playing",
  "8409": " Another",
  "8410": "ugging",
  "8411": "rian",
  "8412": "ooks",
  "8413": " sadder",
  "8414": " freezing",
  "8415": " brightest",
  "8416": " bless",
  "8417": " Yawn",
  "8418": " respon",
  "8419": "reverse",
  "8420": " response",
  "8421": " cosy",
  "8422": " Oh",
  "8423": " diamonds",
  "8424": " bride",
  "8425": "stalk",
  "8426": " reapp",
  "8427": " opport",
  "8428": " honking",
  "8429": " garbage",
  "8430": " Man",
  "8431": " whispering",
  "8432": " stretches",
  "8433": " prevented",
  "8434": "erk",
  "8435": "antastic",
  "8436": " whoever",
  "8437": " odd",
  "8438": " awful",
  "8439": " Gray",
  "8440": "alth",
  "8441": " weighs",
  "8442": " journeys",
  "8443": " awoke",
  "8444": "Brrr",
  "8445": " traps",
  "8446": " spices",
  "8447": " dragonfly",
  "8448": "off",
  "8449": " born",
  "8450": " reassured",
  "8451": " clip",
  "8452": "ivia",
  "8453": " stall",
  "8454": " beanstalk",
  "8455": " argum",
  "8456": " examining",
  "8457": " definitely",
  "8458": " beetles",
  "8459": " automobiles",
  "8460": " Maisy",
  "8461": "mine",
  "8462": "ici",
  "8463": "Hop",
  "8464": " visitors",
  "8465": " stuffing",
  "8466": " playdate",
  "8467": " washes",
  "8468": "cie",
  "8469": "broken",
  "8470": " wiser",
  "8471": " customer",
  "8472": "uper",
  "8473": "emma",
  "8474": "Rachel",
  "8475": " travelling",
  "8476": " Sofia",
  "8477": " Jolly",
  "8478": " Flop",
  "8479": "ouquet",
  "8480": " hairdress",
  "8481": " bouquet",
  "8482": " Nurse",
  "8483": "orse",
  "8484": "bble",
  "8485": ",'",
  "8486": " tumbled",
  "8487": " decoration",
  "8488": " campfire",
  "8489": " Elle",
  "8490": " honesty",
  "8491": " bud",
  "8492": "vy",
  "8493": "ebecca",
  "8494": "Only",
  "8495": " bomb",
  "8496": " welcoming",
  "8497": " offering",
  "8498": " wealth",
  "8499": " troubles",
  "8500": " occas",
  "8501": " increasing",
  "8502": " Ot",
  "8503": " Jax",
  "8504": " Hello",
  "8505": " loudest",
  "8506": " inspired",
  "8507": " type",
  "8508": " parted",
  "8509": " groan",
  "8510": " Chick",
  "8511": " Nutty",
  "8512": "irac",
  "8513": " whales",
  "8514": " Thunder",
  "8515": " Ricky",
  "8516": " declared",
  "8517": " correctly",
  "8518": "yler",
  "8519": "ooky",
  "8520": "fus",
  "8521": " beaks",
  "8522": " Quacky",
  "8523": "athan",
  "8524": " cleared",
  "8525": " cowboys",
  "8526": " nuzzled",
  "8527": " Dotty",
  "8528": " prizes",
  "8529": " exch",
  "8530": "Finny",
  "8531": " warmly",
  "8532": " Missile",
  "8533": " rewards",
  "8534": " obeyed",
  "8535": " customers",
  "8536": "Should",
  "8537": " sirens",
  "8538": " comforting",
  "8539": " Fel",
  "8540": "shaped",
  "8541": " connect",
  "8542": " Flappy",
  "8543": "match",
  "8544": " towns",
  "8545": " Magic",
  "8546": " Bingo",
  "8547": "elieve",
  "8548": " rely",
  "8549": " Vicky",
  "8550": "Honey",
  "8551": " trigger",
  "8552": " owns",
  "8553": " insisting",
  "8554": " fantastic",
  "8555": " bends",
  "8556": " Fe",
  "8557": " spoiling",
  "8558": " hairdresser",
  "8559": " surrendered",
  "8560": " supporting",
  "8561": " shares",
  "8562": " poses",
  "8563": " pipes",
  "8564": " cleans",
  "8565": "rench",
  "8566": "Sun",
  "8567": "Outside",
  "8568": "Julie",
  "8569": " wrinkled",
  "8570": " Cook",
  "8571": " chopped",
  "8572": " recorder",
  "8573": " moons",
  "8574": " beaming",
  "8575": "unes",
  "8576": "ellow",
  "8577": "Beth",
  "8578": " thanking",
  "8579": " snowy",
  "8580": " Wolf",
  "8581": "enn",
  "8582": " scurry",
  "8583": " experien",
  "8584": " enjoyable",
  "8585": " active",
  "8586": " coral",
  "8587": " Piggy",
  "8588": " environ",
  "8589": " dollar",
  "8590": " Kevin",
  "8591": "worm",
  "8592": "elope",
  "8593": " loc",
  "8594": "Je",
  "8595": " streamers",
  "8596": " Bub",
  "8597": "udged",
  "8598": " Patty",
  "8599": " Mother",
  "8600": " Zack",
  "8601": "inger",
  "8602": "Suzy",
  "8603": " examp",
  "8604": " shorts",
  "8605": " shooed",
  "8606": " environment",
  "8607": "Tree",
  "8608": " ill",
  "8609": " scent",
  "8610": " bruises",
  "8611": "uster",
  "8612": " grat",
  "8613": " Luc",
  "8614": " hisses",
  "8615": " steering",
  "8616": " self",
  "8617": " plugged",
  "8618": " Elsa",
  "8619": " warrior",
  "8620": "yl",
  "8621": "Bo",
  "8622": " visits",
  "8623": " exercises",
  "8624": "screen",
  "8625": "irl",
  "8626": "aptain",
  "8627": " dangers",
  "8628": " cuddles",
  "8629": " Rel",
  "8630": " Min",
  "8631": " Ar",
  "8632": " unfortunately",
  "8633": " squished",
  "8634": " signing",
  "8635": " Light",
  "8636": "bee",
  "8637": "Ray",
  "8638": " pilots",
  "8639": " disappoint",
  "8640": "munk",
  "8641": " gratitude",
  "8642": " applauding",
  "8643": " providing",
  "8644": " Moppy",
  "8645": "alf",
  "8646": " tickles",
  "8647": " ting",
  "8648": " Rub",
  "8649": "Grow",
  "8650": " storms",
  "8651": " nights",
  "8652": " jud",
  "8653": " convinced",
  "8654": " badger",
  "8655": " Elsie",
  "8656": " youn",
  "8657": " responsib",
  "8658": " choosing",
  "8659": " Kelly",
  "8660": "Joy",
  "8661": " youngest",
  "8662": " nearest",
  "8663": " brains",
  "8664": " activity",
  "8665": "Abby",
  "8666": " exploded",
  "8667": " coughed",
  "8668": " arranged",
  "8669": "Claire",
  "8670": " rewarding",
  "8671": " Tre",
  "8672": " Fly",
  "8673": "pr",
  "8674": "good",
  "8675": "erpiece",
  "8676": " sunscreen",
  "8677": " peep",
  "8678": " bond",
  "8679": " Floppy",
  "8680": "asers",
  "8681": "Mon",
  "8682": " Tweety",
  "8683": " Sweet",
  "8684": " Katy",
  "8685": " Sal",
  "8686": "ilities",
  "8687": " annoying",
  "8688": "sn",
  "8689": "eow",
  "8690": " soapy",
  "8691": "meow",
  "8692": "Splash",
  "8693": " rails",
  "8694": " laces",
  "8695": " threads",
  "8696": " tapping",
  "8697": " offic",
  "8698": " appreciated",
  "8699": " Pine",
  "8700": " Phil",
  "8701": "boards",
  "8702": " weighing",
  "8703": " heartbroken",
  "8704": " emerged",
  "8705": " congratulated",
  "8706": " Pick",
  "8707": "Danger",
  "8708": " tin",
  "8709": " Sil",
  "8710": " crocodiles",
  "8711": " clerk",
  "8712": " scram",
  "8713": " attempt",
  "8714": " Nancy",
  "8715": "water",
  "8716": "Ahoy",
  "8717": " snug",
  "8718": " messed",
  "8719": " example",
  "8720": " dial",
  "8721": " Kay",
  "8722": " Any",
  "8723": "Momma",
  "8724": " hooks",
  "8725": " Jonny",
  "8726": " tops",
  "8727": " chipmunk",
  "8728": " soot",
  "8729": " guarding",
  "8730": " bathed",
  "8731": " manager",
  "8732": " Tippy",
  "8733": "ortunately",
  "8734": " Microscope",
  "8735": "Friends",
  "8736": " De",
  "8737": "etah",
  "8738": "Snowy",
  "8739": " masterpiece",
  "8740": " Baa",
  "8741": " erasers",
  "8742": " tips",
  "8743": " finishes",
  "8744": " fet",
  "8745": " common",
  "8746": " Tomorrow",
  "8747": "mbers",
  "8748": " trotted",
  "8749": " nibbled",
  "8750": " members",
  "8751": " digs",
  "8752": "People",
  "8753": " kinder",
  "8754": " cheetah",
  "8755": " particularly",
  "8756": " chews",
  "8757": " blond",
  "8758": "ircle",
  "8759": " rips",
  "8760": " beast",
  "8761": "Lizzy",
  "8762": " argument",
  "8763": "ative",
  "8764": " faith",
  "8765": " Helping",
  "8766": " earned",
  "8767": "Anne",
  "8768": " observing",
  "8769": " forgiveness",
  "8770": " Joke",
  "8771": " Cici",
  "8772": "chievous",
  "8773": " instantly",
  "8774": " fishes",
  "8775": " experienced",
  "8776": " curl",
  "8777": " cheaper",
  "8778": " Jumpy",
  "8779": "Rosie",
  "8780": " mischievous",
  "8781": " generosity",
  "8782": " cages",
  "8783": " Twist",
  "8784": "Gr",
  "8785": "Baa",
  "8786": " meowing",
  "8787": " foam",
  "8788": "mered",
  "8789": "Cindy",
  "8790": " stores",
  "8791": " grandd",
  "8792": " Ag",
  "8793": "etchup",
  "8794": " mattered",
  "8795": " teles",
  "8796": " passes",
  "8797": " limp",
  "8798": "Sque",
  "8799": " sleeps",
  "8800": "iolet",
  "8801": " breaths",
  "8802": "ordinary",
  "8803": "ettle",
  "8804": "ending",
  "8805": " trans",
  "8806": " rin",
  "8807": " gasps",
  "8808": " Freddie",
  "8809": "Got",
  "8810": " rumbling",
  "8811": " hatch",
  "8812": " Momma",
  "8813": "over",
  "8814": "abra",
  "8815": " grassho",
  "8816": " accomplished",
  "8817": " Hopper",
  "8818": "acing",
  "8819": " thump",
  "8820": " telescope",
  "8821": " strum",
  "8822": " smartest",
  "8823": " mats",
  "8824": " whined",
  "8825": " moat",
  "8826": "Gina",
  "8827": " scrambled",
  "8828": " jugg",
  "8829": " farmers",
  "8830": " Ice",
  "8831": " drip",
  "8832": "Robbie",
  "8833": " syrup",
  "8834": " gardens",
  "8835": " collapsed",
  "8836": " angrily",
  "8837": " More",
  "8838": "ouraged",
  "8839": "idey",
  "8840": " vegg",
  "8841": " styles",
  "8842": " forests",
  "8843": " experiences",
  "8844": " discoveries",
  "8845": "hole",
  "8846": " tor",
  "8847": " medals",
  "8848": " types",
  "8849": " otters",
  "8850": " meaning",
  "8851": " faint",
  "8852": " conqu",
  "8853": " Does",
  "8854": "pit",
  "8855": "adabra",
  "8856": "acock",
  "8857": " snapping",
  "8858": " hardest",
  "8859": " fif",
  "8860": "ering",
  "8861": " movements",
  "8862": " expression",
  "8863": " surv",
  "8864": " chilly",
  "8865": " bubbly",
  "8866": " affect",
  "8867": "Pinky",
  "8868": " vests",
  "8869": " unfair",
  "8870": " court",
  "8871": "Whenever",
  "8872": " toothbrush",
  "8873": " scores",
  "8874": " extraordinary",
  "8875": "Never",
  "8876": " attitude",
  "8877": " vibr",
  "8878": " horri",
  "8879": " bluebird",
  "8880": " Monkey",
  "8881": "mel",
  "8882": "lls",
  "8883": " spears",
  "8884": " ketchup",
  "8885": " Berry",
  "8886": "Mother",
  "8887": " sooner",
  "8888": " grasshopper",
  "8889": " behaviour",
  "8890": "Karen",
  "8891": " patches",
  "8892": " habit",
  "8893": "yd",
  "8894": "erts",
  "8895": " pokes",
  "8896": " momma",
  "8897": " afar",
  "8898": " Ashley",
  "8899": "ieves",
  "8900": "Jacob",
  "8901": " thicker",
  "8902": " scri",
  "8903": " Friend",
  "8904": "Jon",
  "8905": " squeezes",
  "8906": " slithered",
  "8907": " shrunk",
  "8908": " classmates",
  "8909": " Terry",
  "8910": " Fle",
  "8911": " icky",
  "8912": "lo",
  "8913": " prickly",
  "8914": " glittering",
  "8915": " expert",
  "8916": " topp",
  "8917": " kneeling",
  "8918": " announced",
  "8919": " Super",
  "8920": " Riri",
  "8921": "elling",
  "8922": " peacock",
  "8923": " marking",
  "8924": "ctric",
  "8925": " costs",
  "8926": " Cally",
  "8927": " Achoo",
  "8928": " zigzags",
  "8929": " watermel",
  "8930": " thieves",
  "8931": " skirts",
  "8932": " jumper",
  "8933": " hood",
  "8934": " acts",
  "8935": " Zog",
  "8936": " App",
  "8937": "Mo",
  "8938": " wolves",
  "8939": " Swim",
  "8940": " Cloud",
  "8941": "Papa",
  "8942": " thumbs",
  "8943": " squeaky",
  "8944": " concer",
  "8945": " cocoon",
  "8946": " woodcut",
  "8947": " boards",
  "8948": " Eliza",
  "8949": " Becky",
  "8950": " servant",
  "8951": "idence",
  "8952": "affle",
  "8953": " cheating",
  "8954": " Jason",
  "8955": "bu",
  "8956": " trading",
  "8957": " raking",
  "8958": "cat",
  "8959": "Jessie",
  "8960": " explaining",
  "8961": " Eric",
  "8962": "rick",
  "8963": " tidied",
  "8964": " biscuit",
  "8965": " lunchtime",
  "8966": " luckily",
  "8967": " Ac",
  "8968": "anced",
  "8969": "Frog",
  "8970": " Puffy",
  "8971": " spilling",
  "8972": " Day",
  "8973": "Fire",
  "8974": " transform",
  "8975": " desserts",
  "8976": " Use",
  "8977": " Maddy",
  "8978": " Daniel",
  "8979": " Animal",
  "8980": "…",
  "8981": "ror",
  "8982": " Pig",
  "8983": " Mine",
  "8984": " Still",
  "8985": " Gill",
  "8986": "rough",
  "8987": "amma",
  "8988": " messages",
  "8989": " mirac",
  "8990": " Captain",
  "8991": "idy",
  "8992": " windowsill",
  "8993": " chill",
  "8994": " beating",
  "8995": " Tammy",
  "8996": " Lung",
  "8997": " Gilly",
  "8998": "oot",
  "8999": " seeking",
  "9000": " actor",
  "9001": " Rainbow",
  "9002": " Lina",
  "9003": " William",
  "9004": "sess",
  "9005": "its",
  "9006": " Math",
  "9007": "pril",
  "9008": "Any",
  "9009": " foreshadow",
  "9010": "war",
  "9011": "acles",
  "9012": "Bluey",
  "9013": " leans",
  "9014": " Step",
  "9015": " Pinch",
  "9016": " Hi",
  "9017": "racadabra",
  "9018": "Freeze",
  "9019": "Bounce",
  "9020": " watermelon",
  "9021": " hissing",
  "9022": " flashing",
  "9023": " dev",
  "9024": " cloths",
  "9025": " Tiger",
  "9026": " Monster",
  "9027": " Frankie",
  "9028": " winding",
  "9029": " positive",
  "9030": " funn",
  "9031": " discouraged",
  "9032": " Wil",
  "9033": "pop",
  "9034": " woodcutter",
  "9035": " forts",
  "9036": " dripped",
  "9037": " compete",
  "9038": " teapot",
  "9039": " pressing",
  "9040": " disagreeing",
  "9041": "icking",
  "9042": " glimmering",
  "9043": " veggies",
  "9044": " trusts",
  "9045": " tidying",
  "9046": " kangaroos",
  "9047": " Peep",
  "9048": " tempted",
  "9049": " landing",
  "9050": " Flora",
  "9051": " dock",
  "9052": " shallow",
  "9053": " overw",
  "9054": " formed",
  "9055": "lers",
  "9056": "eling",
  "9057": " rack",
  "9058": " fade",
  "9059": " Tooth",
  "9060": "flowers",
  "9061": " worst",
  "9062": " electric",
  "9063": " cops",
  "9064": "Nothing",
  "9065": " apology",
  "9066": "iving",
  "9067": "creams",
  "9068": "ai",
  "9069": " sleds",
  "9070": " Silver",
  "9071": " Life",
  "9072": "upid",
  "9073": " comets",
  "9074": " ass",
  "9075": "Owl",
  "9076": " sav",
  "9077": " Shark",
  "9078": " Mag",
  "9079": " Jelly",
  "9080": "Bug",
  "9081": " situations",
  "9082": " papa",
  "9083": " officers",
  "9084": " conversation",
  "9085": " 4",
  "9086": "Rain",
  "9087": " Roger",
  "9088": " Charlotte",
  "9089": "storm",
  "9090": "aye",
  "9091": " suns",
  "9092": "”,",
  "9093": " zips",
  "9094": " structures",
  "9095": " scurrying",
  "9096": " pizzas",
  "9097": " overwhel",
  "9098": " miller",
  "9099": " ding",
  "9100": " Butter",
  "9101": " granddaughter",
  "9102": " foggy",
  "9103": " Olivia",
  "9104": " Hurry",
  "9105": " Amber",
  "9106": "Zoe",
  "9107": " Janey",
  "9108": " webs",
  "9109": " deserved",
  "9110": "Rabbit",
  "9111": " opportunity",
  "9112": " cubs",
  "9113": " Yummy",
  "9114": " Spidey",
  "9115": " Sasha",
  "9116": " Mixie",
  "9117": " Buster",
  "9118": " snorted",
  "9119": " rhino",
  "9120": " differences",
  "9121": " Gold",
  "9122": " quacking",
  "9123": " Tell",
  "9124": "ifully",
  "9125": "ended",
  "9126": "Fifi",
  "9127": " heaven",
  "9128": " Birds",
  "9129": " unlo",
  "9130": " levers",
  "9131": " inchworm",
  "9132": " inter",
  "9133": " approach",
  "9134": " Tyler",
  "9135": "ssess",
  "9136": " seagulls",
  "9137": " possess",
  "9138": " cooperate",
  "9139": " Rufus",
  "9140": " Felix",
  "9141": " Boom",
  "9142": "welcome",
  "9143": "sers",
  "9144": "ragon",
  "9145": "of",
  "9146": "?”.",
  "9147": "andra",
  "9148": " pose",
  "9149": " disappointment",
  "9150": " Smoke",
  "9151": "ocular",
  "9152": " speaks",
  "9153": " sneaks",
  "9154": "snap",
  "9155": " binocular",
  "9156": " artwork",
  "9157": " surfed",
  "9158": " scowl",
  "9159": " answering",
  "9160": " Snake",
  "9161": " shortcut",
  "9162": " Grand",
  "9163": " sipped",
  "9164": " robin",
  "9165": " dep",
  "9166": "Climb",
  "9167": " arrest",
  "9168": " Inky",
  "9169": "ssy",
  "9170": " unwrapped",
  "9171": " ribbit",
  "9172": " reun",
  "9173": " amused",
  "9174": " Amanda",
  "9175": "ugar",
  "9176": " repeats",
  "9177": " pepperoni",
  "9178": " applause",
  "9179": " keyhole",
  "9180": " checkout",
  "9181": " Mae",
  "9182": " Cars",
  "9183": "Lia",
  "9184": "Deal",
  "9185": " visitor",
  "9186": " striking",
  "9187": " puppets",
  "9188": " paddling",
  "9189": "Eat",
  "9190": " unz",
  "9191": " croaked",
  "9192": " attacked",
  "9193": " Circle",
  "9194": "orsie",
  "9195": " spooky",
  "9196": " Otto",
  "9197": " Gus",
  "9198": "Each",
  "9199": " groaned",
  "9200": " beautifully",
  "9201": " Brian",
  "9202": "gar",
  "9203": "cidents",
  "9204": " swimsuits",
  "9205": " consider",
  "9206": " checking",
  "9207": "uses",
  "9208": " Yellow",
  "9209": "jest",
  "9210": " waters",
  "9211": " groom",
  "9212": " Squeak",
  "9213": " Slinky",
  "9214": "yle",
  "9215": "Jenn",
  "9216": " invent",
  "9217": "Luke",
  "9218": " nets",
  "9219": " exams",
  "9220": "otion",
  "9221": "ets",
  "9222": " drying",
  "9223": " Rebecca",
  "9224": "udy",
  "9225": "artin",
  "9226": "anish",
  "9227": "agine",
  "9228": " shrugs",
  "9229": " lump",
  "9230": " Auntie",
  "9231": "sie",
  "9232": "lest",
  "9233": " sobbing",
  "9234": " shyly",
  "9235": " shoots",
  "9236": " honks",
  "9237": " heels",
  "9238": " cheerfully",
  "9239": " Since",
  "9240": "ili",
  "9241": "hny",
  "9242": "esses",
  "9243": " shh",
  "9244": " chin",
  "9245": " whimpered",
  "9246": " healthier",
  "9247": " hangs",
  "9248": "icious",
  "9249": "Milo",
  "9250": " Mus",
  "9251": " caterpillars",
  "9252": "izzes",
  "9253": "Slowly",
  "9254": " squinted",
  "9255": " magnifying",
  "9256": " fries",
  "9257": " Ratty",
  "9258": " fascinating",
  "9259": " blamed",
  "9260": " Find",
  "9261": "ulpture",
  "9262": "ching",
  "9263": " sculpture",
  "9264": " frustration",
  "9265": " Tip",
  "9266": "ouched",
  "9267": " shimmering",
  "9268": " Penelope",
  "9269": "eat",
  "9270": " poss",
  "9271": " Peace",
  "9272": "edic",
  "9273": "Sharing",
  "9274": " suck",
  "9275": " pleas",
  "9276": " numbered",
  "9277": " nibble",
  "9278": " Waffle",
  "9279": "othy",
  "9280": "ibbles",
  "9281": "ellie",
  "9282": "amil",
  "9283": " flowing",
  "9284": " baa",
  "9285": "hings",
  "9286": "Pepper",
  "9287": " raked",
  "9288": " grumbled",
  "9289": " Off",
  "9290": "that",
  "9291": "Bubbles",
  "9292": " builder",
  "9293": "racted",
  "9294": " swaying",
  "9295": " petting",
  "9296": " guards",
  "9297": " facing",
  "9298": " Woolly",
  "9299": " sprinkle",
  "9300": " mysteries",
  "9301": " details",
  "9302": " Har",
  "9303": "sey",
  "9304": " snort",
  "9305": " flock",
  "9306": " enemy",
  "9307": " Boat",
  "9308": " textures",
  "9309": " tablet",
  "9310": " goodies",
  "9311": " Curious",
  "9312": " Barry",
  "9313": "Yesterday",
  "9314": " wig",
  "9315": " popping",
  "9316": " wildflowers",
  "9317": " stacks",
  "9318": " marve",
  "9319": " fans",
  "9320": " crops",
  "9321": " countries",
  "9322": " Gracie",
  "9323": "how",
  "9324": " knobs",
  "9325": " Tessa",
  "9326": " Seeing",
  "9327": " local",
  "9328": " bushy",
  "9329": " stew",
  "9330": " peeped",
  "9331": " hunting",
  "9332": " drowned",
  "9333": " bowing",
  "9334": " binoculars",
  "9335": " angrier",
  "9336": " Bubu",
  "9337": " maps",
  "9338": " Match",
  "9339": " quizzes",
  "9340": " niece",
  "9341": " moonlight",
  "9342": " Glow",
  "9343": "Im",
  "9344": " outfits",
  "9345": " Johnson",
  "9346": " Deal",
  "9347": "OO",
  "9348": " whoosh",
  "9349": " weaker",
  "9350": " wrench",
  "9351": " mindful",
  "9352": " crowded",
  "9353": "cycles",
  "9354": "Squ",
  "9355": " endings",
  "9356": " Beef",
  "9357": "oll",
  "9358": "ded",
  "9359": " property",
  "9360": " hesitation",
  "9361": " flashes",
  "9362": "amiliar",
  "9363": " unless",
  "9364": " imaginations",
  "9365": " fond",
  "9366": " carts",
  "9367": " boil",
  "9368": " ability",
  "9369": " Oxy",
  "9370": " Andrew",
  "9371": "getic",
  "9372": " glared",
  "9373": " Right",
  "9374": " Accidents",
  "9375": "stand",
  "9376": " unfamiliar",
  "9377": " spaces",
  "9378": " microw",
  "9379": " knit",
  "9380": " haven",
  "9381": " folds",
  "9382": "ths",
  "9383": "saw",
  "9384": "Tuna",
  "9385": " responsibility",
  "9386": " dirtier",
  "9387": " Pet",
  "9388": "bank",
  "9389": " pouch",
  "9390": " microwave",
  "9391": " desks",
  "9392": "ibly",
  "9393": "Bless",
  "9394": " cracker",
  "9395": "rnie",
  "9396": " swapped",
  "9397": " member",
  "9398": " date",
  "9399": " aston",
  "9400": " Oxygen",
  "9401": " Ravi",
  "9402": "lt",
  "9403": "free",
  "9404": "Want",
  "9405": "Cra",
  "9406": " whine",
  "9407": " softened",
  "9408": " rebu",
  "9409": " doorstep",
  "9410": " disappearing",
  "9411": " Peggy",
  "9412": " Helen",
  "9413": " Bun",
  "9414": " quacks",
  "9415": " natur",
  "9416": " Ring",
  "9417": " Chip",
  "9418": "scar",
  "9419": " writer",
  "9420": " listener",
  "9421": " Too",
  "9422": " Fix",
  "9423": " priv",
  "9424": " blushed",
  "9425": " Spicy",
  "9426": "venir",
  "9427": " palms",
  "9428": " noticing",
  "9429": "upt",
  "9430": "repe",
  "9431": "poison",
  "9432": " souvenir",
  "9433": " Past",
  "9434": "repeat",
  "9435": "entr",
  "9436": " laws",
  "9437": " disaster",
  "9438": " Tra",
  "9439": " Res",
  "9440": " Jean",
  "9441": " Gabby",
  "9442": "str",
  "9443": "reg",
  "9444": "endant",
  "9445": "Robby",
  "9446": " phones",
  "9447": "ala",
  "9448": "Ava",
  "9449": " confidence",
  "9450": " Li",
  "9451": " Coal",
  "9452": " Cut",
  "9453": " Bert",
  "9454": " timid",
  "9455": " stirs",
  "9456": " overwhelmed",
  "9457": "ingly",
  "9458": "Being",
  "9459": " mayor",
  "9460": " flick",
  "9461": "guess",
  "9462": "asmine",
  "9463": "Che",
  "9464": " tugging",
  "9465": " Pretty",
  "9466": " Mole",
  "9467": "lor",
  "9468": " untangle",
  "9469": " satisfa",
  "9470": " owls",
  "9471": " mailing",
  "9472": " injured",
  "9473": "Whose",
  "9474": " satisfaction",
  "9475": " concentr",
  "9476": " White",
  "9477": " Immediately",
  "9478": " Books",
  "9479": "Fly",
  "9480": " March",
  "9481": " Animals",
  "9482": "mers",
  "9483": "Sc",
  "9484": "Mittens",
  "9485": " lim",
  "9486": " Eat",
  "9487": "this",
  "9488": "Mabel",
  "9489": " prank",
  "9490": " Wonder",
  "9491": " Nora",
  "9492": " Bonnie",
  "9493": "Wiggly",
  "9494": " hooves",
  "9495": " Triangle",
  "9496": " Run",
  "9497": " Pot",
  "9498": " Melissa",
  "9499": " Kn",
  "9500": "well",
  "9501": "Jeff",
  "9502": " fixer",
  "9503": " Startled",
  "9504": " Sir",
  "9505": " Clean",
  "9506": " Close",
  "9507": "icate",
  "9508": " snar",
  "9509": " clut",
  "9510": "lish",
  "9511": "bling",
  "9512": "Excited",
  "9513": " skies",
  "9514": " instrument",
  "9515": " Trucky",
  "9516": " capt",
  "9517": " Matilda",
  "9518": " Horsie",
  "9519": " Faye",
  "9520": "adually",
  "9521": " disagre",
  "9522": "iky",
  "9523": " wriggled",
  "9524": " stains",
  "9525": " rinse",
  "9526": " pecks",
  "9527": " creak",
  "9528": " Sleepy",
  "9529": "Susan",
  "9530": " shave",
  "9531": " bumping",
  "9532": " Icy",
  "9533": " Heli",
  "9534": " Crabby",
  "9535": "ulf",
  "9536": "els",
  "9537": " swirl",
  "9538": " ruff",
  "9539": " bending",
  "9540": "cessary",
  "9541": "Playing",
  "9542": "Close",
  "9543": " sandpit",
  "9544": " exploration",
  "9545": " chatted",
  "9546": " Scissors",
  "9547": "Make",
  "9548": " rods",
  "9549": " lever",
  "9550": " facts",
  "9551": "Sm",
  "9552": " attaching",
  "9553": " Candy",
  "9554": " fooled",
  "9555": " burger",
  "9556": " Bro",
  "9557": " glows",
  "9558": " concerned",
  "9559": " clearly",
  "9560": "Maya",
  "9561": " salon",
  "9562": " reversing",
  "9563": " lava",
  "9564": " compan",
  "9565": " certainly",
  "9566": "Wally",
  "9567": " smelt",
  "9568": " motorcycles",
  "9569": " fetched",
  "9570": " circ",
  "9571": " troll",
  "9572": " tunes",
  "9573": " sometime",
  "9574": " prod",
  "9575": " oldest",
  "9576": " fireflies",
  "9577": " kissing",
  "9578": " challenges",
  "9579": " blonde",
  "9580": "Kayla",
  "9581": " warmed",
  "9582": " Bobbie",
  "9583": " unlocking",
  "9584": " natural",
  "9585": " differently",
  "9586": " bound",
  "9587": " Lots",
  "9588": "urple",
  "9589": "sa",
  "9590": "erg",
  "9591": "Tara",
  "9592": "Dino",
  "9593": "Abracadabra",
  "9594": " rubb",
  "9595": " riverbank",
  "9596": " detect",
  "9597": " cutter",
  "9598": " cupcake",
  "9599": " conquered",
  "9600": "Ring",
  "9601": " hates",
  "9602": " alley",
  "9603": " Flap",
  "9604": "sorry",
  "9605": " swirls",
  "9606": " sends",
  "9607": " realise",
  "9608": " Open",
  "9609": " Flopsy",
  "9610": "ani",
  "9611": "Julia",
  "9612": "Isn",
  "9613": " wiggling",
  "9614": " sensation",
  "9615": " munched",
  "9616": " banging",
  "9617": " Cammy",
  "9618": " toppings",
  "9619": " hippos",
  "9620": " fist",
  "9621": " clips",
  "9622": " Reliable",
  "9623": "Doctor",
  "9624": " swayed",
  "9625": " stings",
  "9626": " robe",
  "9627": " miracle",
  "9628": " halves",
  "9629": " brakes",
  "9630": " Greeny",
  "9631": "Hope",
  "9632": "Fish",
  "9633": " survive",
  "9634": " ostriches",
  "9635": " Pink",
  "9636": " Climb",
  "9637": "ula",
  "9638": "keepers",
  "9639": "bert",
  "9640": "Michael",
  "9641": " torto",
  "9642": " otherwise",
  "9643": " embra",
  "9644": " crushed",
  "9645": " bubbling",
  "9646": " tents",
  "9647": " Looking",
  "9648": " Rh",
  "9649": " repairing",
  "9650": " Of",
  "9651": " vinegar",
  "9652": " stretchy",
  "9653": " rubbish",
  "9654": " lizards",
  "9655": " Working",
  "9656": " Flicker",
  "9657": " passenger",
  "9658": " Ed",
  "9659": "aste",
  "9660": "Many",
  "9661": " vibrant",
  "9662": " tortoise",
  "9663": " pounced",
  "9664": " Which",
  "9665": "Suzie",
  "9666": " scene",
  "9667": " Grump",
  "9668": "gr",
  "9669": " mooed",
  "9670": " glided",
  "9671": " desperately",
  "9672": " bas",
  "9673": " snip",
  "9674": " poop",
  "9675": " majest",
  "9676": " intently",
  "9677": " copied",
  "9678": " calmer",
  "9679": " Sundays",
  "9680": " Lightning",
  "9681": "rap",
  "9682": " woken",
  "9683": " twel",
  "9684": " rags",
  "9685": " judges",
  "9686": " joyfully",
  "9687": " jing",
  "9688": " coolest",
  "9689": " Per",
  "9690": "smelling",
  "9691": " lectures",
  "9692": " glob",
  "9693": " Jody",
  "9694": "lyn",
  "9695": "isible",
  "9696": " hips",
  "9697": " cousins",
  "9698": " astonished",
  "9699": " capes",
  "9700": " Outside",
  "9701": "uno",
  "9702": "Eww",
  "9703": " successfully",
  "9704": " speaker",
  "9705": " reunited",
  "9706": " invisible",
  "9707": " guesses",
  "9708": " gooey",
  "9709": " arrives",
  "9710": "why",
  "9711": " twelve",
  "9712": " bats",
  "9713": "urity",
  "9714": "Mikey",
  "9715": " goodness",
  "9716": " computers",
  "9717": " chatting",
  "9718": " Carla",
  "9719": "nded",
  "9720": "mie",
  "9721": " stacking",
  "9722": " snowflake",
  "9723": "istory",
  "9724": " reappeared",
  "9725": " racer",
  "9726": " pounds",
  "9727": " parks",
  "9728": " desperate",
  "9729": " companion",
  "9730": " commun",
  "9731": "bed",
  "9732": "Zigzag",
  "9733": "Ol",
  "9734": " luckiest",
  "9735": " level",
  "9736": " dou",
  "9737": " ank",
  "9738": " tale",
  "9739": " stomachs",
  "9740": " sells",
  "9741": " gall",
  "9742": " dumb",
  "9743": " crickets",
  "9744": " Sugar",
  "9745": "iggles",
  "9746": "Nick",
  "9747": " winds",
  "9748": " sus",
  "9749": " gates",
  "9750": " disobeyed",
  "9751": " disagreement",
  "9752": " Steven",
  "9753": "hile",
  "9754": "More",
  "9755": " pearls",
  "9756": " hoses",
  "9757": " crisp",
  "9758": " awhile",
  "9759": " Whee",
  "9760": "ites",
  "9761": "Lou",
  "9762": " soda",
  "9763": " popsic",
  "9764": " loyalty",
  "9765": " Orange",
  "9766": "Linda",
  "9767": " tongues",
  "9768": " Rosa",
  "9769": "usion",
  "9770": "rent",
  "9771": " rider",
  "9772": " CD",
  "9773": "Ooh",
  "9774": " Black",
  "9775": "pan",
  "9776": " surely",
  "9777": " Law",
  "9778": " Annabelle",
  "9779": "colored",
  "9780": " occasion",
  "9781": " bund",
  "9782": "rum",
  "9783": "izza",
  "9784": "dog",
  "9785": "!’",
  "9786": " stun",
  "9787": " guitars",
  "9788": " chicks",
  "9789": "oard",
  "9790": "chief",
  "9791": " separating",
  "9792": " seashe",
  "9793": " rebuild",
  "9794": " intelligence",
  "9795": " alligators",
  "9796": " aboard",
  "9797": " Raven",
  "9798": " Iron",
  "9799": " April",
  "9800": "Found",
  "9801": " croak",
  "9802": " creep",
  "9803": " Winky",
  "9804": " Violet",
  "9805": "aids",
  "9806": "Something",
  "9807": "Catch",
  "9808": " learner",
  "9809": " caution",
  "9810": " cuc",
  "9811": " Old",
  "9812": " Care",
  "9813": "solut",
  "9814": " whines",
  "9815": " spiky",
  "9816": " revealing",
  "9817": " rins",
  "9818": " Uni",
  "9819": "working",
  "9820": " tickling",
  "9821": " escap",
  "9822": " Settle",
  "9823": " underwater",
  "9824": " globe",
  "9825": " crouched",
  "9826": " Roar",
  "9827": " Coby",
  "9828": " Ba",
  "9829": "udge",
  "9830": "everse",
  "9831": "anne",
  "9832": "!'.",
  "9833": " prog",
  "9834": " blooms",
  "9835": " appearance",
  "9836": " ''",
  "9837": "urricane",
  "9838": "stop",
  "9839": "seph",
  "9840": "ifer",
  "9841": "fived",
  "9842": " strokes",
  "9843": " leaking",
  "9844": " hatched",
  "9845": " guardian",
  "9846": " Socky",
  "9847": "ealing",
  "9848": "arning",
  "9849": " zookeepers",
  "9850": " tant",
  "9851": " routine",
  "9852": " persistence",
  "9853": " doves",
  "9854": "Snap",
  "9855": "Sleep",
  "9856": "Chicky",
  "9857": " taps",
  "9858": " squashes",
  "9859": " quilt",
  "9860": " painful",
  "9861": " lighting",
  "9862": " blame",
  "9863": " admit",
  "9864": " Lu",
  "9865": "net",
  "9866": "Toys",
  "9867": "Ahh",
  "9868": " tempting",
  "9869": " shattered",
  "9870": " ripp",
  "9871": " mold",
  "9872": " deeply",
  "9873": " Puff",
  "9874": "ggles",
  "9875": "Three",
  "9876": "Ralph",
  "9877": "Matt",
  "9878": "Jan",
  "9879": " throne",
  "9880": " squirted",
  "9881": " security",
  "9882": " peeks",
  "9883": " electricity",
  "9884": " centre",
  "9885": " burgers",
  "9886": " Spin",
  "9887": "emon",
  "9888": "con",
  "9889": " realizing",
  "9890": " cooks",
  "9891": " allowing",
  "9892": " Liam",
  "9893": "ushes",
  "9894": "orth",
  "9895": "oss",
  "9896": "cker",
  "9897": "Jessica",
  "9898": " lar",
  "9899": " exchange",
  "9900": " chopping",
  "9901": "Share",
  "9902": "Sophia",
  "9903": " sweetly",
  "9904": " Race",
  "9905": " Quickly",
  "9906": " Alf",
  "9907": "vering",
  "9908": " sweeter",
  "9909": " rinsed",
  "9910": " glittered",
  "9911": "isapp",
  "9912": "Zero",
  "9913": "Sw",
  "9914": " melts",
  "9915": " melody",
  "9916": " goggles",
  "9917": " furious",
  "9918": " energetic",
  "9919": " defeated",
  "9920": " builders",
  "9921": " Inch",
  "9922": "asy",
  "9923": " waded",
  "9924": " tantrum",
  "9925": " sniffled",
  "9926": " chooses",
  "9927": " Otherwise",
  "9928": " Cats",
  "9929": " Comet",
  "9930": " container",
  "9931": " competing",
  "9932": " Giant",
  "9933": "eremy",
  "9934": "bang",
  "9935": " Sharp",
  "9936": " Mila",
  "9937": "arted",
  "9938": " undone",
  "9939": " seriously",
  "9940": " protection",
  "9941": " larger",
  "9942": " lull",
  "9943": " hudd",
  "9944": " attempts",
  "9945": " Rara",
  "9946": " Park",
  "9947": " Duke",
  "9948": "Shoo",
  "9949": "Lizzie",
  "9950": " tossing",
  "9951": " helicopters",
  "9952": " cooed",
  "9953": " cluck",
  "9954": " buckles",
  "9955": " Whale",
  "9956": " Pinchy",
  "9957": " Cher",
  "9958": "Sweet",
  "9959": " Tears",
  "9960": " Smo",
  "9961": " Over",
  "9962": "solutely",
  "9963": "Still",
  "9964": "Squeaky",
  "9965": " hummed",
  "9966": " dedic",
  "9967": " courageous",
  "9968": " Ma",
  "9969": " Hor",
  "9970": " Din",
  "9971": "dest",
  "9972": "Maddy",
  "9973": "Everything",
  "9974": "Curious",
  "9975": " racers",
  "9976": " patients",
  "9977": " muster",
  "9978": " god",
  "9979": " deserves",
  "9980": " aloud",
  "9981": " Things",
  "9982": "aps",
  "9983": "Use",
  "9984": " Squee",
  "9985": " Dragon",
  "9986": " tours",
  "9987": " meets",
  "9988": " marvel",
  "9989": " Rusty",
  "9990": " Liza",
  "9991": " Jet",
  "9992": "Froggy",
  "9993": " wrapper",
  "9994": " Reddy",
  "9995": " Hops",
  "9996": " Crusty",
  "9997": " whiskers",
  "9998": " nicest",
  "9999": " improving"
}